<?xml version="1.0"?>
<opencv_storage>
<_2human_square_detect_34 type_id="opencv-haar-classifier">
  <size>
    34 34</size>
  <stages>
    <_>
      <!-- stage 0 -->
      <trees>
        <_>
          <!-- tree 0 -->
          <_>
            <!-- root node -->
            <feature>
              <rects>
                <_>
                  0 1 33 4 -1.</_>
                <_>
                  11 1 11 4 3.</_></rects>
              <tilted>0</tilted></feature>
            <threshold>-2.2668240591883659e-002</threshold>
            <left_val>6.1040121316909790e-001</left_val>
            <right_val>-7.2027862071990967e-001</right_val></_></_>
        <_>
          <!-- tree 1 -->
          <_>
            <!-- root node -->
            <feature>
              <rects>
                <_>
                  5 22 24 9 -1.</_>
                <_>
                  13 22 8 9 3.</_></rects>
              <tilted>0</tilted></feature>
            <threshold>-7.0336550474166870e-002</threshold>
            <left_val>6.4036327600479126e-001</left_val>
            <right_val>-3.6703538894653320e-001</right_val></_></_>
        <_>
          <!-- tree 2 -->
          <_>
            <!-- root node -->
            <feature>
              <rects>
                <_>
                  8 3 17 18 -1.</_>
                <_>
                  8 12 17 9 2.</_></rects>
              <tilted>0</tilted></feature>
            <threshold>-1.4782040379941463e-002</threshold>
            <left_val>-8.3631038665771484e-001</left_val>
            <right_val>2.8363341093063354e-001</right_val></_></_>
        <_>
          <!-- tree 3 -->
          <_>
            <!-- root node -->
            <feature>
              <rects>
                <_>
                  13 10 10 24 -1.</_>
                <_>
                  13 18 10 8 3.</_></rects>
              <tilted>0</tilted></feature>
            <threshold>3.1453040428459644e-003</threshold>
            <left_val>3.0561360716819763e-001</left_val>
            <right_val>-5.7003152370452881e-001</right_val></_></_>
        <_>
          <!-- tree 4 -->
          <_>
            <!-- root node -->
            <feature>
              <rects>
                <_>
                  13 8 8 25 -1.</_>
                <_>
                  17 8 4 25 2.</_></rects>
              <tilted>0</tilted></feature>
            <threshold>-4.2682061903178692e-003</threshold>
            <left_val>2.6266241073608398e-001</left_val>
            <right_val>-5.3165578842163086e-001</right_val></_></_>
        <_>
          <!-- tree 5 -->
          <_>
            <!-- root node -->
            <feature>
              <rects>
                <_>
                  9 0 18 9 -1.</_>
                <_>
                  9 3 18 3 3.</_></rects>
              <tilted>0</tilted></feature>
            <threshold>-1.1218409985303879e-002</threshold>
            <left_val>3.5224980115890503e-001</left_val>
            <right_val>-3.9304891228675842e-001</right_val></_></_>
        <_>
          <!-- tree 6 -->
          <_>
            <!-- root node -->
            <feature>
              <rects>
                <_>
                  15 10 4 18 -1.</_>
                <_>
                  15 19 4 9 2.</_></rects>
              <tilted>0</tilted></feature>
            <threshold>-2.2960320115089417e-002</threshold>
            <left_val>-8.4839540719985962e-001</left_val>
            <right_val>1.2720470130443573e-001</right_val></_></_></trees>
      <stage_threshold>-1.4259129762649536e+000</stage_threshold>
      <parent>-1</parent>
      <next>-1</next></_>
    <_>
      <!-- stage 1 -->
      <trees>
        <_>
          <!-- tree 0 -->
          <_>
            <!-- root node -->
            <feature>
              <rects>
                <_>
                  10 0 13 6 -1.</_>
                <_>
                  10 2 13 2 3.</_></rects>
              <tilted>0</tilted></feature>
            <threshold>-1.7663149628788233e-003</threshold>
            <left_val>4.3270099163055420e-001</left_val>
            <right_val>-6.4406150579452515e-001</right_val></_></_>
        <_>
          <!-- tree 1 -->
          <_>
            <!-- root node -->
            <feature>
              <rects>
                <_>
                  14 24 7 10 -1.</_>
                <_>
                  14 29 7 5 2.</_></rects>
              <tilted>0</tilted></feature>
            <threshold>6.8160789087414742e-003</threshold>
            <left_val>-5.5868417024612427e-001</left_val>
            <right_val>4.4739618897438049e-001</right_val></_></_>
        <_>
          <!-- tree 2 -->
          <_>
            <!-- root node -->
            <feature>
              <rects>
                <_>
                  0 3 33 2 -1.</_>
                <_>
                  11 3 11 2 3.</_></rects>
              <tilted>0</tilted></feature>
            <threshold>-3.3496949821710587e-002</threshold>
            <left_val>5.9669917821884155e-001</left_val>
            <right_val>-3.9553889632225037e-001</right_val></_></_>
        <_>
          <!-- tree 3 -->
          <_>
            <!-- root node -->
            <feature>
              <rects>
                <_>
                  12 12 10 8 -1.</_>
                <_>
                  12 12 5 8 2.</_></rects>
              <tilted>0</tilted></feature>
            <threshold>8.4182719001546502e-004</threshold>
            <left_val>-5.4733407497406006e-001</left_val>
            <right_val>3.2481670379638672e-001</right_val></_></_>
        <_>
          <!-- tree 4 -->
          <_>
            <!-- root node -->
            <feature>
              <rects>
                <_>
                  8 3 17 16 -1.</_>
                <_>
                  8 11 17 8 2.</_></rects>
              <tilted>0</tilted></feature>
            <threshold>5.0918417982757092e-003</threshold>
            <left_val>-6.5659612417221069e-001</left_val>
            <right_val>2.3022760450839996e-001</right_val></_></_>
        <_>
          <!-- tree 5 -->
          <_>
            <!-- root node -->
            <feature>
              <rects>
                <_>
                  1 18 33 14 -1.</_>
                <_>
                  12 18 11 14 3.</_></rects>
              <tilted>0</tilted></feature>
            <threshold>-8.5539698600769043e-002</threshold>
            <left_val>4.4511198997497559e-001</left_val>
            <right_val>-4.0413489937782288e-001</right_val></_></_>
        <_>
          <!-- tree 6 -->
          <_>
            <!-- root node -->
            <feature>
              <rects>
                <_>
                  0 6 18 8 -1.</_>
                <_>
                  6 6 6 8 3.</_></rects>
              <tilted>0</tilted></feature>
            <threshold>-1.1653710156679153e-002</threshold>
            <left_val>3.3289349079132080e-001</left_val>
            <right_val>-3.2941681146621704e-001</right_val></_></_>
        <_>
          <!-- tree 7 -->
          <_>
            <!-- root node -->
            <feature>
              <rects>
                <_>
                  12 15 11 15 -1.</_>
                <_>
                  12 20 11 5 3.</_></rects>
              <tilted>0</tilted></feature>
            <threshold>-3.8738308940082788e-003</threshold>
            <left_val>2.3163610696792603e-001</left_val>
            <right_val>-3.5815811157226563e-001</right_val></_></_>
        <_>
          <!-- tree 8 -->
          <_>
            <!-- root node -->
            <feature>
              <rects>
                <_>
                  14 11 4 14 -1.</_>
                <_>
                  14 18 4 7 2.</_></rects>
              <tilted>0</tilted></feature>
            <threshold>-1.7783729359507561e-002</threshold>
            <left_val>-8.1649732589721680e-001</left_val>
            <right_val>1.1813969910144806e-001</right_val></_></_>
        <_>
          <!-- tree 9 -->
          <_>
            <!-- root node -->
            <feature>
              <rects>
                <_>
                  8 1 18 9 -1.</_>
                <_>
                  8 4 18 3 3.</_></rects>
              <tilted>0</tilted></feature>
            <threshold>-8.9329164475202560e-003</threshold>
            <left_val>2.4433450400829315e-001</left_val>
            <right_val>-3.3722829818725586e-001</right_val></_></_></trees>
      <stage_threshold>-1.6303149461746216e+000</stage_threshold>
      <parent>0</parent>
      <next>-1</next></_>
    <_>
      <!-- stage 2 -->
      <trees>
        <_>
          <!-- tree 0 -->
          <_>
            <!-- root node -->
            <feature>
              <rects>
                <_>
                  8 0 16 9 -1.</_>
                <_>
                  8 3 16 3 3.</_></rects>
              <tilted>0</tilted></feature>
            <threshold>-2.0326130092144012e-002</threshold>
            <left_val>4.6230900287628174e-001</left_val>
            <right_val>-4.3500620126724243e-001</right_val></_></_>
        <_>
          <!-- tree 1 -->
          <_>
            <!-- root node -->
            <feature>
              <rects>
                <_>
                  2 18 30 13 -1.</_>
                <_>
                  12 18 10 13 3.</_></rects>
              <tilted>0</tilted></feature>
            <threshold>-1.0830140113830566e-001</threshold>
            <left_val>5.0740247964859009e-001</left_val>
            <right_val>-3.4777110815048218e-001</right_val></_></_>
        <_>
          <!-- tree 2 -->
          <_>
            <!-- root node -->
            <feature>
              <rects>
                <_>
                  2 0 30 4 -1.</_>
                <_>
                  12 0 10 4 3.</_></rects>
              <tilted>0</tilted></feature>
            <threshold>-6.1752358451485634e-003</threshold>
            <left_val>2.2142599523067474e-001</left_val>
            <right_val>-7.2063249349594116e-001</right_val></_></_>
        <_>
          <!-- tree 3 -->
          <_>
            <!-- root node -->
            <feature>
              <rects>
                <_>
                  12 4 12 13 -1.</_>
                <_>
                  16 4 4 13 3.</_></rects>
              <tilted>0</tilted></feature>
            <threshold>7.8929221490398049e-004</threshold>
            <left_val>-3.1293240189552307e-001</left_val>
            <right_val>3.0916959047317505e-001</right_val></_></_>
        <_>
          <!-- tree 4 -->
          <_>
            <!-- root node -->
            <feature>
              <rects>
                <_>
                  15 5 4 1 -1.</_>
                <_>
                  17 5 2 1 2.</_></rects>
              <tilted>0</tilted></feature>
            <threshold>9.7200776508543640e-005</threshold>
            <left_val>2.0270229876041412e-001</left_val>
            <right_val>-5.8265727758407593e-001</right_val></_></_>
        <_>
          <!-- tree 5 -->
          <_>
            <!-- root node -->
            <feature>
              <rects>
                <_>
                  15 0 6 34 -1.</_>
                <_>
                  15 17 6 17 2.</_></rects>
              <tilted>0</tilted></feature>
            <threshold>-1.5495959669351578e-002</threshold>
            <left_val>-6.5948331356048584e-001</left_val>
            <right_val>1.4621460437774658e-001</right_val></_></_>
        <_>
          <!-- tree 6 -->
          <_>
            <!-- root node -->
            <feature>
              <rects>
                <_>
                  3 6 12 7 -1.</_>
                <_>
                  7 6 4 7 3.</_></rects>
              <tilted>0</tilted></feature>
            <threshold>-1.3474820181727409e-002</threshold>
            <left_val>4.2824289202690125e-001</left_val>
            <right_val>-3.1367871165275574e-001</right_val></_></_>
        <_>
          <!-- tree 7 -->
          <_>
            <!-- root node -->
            <feature>
              <rects>
                <_>
                  14 13 6 21 -1.</_>
                <_>
                  14 20 6 7 3.</_></rects>
              <tilted>0</tilted></feature>
            <threshold>1.6993789467960596e-003</threshold>
            <left_val>2.2983150184154510e-001</left_val>
            <right_val>-5.6480729579925537e-001</right_val></_></_>
        <_>
          <!-- tree 8 -->
          <_>
            <!-- root node -->
            <feature>
              <rects>
                <_>
                  15 2 4 1 -1.</_>
                <_>
                  17 2 2 1 2.</_></rects>
              <tilted>0</tilted></feature>
            <threshold>-1.1450039892224595e-004</threshold>
            <left_val>-5.3682607412338257e-001</left_val>
            <right_val>1.7719240486621857e-001</right_val></_></_>
        <_>
          <!-- tree 9 -->
          <_>
            <!-- root node -->
            <feature>
              <rects>
                <_>
                  15 2 4 1 -1.</_>
                <_>
                  15 2 2 1 2.</_></rects>
              <tilted>0</tilted></feature>
            <threshold>-1.1441209790064022e-004</threshold>
            <left_val>-5.1814407110214233e-001</left_val>
            <right_val>2.0553749799728394e-001</right_val></_></_>
        <_>
          <!-- tree 10 -->
          <_>
            <!-- root node -->
            <feature>
              <rects>
                <_>
                  1 25 30 9 -1.</_>
                <_>
                  16 25 15 9 2.</_></rects>
              <tilted>0</tilted></feature>
            <threshold>2.7884809300303459e-002</threshold>
            <left_val>1.3379460573196411e-001</left_val>
            <right_val>-5.6135171651840210e-001</right_val></_></_>
        <_>
          <!-- tree 11 -->
          <_>
            <!-- root node -->
            <feature>
              <rects>
                <_>
                  0 3 34 31 -1.</_>
                <_>
                  0 3 17 31 2.</_></rects>
              <tilted>0</tilted></feature>
            <threshold>3.1939110159873962e-001</threshold>
            <left_val>1.1083360016345978e-001</left_val>
            <right_val>-6.4107280969619751e-001</right_val></_></_>
        <_>
          <!-- tree 12 -->
          <_>
            <!-- root node -->
            <feature>
              <rects>
                <_>
                  13 11 8 15 -1.</_>
                <_>
                  17 11 4 15 2.</_></rects>
              <tilted>0</tilted></feature>
            <threshold>-2.4087110068649054e-003</threshold>
            <left_val>1.9669230282306671e-001</left_val>
            <right_val>-3.8791209459304810e-001</right_val></_></_>
        <_>
          <!-- tree 13 -->
          <_>
            <!-- root node -->
            <feature>
              <rects>
                <_>
                  6 0 23 16 -1.</_>
                <_>
                  6 8 23 8 2.</_></rects>
              <tilted>0</tilted></feature>
            <threshold>1.5820649266242981e-001</threshold>
            <left_val>7.8406512737274170e-002</left_val>
            <right_val>-8.4966582059860229e-001</right_val></_></_>
        <_>
          <!-- tree 14 -->
          <_>
            <!-- root node -->
            <feature>
              <rects>
                <_>
                  14 4 2 1 -1.</_>
                <_>
                  15 4 1 1 2.</_></rects>
              <tilted>0</tilted></feature>
            <threshold>-5.1571580115705729e-005</threshold>
            <left_val>-4.4726839661598206e-001</left_val>
            <right_val>1.4977930486202240e-001</right_val></_></_>
        <_>
          <!-- tree 15 -->
          <_>
            <!-- root node -->
            <feature>
              <rects>
                <_>
                  18 4 2 1 -1.</_>
                <_>
                  18 4 1 1 2.</_></rects>
              <tilted>0</tilted></feature>
            <threshold>-4.2629701056284830e-005</threshold>
            <left_val>-3.9501190185546875e-001</left_val>
            <right_val>1.1685259640216827e-001</right_val></_></_></trees>
      <stage_threshold>-1.5551689863204956e+000</stage_threshold>
      <parent>1</parent>
      <next>-1</next></_>
    <_>
      <!-- stage 3 -->
      <trees>
        <_>
          <!-- tree 0 -->
          <_>
            <!-- root node -->
            <feature>
              <rects>
                <_>
                  5 1 24 4 -1.</_>
                <_>
                  13 1 8 4 3.</_></rects>
              <tilted>0</tilted></feature>
            <threshold>-3.1308859586715698e-002</threshold>
            <left_val>4.7073981165885925e-001</left_val>
            <right_val>-4.0606969594955444e-001</right_val></_></_>
        <_>
          <!-- tree 1 -->
          <_>
            <!-- root node -->
            <feature>
              <rects>
                <_>
                  5 23 24 7 -1.</_>
                <_>
                  13 23 8 7 3.</_></rects>
              <tilted>0</tilted></feature>
            <threshold>-5.9994481503963470e-002</threshold>
            <left_val>5.4573428630828857e-001</left_val>
            <right_val>-3.1564378738403320e-001</right_val></_></_>
        <_>
          <!-- tree 2 -->
          <_>
            <!-- root node -->
            <feature>
              <rects>
                <_>
                  9 5 15 10 -1.</_>
                <_>
                  14 5 5 10 3.</_></rects>
              <tilted>0</tilted></feature>
            <threshold>9.3891546130180359e-003</threshold>
            <left_val>-3.5247251391410828e-001</left_val>
            <right_val>4.5133960247039795e-001</right_val></_></_>
        <_>
          <!-- tree 3 -->
          <_>
            <!-- root node -->
            <feature>
              <rects>
                <_>
                  17 0 8 4 -1.</_>
                <_>
                  17 2 8 2 2.</_></rects>
              <tilted>0</tilted></feature>
            <threshold>4.4002128561260179e-005</threshold>
            <left_val>1.5355940163135529e-001</left_val>
            <right_val>-5.2576017379760742e-001</right_val></_></_>
        <_>
          <!-- tree 4 -->
          <_>
            <!-- root node -->
            <feature>
              <rects>
                <_>
                  15 3 4 1 -1.</_>
                <_>
                  17 3 2 1 2.</_></rects>
              <tilted>0</tilted></feature>
            <threshold>-8.9885426859837025e-005</threshold>
            <left_val>-4.6015051007270813e-001</left_val>
            <right_val>2.6393708586692810e-001</right_val></_></_>
        <_>
          <!-- tree 5 -->
          <_>
            <!-- root node -->
            <feature>
              <rects>
                <_>
                  15 3 4 1 -1.</_>
                <_>
                  15 3 2 1 2.</_></rects>
              <tilted>0</tilted></feature>
            <threshold>-6.1720253142993897e-005</threshold>
            <left_val>-5.1257932186126709e-001</left_val>
            <right_val>1.8508400022983551e-001</right_val></_></_>
        <_>
          <!-- tree 6 -->
          <_>
            <!-- root node -->
            <feature>
              <rects>
                <_>
                  14 0 5 30 -1.</_>
                <_>
                  14 15 5 15 2.</_></rects>
              <tilted>0</tilted></feature>
            <threshold>-2.4487020447850227e-002</threshold>
            <left_val>-8.4408938884735107e-001</left_val>
            <right_val>8.0111667513847351e-002</right_val></_></_>
        <_>
          <!-- tree 7 -->
          <_>
            <!-- root node -->
            <feature>
              <rects>
                <_>
                  16 12 7 21 -1.</_>
                <_>
                  16 19 7 7 3.</_></rects>
              <tilted>0</tilted></feature>
            <threshold>-6.3176532275974751e-003</threshold>
            <left_val>1.5827520191669464e-001</left_val>
            <right_val>-3.4415531158447266e-001</right_val></_></_>
        <_>
          <!-- tree 8 -->
          <_>
            <!-- root node -->
            <feature>
              <rects>
                <_>
                  11 12 10 6 -1.</_>
                <_>
                  16 12 5 6 2.</_></rects>
              <tilted>0</tilted></feature>
            <threshold>-1.2990010436624289e-003</threshold>
            <left_val>2.3571309447288513e-001</left_val>
            <right_val>-3.5581550002098083e-001</right_val></_></_>
        <_>
          <!-- tree 9 -->
          <_>
            <!-- root node -->
            <feature>
              <rects>
                <_>
                  23 4 8 10 -1.</_>
                <_>
                  23 4 4 10 2.</_></rects>
              <tilted>0</tilted></feature>
            <threshold>-1.2593650259077549e-002</threshold>
            <left_val>3.4962299466133118e-001</left_val>
            <right_val>-2.4880479276180267e-001</right_val></_></_>
        <_>
          <!-- tree 10 -->
          <_>
            <!-- root node -->
            <feature>
              <rects>
                <_>
                  3 4 12 10 -1.</_>
                <_>
                  7 4 4 10 3.</_></rects>
              <tilted>0</tilted></feature>
            <threshold>-1.6749380156397820e-002</threshold>
            <left_val>3.3467909693717957e-001</left_val>
            <right_val>-2.2644419968128204e-001</right_val></_></_>
        <_>
          <!-- tree 11 -->
          <_>
            <!-- root node -->
            <feature>
              <rects>
                <_>
                  14 14 8 4 -1.</_>
                <_>
                  14 14 4 4 2.</_></rects>
              <tilted>0</tilted></feature>
            <threshold>1.2588219717144966e-002</threshold>
            <left_val>7.9798489809036255e-002</left_val>
            <right_val>-7.2904562950134277e-001</right_val></_></_>
        <_>
          <!-- tree 12 -->
          <_>
            <!-- root node -->
            <feature>
              <rects>
                <_>
                  15 5 1 2 -1.</_>
                <_>
                  15 6 1 1 2.</_></rects>
              <tilted>0</tilted></feature>
            <threshold>-9.2445858172141016e-005</threshold>
            <left_val>-6.0905909538269043e-001</left_val>
            <right_val>9.6127606928348541e-002</right_val></_></_>
        <_>
          <!-- tree 13 -->
          <_>
            <!-- root node -->
            <feature>
              <rects>
                <_>
                  17 0 7 6 -1.</_>
                <_>
                  17 2 7 2 3.</_></rects>
              <tilted>0</tilted></feature>
            <threshold>-3.4195939078927040e-003</threshold>
            <left_val>8.8727459311485291e-002</left_val>
            <right_val>-9.0279981493949890e-002</right_val></_></_>
        <_>
          <!-- tree 14 -->
          <_>
            <!-- root node -->
            <feature>
              <rects>
                <_>
                  15 21 3 5 -1.</_>
                <_>
                  16 21 1 5 3.</_></rects>
              <tilted>0</tilted></feature>
            <threshold>-1.4215289847925305e-003</threshold>
            <left_val>-7.5927740335464478e-001</left_val>
            <right_val>7.2256006300449371e-002</right_val></_></_>
        <_>
          <!-- tree 15 -->
          <_>
            <!-- root node -->
            <feature>
              <rects>
                <_>
                  16 25 16 8 -1.</_>
                <_>
                  24 25 8 4 2.</_>
                <_>
                  16 29 8 4 2.</_></rects>
              <tilted>0</tilted></feature>
            <threshold>8.3352448418736458e-003</threshold>
            <left_val>-1.7711560428142548e-001</left_val>
            <right_val>2.0457559823989868e-001</right_val></_></_>
        <_>
          <!-- tree 16 -->
          <_>
            <!-- root node -->
            <feature>
              <rects>
                <_>
                  10 0 7 6 -1.</_>
                <_>
                  10 2 7 2 3.</_></rects>
              <tilted>0</tilted></feature>
            <threshold>-1.8778119701892138e-003</threshold>
            <left_val>2.3027099668979645e-001</left_val>
            <right_val>-2.6879870891571045e-001</right_val></_></_>
        <_>
          <!-- tree 17 -->
          <_>
            <!-- root node -->
            <feature>
              <rects>
                <_>
                  9 4 17 14 -1.</_>
                <_>
                  9 11 17 7 2.</_></rects>
              <tilted>0</tilted></feature>
            <threshold>-5.6219808757305145e-003</threshold>
            <left_val>-5.3395861387252808e-001</left_val>
            <right_val>9.8171308636665344e-002</right_val></_></_>
        <_>
          <!-- tree 18 -->
          <_>
            <!-- root node -->
            <feature>
              <rects>
                <_>
                  14 11 3 18 -1.</_>
                <_>
                  14 20 3 9 2.</_></rects>
              <tilted>0</tilted></feature>
            <threshold>-1.6415139660239220e-002</threshold>
            <left_val>-7.2666811943054199e-001</left_val>
            <right_val>7.0026837289333344e-002</right_val></_></_>
        <_>
          <!-- tree 19 -->
          <_>
            <!-- root node -->
            <feature>
              <rects>
                <_>
                  16 16 2 8 -1.</_>
                <_>
                  16 20 2 4 2.</_></rects>
              <tilted>0</tilted></feature>
            <threshold>2.4542489554733038e-003</threshold>
            <left_val>8.4288716316223145e-002</left_val>
            <right_val>-5.6269532442092896e-001</right_val></_></_>
        <_>
          <!-- tree 20 -->
          <_>
            <!-- root node -->
            <feature>
              <rects>
                <_>
                  1 29 30 5 -1.</_>
                <_>
                  16 29 15 5 2.</_></rects>
              <tilted>0</tilted></feature>
            <threshold>2.8607200831174850e-002</threshold>
            <left_val>8.6493022739887238e-002</left_val>
            <right_val>-5.8740252256393433e-001</right_val></_></_>
        <_>
          <!-- tree 21 -->
          <_>
            <!-- root node -->
            <feature>
              <rects>
                <_>
                  0 18 34 15 -1.</_>
                <_>
                  0 18 17 15 2.</_></rects>
              <tilted>0</tilted></feature>
            <threshold>2.1224169433116913e-001</threshold>
            <left_val>6.5886870026588440e-002</left_val>
            <right_val>-6.6776251792907715e-001</right_val></_></_>
        <_>
          <!-- tree 22 -->
          <_>
            <!-- root node -->
            <feature>
              <rects>
                <_>
                  1 30 2 4 -1.</_>
                <_>
                  1 32 2 2 2.</_></rects>
              <tilted>0</tilted></feature>
            <threshold>1.0580870002740994e-004</threshold>
            <left_val>1.5272749960422516e-001</left_val>
            <right_val>-3.1361910700798035e-001</right_val></_></_></trees>
      <stage_threshold>-1.6534279584884644e+000</stage_threshold>
      <parent>2</parent>
      <next>-1</next></_>
    <_>
      <!-- stage 4 -->
      <trees>
        <_>
          <!-- tree 0 -->
          <_>
            <!-- root node -->
            <feature>
              <rects>
                <_>
                  8 1 18 2 -1.</_>
                <_>
                  14 1 6 2 3.</_></rects>
              <tilted>0</tilted></feature>
            <threshold>-6.6894671181216836e-004</threshold>
            <left_val>2.1145200729370117e-001</left_val>
            <right_val>-6.9424921274185181e-001</right_val></_></_>
        <_>
          <!-- tree 1 -->
          <_>
            <!-- root node -->
            <feature>
              <rects>
                <_>
                  14 12 8 19 -1.</_>
                <_>
                  14 12 4 19 2.</_></rects>
              <tilted>0</tilted></feature>
            <threshold>7.0836158556630835e-006</threshold>
            <left_val>-3.3948668837547302e-001</left_val>
            <right_val>1.2074080109596252e-001</right_val></_></_>
        <_>
          <!-- tree 2 -->
          <_>
            <!-- root node -->
            <feature>
              <rects>
                <_>
                  14 26 5 8 -1.</_>
                <_>
                  14 30 5 4 2.</_></rects>
              <tilted>0</tilted></feature>
            <threshold>4.5832651667296886e-003</threshold>
            <left_val>-3.8399359583854675e-001</left_val>
            <right_val>3.5259729623794556e-001</right_val></_></_>
        <_>
          <!-- tree 3 -->
          <_>
            <!-- root node -->
            <feature>
              <rects>
                <_>
                  10 0 17 9 -1.</_>
                <_>
                  10 3 17 3 3.</_></rects>
              <tilted>0</tilted></feature>
            <threshold>-1.5013610012829304e-002</threshold>
            <left_val>3.2057210803031921e-001</left_val>
            <right_val>-4.1551759839057922e-001</right_val></_></_>
        <_>
          <!-- tree 4 -->
          <_>
            <!-- root node -->
            <feature>
              <rects>
                <_>
                  2 17 30 15 -1.</_>
                <_>
                  12 17 10 15 3.</_></rects>
              <tilted>0</tilted></feature>
            <threshold>-1.1040289700031281e-001</threshold>
            <left_val>3.4449830651283264e-001</left_val>
            <right_val>-3.2547628879547119e-001</right_val></_></_>
        <_>
          <!-- tree 5 -->
          <_>
            <!-- root node -->
            <feature>
              <rects>
                <_>
                  11 1 13 22 -1.</_>
                <_>
                  11 12 13 11 2.</_></rects>
              <tilted>0</tilted></feature>
            <threshold>-1.2032359838485718e-002</threshold>
            <left_val>-7.3283112049102783e-001</left_val>
            <right_val>1.0780949890613556e-001</right_val></_></_>
        <_>
          <!-- tree 6 -->
          <_>
            <!-- root node -->
            <feature>
              <rects>
                <_>
                  16 25 1 4 -1.</_>
                <_>
                  16 27 1 2 2.</_></rects>
              <tilted>0</tilted></feature>
            <threshold>1.8768840527627617e-004</threshold>
            <left_val>-3.3897799253463745e-001</left_val>
            <right_val>2.5869798660278320e-001</right_val></_></_>
        <_>
          <!-- tree 7 -->
          <_>
            <!-- root node -->
            <feature>
              <rects>
                <_>
                  16 4 15 4 -1.</_>
                <_>
                  21 4 5 4 3.</_></rects>
              <tilted>0</tilted></feature>
            <threshold>-9.7554968670010567e-003</threshold>
            <left_val>3.0879530310630798e-001</left_val>
            <right_val>-2.7456301450729370e-001</right_val></_></_>
        <_>
          <!-- tree 8 -->
          <_>
            <!-- root node -->
            <feature>
              <rects>
                <_>
                  12 4 2 1 -1.</_>
                <_>
                  13 4 1 1 2.</_></rects>
              <tilted>0</tilted></feature>
            <threshold>-5.3646799642592669e-005</threshold>
            <left_val>-4.7488608956336975e-001</left_val>
            <right_val>2.0045579969882965e-001</right_val></_></_>
        <_>
          <!-- tree 9 -->
          <_>
            <!-- root node -->
            <feature>
              <rects>
                <_>
                  16 3 16 1 -1.</_>
                <_>
                  16 3 8 1 2.</_></rects>
              <tilted>0</tilted></feature>
            <threshold>-1.1488120071589947e-004</threshold>
            <left_val>1.0339760035276413e-001</left_val>
            <right_val>-5.1460492610931396e-001</right_val></_></_>
        <_>
          <!-- tree 10 -->
          <_>
            <!-- root node -->
            <feature>
              <rects>
                <_>
                  12 12 8 13 -1.</_>
                <_>
                  16 12 4 13 2.</_></rects>
              <tilted>0</tilted></feature>
            <threshold>-2.8938809409737587e-002</threshold>
            <left_val>-8.5462951660156250e-001</left_val>
            <right_val>7.3622338473796844e-002</right_val></_></_>
        <_>
          <!-- tree 11 -->
          <_>
            <!-- root node -->
            <feature>
              <rects>
                <_>
                  13 13 10 8 -1.</_>
                <_>
                  13 13 5 8 2.</_></rects>
              <tilted>0</tilted></feature>
            <threshold>2.5970579590648413e-003</threshold>
            <left_val>-3.3703109622001648e-001</left_val>
            <right_val>2.0186570286750793e-001</right_val></_></_>
        <_>
          <!-- tree 12 -->
          <_>
            <!-- root node -->
            <feature>
              <rects>
                <_>
                  2 27 2 6 -1.</_>
                <_>
                  2 30 2 3 2.</_></rects>
              <tilted>0</tilted></feature>
            <threshold>-1.2706789675576147e-005</threshold>
            <left_val>2.2363300621509552e-001</left_val>
            <right_val>-2.8557971119880676e-001</right_val></_></_>
        <_>
          <!-- tree 13 -->
          <_>
            <!-- root node -->
            <feature>
              <rects>
                <_>
                  15 3 6 1 -1.</_>
                <_>
                  17 3 2 1 3.</_></rects>
              <tilted>0</tilted></feature>
            <threshold>9.3261318397708237e-005</threshold>
            <left_val>1.1429750174283981e-001</left_val>
            <right_val>-3.3382439613342285e-001</right_val></_></_>
        <_>
          <!-- tree 14 -->
          <_>
            <!-- root node -->
            <feature>
              <rects>
                <_>
                  16 3 2 1 -1.</_>
                <_>
                  17 3 1 1 2.</_></rects>
              <tilted>0</tilted></feature>
            <threshold>-4.3029558582929894e-005</threshold>
            <left_val>-4.5752590894699097e-001</left_val>
            <right_val>1.6239400207996368e-001</right_val></_></_>
        <_>
          <!-- tree 15 -->
          <_>
            <!-- root node -->
            <feature>
              <rects>
                <_>
                  9 1 22 14 -1.</_>
                <_>
                  9 8 22 7 2.</_></rects>
              <tilted>0</tilted></feature>
            <threshold>1.2585000693798065e-001</threshold>
            <left_val>5.3291101008653641e-002</left_val>
            <right_val>-7.0867639780044556e-001</right_val></_></_>
        <_>
          <!-- tree 16 -->
          <_>
            <!-- root node -->
            <feature>
              <rects>
                <_>
                  0 8 18 4 -1.</_>
                <_>
                  6 8 6 4 3.</_></rects>
              <tilted>0</tilted></feature>
            <threshold>-8.0999024212360382e-003</threshold>
            <left_val>2.3868450522422791e-001</left_val>
            <right_val>-2.6241189241409302e-001</right_val></_></_>
        <_>
          <!-- tree 17 -->
          <_>
            <!-- root node -->
            <feature>
              <rects>
                <_>
                  15 5 4 1 -1.</_>
                <_>
                  15 5 2 1 2.</_></rects>
              <tilted>0</tilted></feature>
            <threshold>-6.0926180594833568e-005</threshold>
            <left_val>-4.6909311413764954e-001</left_val>
            <right_val>1.4156520366668701e-001</right_val></_></_>
        <_>
          <!-- tree 18 -->
          <_>
            <!-- root node -->
            <feature>
              <rects>
                <_>
                  10 16 11 12 -1.</_>
                <_>
                  10 20 11 4 3.</_></rects>
              <tilted>0</tilted></feature>
            <threshold>-4.6263202093541622e-003</threshold>
            <left_val>2.1230439841747284e-001</left_val>
            <right_val>-2.9727029800415039e-001</right_val></_></_>
        <_>
          <!-- tree 19 -->
          <_>
            <!-- root node -->
            <feature>
              <rects>
                <_>
                  20 21 6 2 -1.</_>
                <_>
                  20 21 3 2 2.</_></rects>
              <tilted>0</tilted></feature>
            <threshold>5.8551190886646509e-004</threshold>
            <left_val>-1.0781530290842056e-001</left_val>
            <right_val>2.2396409511566162e-001</right_val></_></_>
        <_>
          <!-- tree 20 -->
          <_>
            <!-- root node -->
            <feature>
              <rects>
                <_>
                  13 22 4 4 -1.</_>
                <_>
                  15 22 2 4 2.</_></rects>
              <tilted>0</tilted></feature>
            <threshold>-3.8228620542213321e-004</threshold>
            <left_val>2.2897820174694061e-001</left_val>
            <right_val>-2.5379788875579834e-001</right_val></_></_>
        <_>
          <!-- tree 21 -->
          <_>
            <!-- root node -->
            <feature>
              <rects>
                <_>
                  16 0 18 6 -1.</_>
                <_>
                  25 0 9 3 2.</_>
                <_>
                  16 3 9 3 2.</_></rects>
              <tilted>0</tilted></feature>
            <threshold>-1.3602900318801403e-002</threshold>
            <left_val>3.3748090267181396e-001</left_val>
            <right_val>-1.3752800226211548e-001</right_val></_></_>
        <_>
          <!-- tree 22 -->
          <_>
            <!-- root node -->
            <feature>
              <rects>
                <_>
                  15 14 2 12 -1.</_>
                <_>
                  15 20 2 6 2.</_></rects>
              <tilted>0</tilted></feature>
            <threshold>-7.5107738375663757e-003</threshold>
            <left_val>-6.9268280267715454e-001</left_val>
            <right_val>8.9787140488624573e-002</right_val></_></_>
        <_>
          <!-- tree 23 -->
          <_>
            <!-- root node -->
            <feature>
              <rects>
                <_>
                  13 14 11 3 -1.</_>
                <_>
                  13 15 11 1 3.</_></rects>
              <tilted>0</tilted></feature>
            <threshold>1.1824079556390643e-003</threshold>
            <left_val>-1.4661279320716858e-001</left_val>
            <right_val>2.5883919000625610e-001</right_val></_></_>
        <_>
          <!-- tree 24 -->
          <_>
            <!-- root node -->
            <feature>
              <rects>
                <_>
                  14 2 3 1 -1.</_>
                <_>
                  15 2 1 1 3.</_></rects>
              <tilted>0</tilted></feature>
            <threshold>1.0534009925322607e-004</threshold>
            <left_val>1.1081539839506149e-001</left_val>
            <right_val>-4.9374979734420776e-001</right_val></_></_></trees>
      <stage_threshold>-1.5749930143356323e+000</stage_threshold>
      <parent>3</parent>
      <next>-1</next></_>
    <_>
      <!-- stage 5 -->
      <trees>
        <_>
          <!-- tree 0 -->
          <_>
            <!-- root node -->
            <feature>
              <rects>
                <_>
                  7 1 10 10 -1.</_>
                <_>
                  7 1 5 5 2.</_>
                <_>
                  12 6 5 5 2.</_></rects>
              <tilted>0</tilted></feature>
            <threshold>8.2727503031492233e-003</threshold>
            <left_val>-4.0592309832572937e-001</left_val>
            <right_val>3.9076229929924011e-001</right_val></_></_>
        <_>
          <!-- tree 1 -->
          <_>
            <!-- root node -->
            <feature>
              <rects>
                <_>
                  17 23 12 9 -1.</_>
                <_>
                  17 23 6 9 2.</_></rects>
              <tilted>0</tilted></feature>
            <threshold>-1.7220640555024147e-002</threshold>
            <left_val>3.3148559927940369e-001</left_val>
            <right_val>-2.7719289064407349e-001</right_val></_></_>
        <_>
          <!-- tree 2 -->
          <_>
            <!-- root node -->
            <feature>
              <rects>
                <_>
                  4 0 18 6 -1.</_>
                <_>
                  4 2 18 2 3.</_></rects>
              <tilted>0</tilted></feature>
            <threshold>-5.9273350052535534e-003</threshold>
            <left_val>2.7929261326789856e-001</left_val>
            <right_val>-3.3250498771667480e-001</right_val></_></_>
        <_>
          <!-- tree 3 -->
          <_>
            <!-- root node -->
            <feature>
              <rects>
                <_>
                  15 26 18 8 -1.</_>
                <_>
                  24 26 9 4 2.</_>
                <_>
                  15 30 9 4 2.</_></rects>
              <tilted>0</tilted></feature>
            <threshold>1.6623310744762421e-002</threshold>
            <left_val>-2.0597219467163086e-001</left_val>
            <right_val>3.4029790759086609e-001</right_val></_></_>
        <_>
          <!-- tree 4 -->
          <_>
            <!-- root node -->
            <feature>
              <rects>
                <_>
                  3 24 28 10 -1.</_>
                <_>
                  17 24 14 10 2.</_></rects>
              <tilted>0</tilted></feature>
            <threshold>2.5325430557131767e-002</threshold>
            <left_val>2.1113829314708710e-001</left_val>
            <right_val>-5.5844098329544067e-001</right_val></_></_>
        <_>
          <!-- tree 5 -->
          <_>
            <!-- root node -->
            <feature>
              <rects>
                <_>
                  16 3 2 1 -1.</_>
                <_>
                  16 3 1 1 2.</_></rects>
              <tilted>0</tilted></feature>
            <threshold>-3.9243201172212139e-005</threshold>
            <left_val>-6.0474807024002075e-001</left_val>
            <right_val>8.9154601097106934e-002</right_val></_></_>
        <_>
          <!-- tree 6 -->
          <_>
            <!-- root node -->
            <feature>
              <rects>
                <_>
                  15 3 4 1 -1.</_>
                <_>
                  17 3 2 1 2.</_></rects>
              <tilted>0</tilted></feature>
            <threshold>-6.4538733568042517e-005</threshold>
            <left_val>-5.0803661346435547e-001</left_val>
            <right_val>2.1619120240211487e-001</right_val></_></_>
        <_>
          <!-- tree 7 -->
          <_>
            <!-- root node -->
            <feature>
              <rects>
                <_>
                  17 27 1 2 -1.</_>
                <_>
                  17 28 1 1 2.</_></rects>
              <tilted>0</tilted></feature>
            <threshold>1.3103480341669638e-005</threshold>
            <left_val>-3.1855759024620056e-001</left_val>
            <right_val>1.9889929890632629e-001</right_val></_></_>
        <_>
          <!-- tree 8 -->
          <_>
            <!-- root node -->
            <feature>
              <rects>
                <_>
                  14 13 5 12 -1.</_>
                <_>
                  14 19 5 6 2.</_></rects>
              <tilted>0</tilted></feature>
            <threshold>3.6541139706969261e-003</threshold>
            <left_val>1.2366320192813873e-001</left_val>
            <right_val>-4.5058739185333252e-001</right_val></_></_>
        <_>
          <!-- tree 9 -->
          <_>
            <!-- root node -->
            <feature>
              <rects>
                <_>
                  15 11 4 18 -1.</_>
                <_>
                  15 20 4 9 2.</_></rects>
              <tilted>0</tilted></feature>
            <threshold>-2.0841680467128754e-002</threshold>
            <left_val>-7.2645848989486694e-001</left_val>
            <right_val>8.3168447017669678e-002</right_val></_></_>
        <_>
          <!-- tree 10 -->
          <_>
            <!-- root node -->
            <feature>
              <rects>
                <_>
                  10 2 13 18 -1.</_>
                <_>
                  10 11 13 9 2.</_></rects>
              <tilted>0</tilted></feature>
            <threshold>1.4013780280947685e-002</threshold>
            <left_val>-4.0738070011138916e-001</left_val>
            <right_val>1.3609200716018677e-001</right_val></_></_>
        <_>
          <!-- tree 11 -->
          <_>
            <!-- root node -->
            <feature>
              <rects>
                <_>
                  12 0 11 3 -1.</_>
                <_>
                  12 1 11 1 3.</_></rects>
              <tilted>0</tilted></feature>
            <threshold>-2.0842849335167557e-004</threshold>
            <left_val>1.9871219992637634e-001</left_val>
            <right_val>-2.5575500726699829e-001</right_val></_></_>
        <_>
          <!-- tree 12 -->
          <_>
            <!-- root node -->
            <feature>
              <rects>
                <_>
                  3 0 14 6 -1.</_>
                <_>
                  3 0 7 3 2.</_>
                <_>
                  10 3 7 3 2.</_></rects>
              <tilted>0</tilted></feature>
            <threshold>-1.6268739476799965e-002</threshold>
            <left_val>5.3339588642120361e-001</left_val>
            <right_val>-9.5415167510509491e-002</right_val></_></_>
        <_>
          <!-- tree 13 -->
          <_>
            <!-- root node -->
            <feature>
              <rects>
                <_>
                  18 28 12 6 -1.</_>
                <_>
                  24 28 6 3 2.</_>
                <_>
                  18 31 6 3 2.</_></rects>
              <tilted>0</tilted></feature>
            <threshold>2.9313070699572563e-003</threshold>
            <left_val>-8.3149649202823639e-002</left_val>
            <right_val>9.7361028194427490e-002</right_val></_></_>
        <_>
          <!-- tree 14 -->
          <_>
            <!-- root node -->
            <feature>
              <rects>
                <_>
                  1 28 1 2 -1.</_>
                <_>
                  1 29 1 1 2.</_></rects>
              <tilted>0</tilted></feature>
            <threshold>-1.2517920367827173e-005</threshold>
            <left_val>2.4148030579090118e-001</left_val>
            <right_val>-2.0663629472255707e-001</right_val></_></_>
        <_>
          <!-- tree 15 -->
          <_>
            <!-- root node -->
            <feature>
              <rects>
                <_>
                  12 5 10 19 -1.</_>
                <_>
                  12 5 5 19 2.</_></rects>
              <tilted>0</tilted></feature>
            <threshold>7.8384652733802795e-003</threshold>
            <left_val>-2.9861229658126831e-001</left_val>
            <right_val>1.6919890046119690e-001</right_val></_></_>
        <_>
          <!-- tree 16 -->
          <_>
            <!-- root node -->
            <feature>
              <rects>
                <_>
                  0 9 34 23 -1.</_>
                <_>
                  17 9 17 23 2.</_></rects>
              <tilted>0</tilted></feature>
            <threshold>-3.1416618824005127e-001</threshold>
            <left_val>-7.1841061115264893e-001</left_val>
            <right_val>7.7317573130130768e-002</right_val></_></_>
        <_>
          <!-- tree 17 -->
          <_>
            <!-- root node -->
            <feature>
              <rects>
                <_>
                  20 14 8 18 -1.</_>
                <_>
                  20 14 4 18 2.</_></rects>
              <tilted>0</tilted></feature>
            <threshold>-1.0910030454397202e-002</threshold>
            <left_val>9.2312276363372803e-002</left_val>
            <right_val>-1.1517020314931870e-001</right_val></_></_>
        <_>
          <!-- tree 18 -->
          <_>
            <!-- root node -->
            <feature>
              <rects>
                <_>
                  16 22 2 4 -1.</_>
                <_>
                  17 22 1 4 2.</_></rects>
              <tilted>0</tilted></feature>
            <threshold>-1.3863380299881101e-003</threshold>
            <left_val>-7.8709179162979126e-001</left_val>
            <right_val>6.9616682827472687e-002</right_val></_></_>
        <_>
          <!-- tree 19 -->
          <_>
            <!-- root node -->
            <feature>
              <rects>
                <_>
                  17 4 5 3 -1.</_>
                <_>
                  17 5 5 1 3.</_></rects>
              <tilted>0</tilted></feature>
            <threshold>1.0604329872876406e-004</threshold>
            <left_val>1.0936649888753891e-001</left_val>
            <right_val>-3.3294340968132019e-001</right_val></_></_>
        <_>
          <!-- tree 20 -->
          <_>
            <!-- root node -->
            <feature>
              <rects>
                <_>
                  6 14 8 18 -1.</_>
                <_>
                  10 14 4 18 2.</_></rects>
              <tilted>0</tilted></feature>
            <threshold>-1.7767440527677536e-002</threshold>
            <left_val>2.8384080529212952e-001</left_val>
            <right_val>-1.7432799935340881e-001</right_val></_></_>
        <_>
          <!-- tree 21 -->
          <_>
            <!-- root node -->
            <feature>
              <rects>
                <_>
                  17 24 12 1 -1.</_>
                <_>
                  17 24 6 1 2.</_></rects>
              <tilted>0</tilted></feature>
            <threshold>1.9237759988754988e-003</threshold>
            <left_val>-1.0019920021295547e-001</left_val>
            <right_val>3.5149630904197693e-001</right_val></_></_>
        <_>
          <!-- tree 22 -->
          <_>
            <!-- root node -->
            <feature>
              <rects>
                <_>
                  3 11 9 13 -1.</_>
                <_>
                  6 11 3 13 3.</_></rects>
              <tilted>0</tilted></feature>
            <threshold>-8.4564574062824249e-003</threshold>
            <left_val>3.1730648875236511e-001</left_val>
            <right_val>-1.7600649595260620e-001</right_val></_></_>
        <_>
          <!-- tree 23 -->
          <_>
            <!-- root node -->
            <feature>
              <rects>
                <_>
                  16 25 2 2 -1.</_>
                <_>
                  16 26 2 1 2.</_></rects>
              <tilted>0</tilted></feature>
            <threshold>1.2618250366358552e-005</threshold>
            <left_val>-2.7703571319580078e-001</left_val>
            <right_val>1.8999239802360535e-001</right_val></_></_>
        <_>
          <!-- tree 24 -->
          <_>
            <!-- root node -->
            <feature>
              <rects>
                <_>
                  13 3 2 1 -1.</_>
                <_>
                  14 3 1 1 2.</_></rects>
              <tilted>0</tilted></feature>
            <threshold>-7.4889467214234173e-005</threshold>
            <left_val>-3.9256611466407776e-001</left_val>
            <right_val>1.2438450008630753e-001</right_val></_></_>
        <_>
          <!-- tree 25 -->
          <_>
            <!-- root node -->
            <feature>
              <rects>
                <_>
                  16 4 2 2 -1.</_>
                <_>
                  16 5 2 1 2.</_></rects>
              <tilted>0</tilted></feature>
            <threshold>-2.1693929738830775e-004</threshold>
            <left_val>-5.9917622804641724e-001</left_val>
            <right_val>7.4520647525787354e-002</right_val></_></_>
        <_>
          <!-- tree 26 -->
          <_>
            <!-- root node -->
            <feature>
              <rects>
                <_>
                  6 0 17 26 -1.</_>
                <_>
                  6 13 17 13 2.</_></rects>
              <tilted>0</tilted></feature>
            <threshold>2.4082089960575104e-001</threshold>
            <left_val>4.0737651288509369e-002</left_val>
            <right_val>-8.5465812683105469e-001</right_val></_></_>
        <_>
          <!-- tree 27 -->
          <_>
            <!-- root node -->
            <feature>
              <rects>
                <_>
                  16 4 7 12 -1.</_>
                <_>
                  16 8 7 4 3.</_></rects>
              <tilted>0</tilted></feature>
            <threshold>-2.9725679196417332e-003</threshold>
            <left_val>1.6255599260330200e-001</left_val>
            <right_val>-1.3304090499877930e-001</right_val></_></_>
        <_>
          <!-- tree 28 -->
          <_>
            <!-- root node -->
            <feature>
              <rects>
                <_>
                  13 18 8 7 -1.</_>
                <_>
                  17 18 4 7 2.</_></rects>
              <tilted>0</tilted></feature>
            <threshold>-1.1098840041086078e-003</threshold>
            <left_val>1.6270390152931213e-001</left_val>
            <right_val>-2.8494539856910706e-001</right_val></_></_>
        <_>
          <!-- tree 29 -->
          <_>
            <!-- root node -->
            <feature>
              <rects>
                <_>
                  14 10 8 14 -1.</_>
                <_>
                  14 10 4 14 2.</_></rects>
              <tilted>0</tilted></feature>
            <threshold>4.1478469967842102e-002</threshold>
            <left_val>2.1270630881190300e-002</left_val>
            <right_val>-8.1612169742584229e-001</right_val></_></_>
        <_>
          <!-- tree 30 -->
          <_>
            <!-- root node -->
            <feature>
              <rects>
                <_>
                  12 4 5 3 -1.</_>
                <_>
                  12 5 5 1 3.</_></rects>
              <tilted>0</tilted></feature>
            <threshold>8.2487116742413491e-005</threshold>
            <left_val>1.4375150203704834e-001</left_val>
            <right_val>-3.0302059650421143e-001</right_val></_></_></trees>
      <stage_threshold>-1.4453630447387695e+000</stage_threshold>
      <parent>4</parent>
      <next>-1</next></_>
    <_>
      <!-- stage 6 -->
      <trees>
        <_>
          <!-- tree 0 -->
          <_>
            <!-- root node -->
            <feature>
              <rects>
                <_>
                  11 5 12 10 -1.</_>
                <_>
                  15 5 4 10 3.</_></rects>
              <tilted>0</tilted></feature>
            <threshold>2.5084728840738535e-003</threshold>
            <left_val>-3.8270008563995361e-001</left_val>
            <right_val>2.9320189356803894e-001</right_val></_></_>
        <_>
          <!-- tree 1 -->
          <_>
            <!-- root node -->
            <feature>
              <rects>
                <_>
                  20 0 5 12 -1.</_>
                <_>
                  20 4 5 4 3.</_></rects>
              <tilted>0</tilted></feature>
            <threshold>-1.0970609728246927e-003</threshold>
            <left_val>1.6464249789714813e-001</left_val>
            <right_val>-4.1567629575729370e-001</right_val></_></_>
        <_>
          <!-- tree 2 -->
          <_>
            <!-- root node -->
            <feature>
              <rects>
                <_>
                  6 23 12 7 -1.</_>
                <_>
                  12 23 6 7 2.</_></rects>
              <tilted>0</tilted></feature>
            <threshold>-2.3704919964075089e-002</threshold>
            <left_val>3.7889000773429871e-001</left_val>
            <right_val>-2.6389220356941223e-001</right_val></_></_>
        <_>
          <!-- tree 3 -->
          <_>
            <!-- root node -->
            <feature>
              <rects>
                <_>
                  3 2 30 5 -1.</_>
                <_>
                  13 2 10 5 3.</_></rects>
              <tilted>0</tilted></feature>
            <threshold>-1.0204099863767624e-001</threshold>
            <left_val>4.3536299467086792e-001</left_val>
            <right_val>-1.1271689832210541e-001</right_val></_></_>
        <_>
          <!-- tree 4 -->
          <_>
            <!-- root node -->
            <feature>
              <rects>
                <_>
                  13 3 6 1 -1.</_>
                <_>
                  16 3 3 1 2.</_></rects>
              <tilted>0</tilted></feature>
            <threshold>-3.1303300056606531e-004</threshold>
            <left_val>-5.6785011291503906e-001</left_val>
            <right_val>1.5145139396190643e-001</right_val></_></_>
        <_>
          <!-- tree 5 -->
          <_>
            <!-- root node -->
            <feature>
              <rects>
                <_>
                  16 3 4 1 -1.</_>
                <_>
                  16 3 2 1 2.</_></rects>
              <tilted>0</tilted></feature>
            <threshold>-6.4971791289281100e-005</threshold>
            <left_val>-3.2712870836257935e-001</left_val>
            <right_val>1.1888830363750458e-001</right_val></_></_>
        <_>
          <!-- tree 6 -->
          <_>
            <!-- root node -->
            <feature>
              <rects>
                <_>
                  14 3 6 1 -1.</_>
                <_>
                  16 3 2 1 3.</_></rects>
              <tilted>0</tilted></feature>
            <threshold>1.0000990005210042e-004</threshold>
            <left_val>1.7144410312175751e-001</left_val>
            <right_val>-4.8107370734214783e-001</right_val></_></_>
        <_>
          <!-- tree 7 -->
          <_>
            <!-- root node -->
            <feature>
              <rects>
                <_>
                  16 2 12 4 -1.</_>
                <_>
                  22 2 6 2 2.</_>
                <_>
                  16 4 6 2 2.</_></rects>
              <tilted>0</tilted></feature>
            <threshold>2.0568759646266699e-003</threshold>
            <left_val>-1.8224079906940460e-001</left_val>
            <right_val>2.0060050487518311e-001</right_val></_></_>
        <_>
          <!-- tree 8 -->
          <_>
            <!-- root node -->
            <feature>
              <rects>
                <_>
                  0 26 34 7 -1.</_>
                <_>
                  17 26 17 7 2.</_></rects>
              <tilted>0</tilted></feature>
            <threshold>-8.4402777254581451e-002</threshold>
            <left_val>-6.3920587301254272e-001</left_val>
            <right_val>9.1702766716480255e-002</right_val></_></_>
        <_>
          <!-- tree 9 -->
          <_>
            <!-- root node -->
            <feature>
              <rects>
                <_>
                  14 9 8 24 -1.</_>
                <_>
                  14 9 4 24 2.</_></rects>
              <tilted>0</tilted></feature>
            <threshold>4.6326108276844025e-003</threshold>
            <left_val>-1.7354829609394073e-001</left_val>
            <right_val>1.1411570012569427e-001</right_val></_></_>
        <_>
          <!-- tree 10 -->
          <_>
            <!-- root node -->
            <feature>
              <rects>
                <_>
                  11 9 8 14 -1.</_>
                <_>
                  15 9 4 14 2.</_></rects>
              <tilted>0</tilted></feature>
            <threshold>-2.7216870803385973e-003</threshold>
            <left_val>1.9266450405120850e-001</left_val>
            <right_val>-3.4946370124816895e-001</right_val></_></_>
        <_>
          <!-- tree 11 -->
          <_>
            <!-- root node -->
            <feature>
              <rects>
                <_>
                  19 4 12 20 -1.</_>
                <_>
                  23 4 4 20 3.</_></rects>
              <tilted>0</tilted></feature>
            <threshold>-4.7246620059013367e-002</threshold>
            <left_val>2.5148209929466248e-001</left_val>
            <right_val>-8.2792460918426514e-002</right_val></_></_>
        <_>
          <!-- tree 12 -->
          <_>
            <!-- root node -->
            <feature>
              <rects>
                <_>
                  11 10 4 24 -1.</_>
                <_>
                  11 18 4 8 3.</_></rects>
              <tilted>0</tilted></feature>
            <threshold>-2.6861990336328745e-003</threshold>
            <left_val>2.0172040164470673e-001</left_val>
            <right_val>-3.6113241314888000e-001</right_val></_></_>
        <_>
          <!-- tree 13 -->
          <_>
            <!-- root node -->
            <feature>
              <rects>
                <_>
                  17 11 4 14 -1.</_>
                <_>
                  17 18 4 7 2.</_></rects>
              <tilted>0</tilted></feature>
            <threshold>-2.0434670150279999e-002</threshold>
            <left_val>-8.3779257535934448e-001</left_val>
            <right_val>4.8461578786373138e-002</right_val></_></_>
        <_>
          <!-- tree 14 -->
          <_>
            <!-- root node -->
            <feature>
              <rects>
                <_>
                  7 0 6 6 -1.</_>
                <_>
                  7 3 6 3 2.</_></rects>
              <tilted>0</tilted></feature>
            <threshold>-9.6422142814844847e-004</threshold>
            <left_val>2.1099220216274261e-001</left_val>
            <right_val>-3.5822701454162598e-001</right_val></_></_>
        <_>
          <!-- tree 15 -->
          <_>
            <!-- root node -->
            <feature>
              <rects>
                <_>
                  13 12 10 6 -1.</_>
                <_>
                  13 12 5 6 2.</_></rects>
              <tilted>0</tilted></feature>
            <threshold>1.4775780029594898e-002</threshold>
            <left_val>7.3451370000839233e-002</left_val>
            <right_val>-4.3633240461349487e-001</right_val></_></_>
        <_>
          <!-- tree 16 -->
          <_>
            <!-- root node -->
            <feature>
              <rects>
                <_>
                  14 10 6 6 -1.</_>
                <_>
                  14 13 6 3 2.</_></rects>
              <tilted>0</tilted></feature>
            <threshold>2.6492080651223660e-003</threshold>
            <left_val>-2.3593500256538391e-001</left_val>
            <right_val>2.5854781270027161e-001</right_val></_></_>
        <_>
          <!-- tree 17 -->
          <_>
            <!-- root node -->
            <feature>
              <rects>
                <_>
                  21 5 9 21 -1.</_>
                <_>
                  24 5 3 21 3.</_></rects>
              <tilted>0</tilted></feature>
            <threshold>1.4910190366208553e-002</threshold>
            <left_val>-6.4860418438911438e-002</left_val>
            <right_val>1.7103059589862823e-001</right_val></_></_>
        <_>
          <!-- tree 18 -->
          <_>
            <!-- root node -->
            <feature>
              <rects>
                <_>
                  4 5 9 21 -1.</_>
                <_>
                  7 5 3 21 3.</_></rects>
              <tilted>0</tilted></feature>
            <threshold>-1.9568530842661858e-002</threshold>
            <left_val>3.6054980754852295e-001</left_val>
            <right_val>-1.7053170502185822e-001</right_val></_></_>
        <_>
          <!-- tree 19 -->
          <_>
            <!-- root node -->
            <feature>
              <rects>
                <_>
                  27 30 6 4 -1.</_>
                <_>
                  27 32 6 2 2.</_></rects>
              <tilted>0</tilted></feature>
            <threshold>-1.8628310499479994e-005</threshold>
            <left_val>1.8136370182037354e-001</left_val>
            <right_val>-2.2694499790668488e-001</right_val></_></_>
        <_>
          <!-- tree 20 -->
          <_>
            <!-- root node -->
            <feature>
              <rects>
                <_>
                  11 16 10 2 -1.</_>
                <_>
                  16 16 5 2 2.</_></rects>
              <tilted>0</tilted></feature>
            <threshold>-8.1960940733551979e-003</threshold>
            <left_val>-7.7705067396163940e-001</left_val>
            <right_val>6.0748521238565445e-002</right_val></_></_>
        <_>
          <!-- tree 21 -->
          <_>
            <!-- root node -->
            <feature>
              <rects>
                <_>
                  16 28 2 6 -1.</_>
                <_>
                  16 31 2 3 2.</_></rects>
              <tilted>0</tilted></feature>
            <threshold>8.9085049694404006e-004</threshold>
            <left_val>-2.5920799374580383e-001</left_val>
            <right_val>1.8562160432338715e-001</right_val></_></_>
        <_>
          <!-- tree 22 -->
          <_>
            <!-- root node -->
            <feature>
              <rects>
                <_>
                  16 27 1 2 -1.</_>
                <_>
                  16 28 1 1 2.</_></rects>
              <tilted>0</tilted></feature>
            <threshold>1.3213810234447010e-005</threshold>
            <left_val>-2.8864949941635132e-001</left_val>
            <right_val>1.6506430506706238e-001</right_val></_></_>
        <_>
          <!-- tree 23 -->
          <_>
            <!-- root node -->
            <feature>
              <rects>
                <_>
                  13 0 8 26 -1.</_>
                <_>
                  13 13 8 13 2.</_></rects>
              <tilted>0</tilted></feature>
            <threshold>-2.5238549336791039e-002</threshold>
            <left_val>-7.4712342023849487e-001</left_val>
            <right_val>5.7975601404905319e-002</right_val></_></_>
        <_>
          <!-- tree 24 -->
          <_>
            <!-- root node -->
            <feature>
              <rects>
                <_>
                  12 0 6 12 -1.</_>
                <_>
                  12 4 6 4 3.</_></rects>
              <tilted>0</tilted></feature>
            <threshold>3.2320629805326462e-002</threshold>
            <left_val>-8.0208092927932739e-002</left_val>
            <right_val>7.0257967710494995e-001</right_val></_></_>
        <_>
          <!-- tree 25 -->
          <_>
            <!-- root node -->
            <feature>
              <rects>
                <_>
                  15 0 8 12 -1.</_>
                <_>
                  15 4 8 4 3.</_></rects>
              <tilted>0</tilted></feature>
            <threshold>-1.0613690130412579e-002</threshold>
            <left_val>2.0757229626178741e-001</left_val>
            <right_val>-1.9164229929447174e-001</right_val></_></_>
        <_>
          <!-- tree 26 -->
          <_>
            <!-- root node -->
            <feature>
              <rects>
                <_>
                  0 3 22 1 -1.</_>
                <_>
                  11 3 11 1 2.</_></rects>
              <tilted>0</tilted></feature>
            <threshold>-1.3515399768948555e-004</threshold>
            <left_val>9.3086473643779755e-002</left_val>
            <right_val>-4.9274620413780212e-001</right_val></_></_>
        <_>
          <!-- tree 27 -->
          <_>
            <!-- root node -->
            <feature>
              <rects>
                <_>
                  16 19 2 8 -1.</_>
                <_>
                  16 23 2 4 2.</_></rects>
              <tilted>0</tilted></feature>
            <threshold>-4.7672800719738007e-003</threshold>
            <left_val>-6.9188958406448364e-001</left_val>
            <right_val>5.8389898389577866e-002</right_val></_></_>
        <_>
          <!-- tree 28 -->
          <_>
            <!-- root node -->
            <feature>
              <rects>
                <_>
                  0 18 18 16 -1.</_>
                <_>
                  0 18 9 8 2.</_>
                <_>
                  9 26 9 8 2.</_></rects>
              <tilted>0</tilted></feature>
            <threshold>-4.4711191207170486e-002</threshold>
            <left_val>5.1774781942367554e-001</left_val>
            <right_val>-1.0523650050163269e-001</right_val></_></_>
        <_>
          <!-- tree 29 -->
          <_>
            <!-- root node -->
            <feature>
              <rects>
                <_>
                  26 30 5 4 -1.</_>
                <_>
                  26 32 5 2 2.</_></rects>
              <tilted>0</tilted></feature>
            <threshold>-1.9439839525148273e-003</threshold>
            <left_val>-1.3617099821567535e-001</left_val>
            <right_val>6.0189601033926010e-002</right_val></_></_>
        <_>
          <!-- tree 30 -->
          <_>
            <!-- root node -->
            <feature>
              <rects>
                <_>
                  3 30 5 4 -1.</_>
                <_>
                  3 32 5 2 2.</_></rects>
              <tilted>0</tilted></feature>
            <threshold>3.4838219289667904e-004</threshold>
            <left_val>1.5760350227355957e-001</left_val>
            <right_val>-3.1488490104675293e-001</right_val></_></_>
        <_>
          <!-- tree 31 -->
          <_>
            <!-- root node -->
            <feature>
              <rects>
                <_>
                  16 18 16 12 -1.</_>
                <_>
                  24 18 8 6 2.</_>
                <_>
                  16 24 8 6 2.</_></rects>
              <tilted>0</tilted></feature>
            <threshold>2.4946760386228561e-002</threshold>
            <left_val>-1.2032110244035721e-001</left_val>
            <right_val>3.3682370185852051e-001</right_val></_></_>
        <_>
          <!-- tree 32 -->
          <_>
            <!-- root node -->
            <feature>
              <rects>
                <_>
                  14 20 6 4 -1.</_>
                <_>
                  16 20 2 4 3.</_></rects>
              <tilted>0</tilted></feature>
            <threshold>-5.1823090761899948e-003</threshold>
            <left_val>-8.5889732837677002e-001</left_val>
            <right_val>5.7024650275707245e-002</right_val></_></_></trees>
      <stage_threshold>-1.3673440217971802e+000</stage_threshold>
      <parent>5</parent>
      <next>-1</next></_>
    <_>
      <!-- stage 7 -->
      <trees>
        <_>
          <!-- tree 0 -->
          <_>
            <!-- root node -->
            <feature>
              <rects>
                <_>
                  5 22 24 12 -1.</_>
                <_>
                  13 22 8 12 3.</_></rects>
              <tilted>0</tilted></feature>
            <threshold>-8.1748656928539276e-002</threshold>
            <left_val>4.0442121028900146e-001</left_val>
            <right_val>-2.5969278812408447e-001</right_val></_></_>
        <_>
          <!-- tree 1 -->
          <_>
            <!-- root node -->
            <feature>
              <rects>
                <_>
                  12 0 16 9 -1.</_>
                <_>
                  12 3 16 3 3.</_></rects>
              <tilted>0</tilted></feature>
            <threshold>-1.5583840198814869e-002</threshold>
            <left_val>2.0774950087070465e-001</left_val>
            <right_val>-3.0067300796508789e-001</right_val></_></_>
        <_>
          <!-- tree 2 -->
          <_>
            <!-- root node -->
            <feature>
              <rects>
                <_>
                  16 2 2 2 -1.</_>
                <_>
                  16 3 2 1 2.</_></rects>
              <tilted>0</tilted></feature>
            <threshold>-1.2586680531967431e-004</threshold>
            <left_val>-5.3592848777770996e-001</left_val>
            <right_val>1.7954249680042267e-001</right_val></_></_>
        <_>
          <!-- tree 3 -->
          <_>
            <!-- root node -->
            <feature>
              <rects>
                <_>
                  14 15 8 10 -1.</_>
                <_>
                  14 15 4 10 2.</_></rects>
              <tilted>0</tilted></feature>
            <threshold>1.6915019659791142e-004</threshold>
            <left_val>-3.4477430582046509e-001</left_val>
            <right_val>1.6904039680957794e-001</right_val></_></_>
        <_>
          <!-- tree 4 -->
          <_>
            <!-- root node -->
            <feature>
              <rects>
                <_>
                  16 28 2 2 -1.</_>
                <_>
                  16 29 2 1 2.</_></rects>
              <tilted>0</tilted></feature>
            <threshold>1.2951370081282221e-005</threshold>
            <left_val>-3.4336191415786743e-001</left_val>
            <right_val>2.3623970150947571e-001</right_val></_></_>
        <_>
          <!-- tree 5 -->
          <_>
            <!-- root node -->
            <feature>
              <rects>
                <_>
                  21 5 2 1 -1.</_>
                <_>
                  21 5 1 1 2.</_></rects>
              <tilted>0</tilted></feature>
            <threshold>-4.3622490920824930e-005</threshold>
            <left_val>-2.9176101088523865e-001</left_val>
            <right_val>1.0675570368766785e-001</right_val></_></_>
        <_>
          <!-- tree 6 -->
          <_>
            <!-- root node -->
            <feature>
              <rects>
                <_>
                  0 1 33 24 -1.</_>
                <_>
                  11 1 11 24 3.</_></rects>
              <tilted>0</tilted></feature>
            <threshold>-2.4638049304485321e-001</threshold>
            <left_val>3.1002879142761230e-001</left_val>
            <right_val>-2.5342321395874023e-001</right_val></_></_>
        <_>
          <!-- tree 7 -->
          <_>
            <!-- root node -->
            <feature>
              <rects>
                <_>
                  18 0 2 6 -1.</_>
                <_>
                  18 2 2 2 3.</_></rects>
              <tilted>0</tilted></feature>
            <threshold>-1.1355020433256868e-005</threshold>
            <left_val>1.6523729264736176e-001</left_val>
            <right_val>-4.1120070219039917e-001</right_val></_></_>
        <_>
          <!-- tree 8 -->
          <_>
            <!-- root node -->
            <feature>
              <rects>
                <_>
                  11 5 2 1 -1.</_>
                <_>
                  12 5 1 1 2.</_></rects>
              <tilted>0</tilted></feature>
            <threshold>-5.8576661103870720e-005</threshold>
            <left_val>-4.5109128952026367e-001</left_val>
            <right_val>1.6188539564609528e-001</right_val></_></_>
        <_>
          <!-- tree 9 -->
          <_>
            <!-- root node -->
            <feature>
              <rects>
                <_>
                  17 26 1 2 -1.</_>
                <_>
                  17 27 1 1 2.</_></rects>
              <tilted>0</tilted></feature>
            <threshold>1.2827200407627970e-005</threshold>
            <left_val>-3.5739728808403015e-001</left_val>
            <right_val>1.9609870016574860e-001</right_val></_></_>
        <_>
          <!-- tree 10 -->
          <_>
            <!-- root node -->
            <feature>
              <rects>
                <_>
                  7 0 12 12 -1.</_>
                <_>
                  7 4 12 4 3.</_></rects>
              <tilted>0</tilted></feature>
            <threshold>-2.2321829572319984e-002</threshold>
            <left_val>2.7679249644279480e-001</left_val>
            <right_val>-2.6091140508651733e-001</right_val></_></_>
        <_>
          <!-- tree 11 -->
          <_>
            <!-- root node -->
            <feature>
              <rects>
                <_>
                  11 13 12 3 -1.</_>
                <_>
                  11 14 12 1 3.</_></rects>
              <tilted>0</tilted></feature>
            <threshold>2.4651070125401020e-003</threshold>
            <left_val>-1.2341369688510895e-001</left_val>
            <right_val>4.3887379765510559e-001</right_val></_></_>
        <_>
          <!-- tree 12 -->
          <_>
            <!-- root node -->
            <feature>
              <rects>
                <_>
                  6 3 22 18 -1.</_>
                <_>
                  6 9 22 6 3.</_></rects>
              <tilted>0</tilted></feature>
            <threshold>9.6707917749881744e-002</threshold>
            <left_val>7.8980468213558197e-002</left_val>
            <right_val>-6.9634729623794556e-001</right_val></_></_>
        <_>
          <!-- tree 13 -->
          <_>
            <!-- root node -->
            <feature>
              <rects>
                <_>
                  16 2 2 1 -1.</_>
                <_>
                  16 2 1 1 2.</_></rects>
              <tilted>0</tilted></feature>
            <threshold>7.1400441811420023e-005</threshold>
            <left_val>1.0293640196323395e-001</left_val>
            <right_val>-4.9399128556251526e-001</right_val></_></_>
        <_>
          <!-- tree 14 -->
          <_>
            <!-- root node -->
            <feature>
              <rects>
                <_>
                  2 27 2 2 -1.</_>
                <_>
                  2 28 2 1 2.</_></rects>
              <tilted>0</tilted></feature>
            <threshold>-1.1703879863489419e-005</threshold>
            <left_val>2.1378619968891144e-001</left_val>
            <right_val>-2.5248119235038757e-001</right_val></_></_>
        <_>
          <!-- tree 15 -->
          <_>
            <!-- root node -->
            <feature>
              <rects>
                <_>
                  14 13 10 3 -1.</_>
                <_>
                  14 14 10 1 3.</_></rects>
              <tilted>0</tilted></feature>
            <threshold>-1.4441589592024684e-003</threshold>
            <left_val>3.3245050907135010e-001</left_val>
            <right_val>-9.0396963059902191e-002</right_val></_></_>
        <_>
          <!-- tree 16 -->
          <_>
            <!-- root node -->
            <feature>
              <rects>
                <_>
                  16 24 1 2 -1.</_>
                <_>
                  16 25 1 1 2.</_></rects>
              <tilted>0</tilted></feature>
            <threshold>1.1604959581745788e-005</threshold>
            <left_val>-2.5461769104003906e-001</left_val>
            <right_val>1.9759449362754822e-001</right_val></_></_>
        <_>
          <!-- tree 17 -->
          <_>
            <!-- root node -->
            <feature>
              <rects>
                <_>
                  18 22 10 2 -1.</_>
                <_>
                  18 22 5 2 2.</_></rects>
              <tilted>0</tilted></feature>
            <threshold>1.5236530452966690e-003</threshold>
            <left_val>-9.1075100004673004e-002</left_val>
            <right_val>2.5525879859924316e-001</right_val></_></_>
        <_>
          <!-- tree 18 -->
          <_>
            <!-- root node -->
            <feature>
              <rects>
                <_>
                  15 4 4 1 -1.</_>
                <_>
                  17 4 2 1 2.</_></rects>
              <tilted>0</tilted></feature>
            <threshold>1.1768830154323950e-004</threshold>
            <left_val>1.2222360074520111e-001</left_val>
            <right_val>-4.5551869273185730e-001</right_val></_></_>
        <_>
          <!-- tree 19 -->
          <_>
            <!-- root node -->
            <feature>
              <rects>
                <_>
                  17 29 2 1 -1.</_>
                <_>
                  17 29 1 1 2.</_></rects>
              <tilted>0</tilted></feature>
            <threshold>4.7986450954340398e-004</threshold>
            <left_val>3.6566391587257385e-002</left_val>
            <right_val>-4.0561988949775696e-001</right_val></_></_>
        <_>
          <!-- tree 20 -->
          <_>
            <!-- root node -->
            <feature>
              <rects>
                <_>
                  15 23 3 2 -1.</_>
                <_>
                  16 23 1 2 3.</_></rects>
              <tilted>0</tilted></feature>
            <threshold>-6.0165039030835032e-004</threshold>
            <left_val>-6.6260671615600586e-001</left_val>
            <right_val>7.4449300765991211e-002</right_val></_></_>
        <_>
          <!-- tree 21 -->
          <_>
            <!-- root node -->
            <feature>
              <rects>
                <_>
                  18 1 1 6 -1.</_>
                <_>
                  18 3 1 2 3.</_></rects>
              <tilted>0</tilted></feature>
            <threshold>-1.1812179764092434e-005</threshold>
            <left_val>8.3320632576942444e-002</left_val>
            <right_val>-2.3513220250606537e-001</right_val></_></_>
        <_>
          <!-- tree 22 -->
          <_>
            <!-- root node -->
            <feature>
              <rects>
                <_>
                  15 29 2 1 -1.</_>
                <_>
                  16 29 1 1 2.</_></rects>
              <tilted>0</tilted></feature>
            <threshold>-1.2393809811328538e-005</threshold>
            <left_val>2.1429690718650818e-001</left_val>
            <right_val>-2.3305450379848480e-001</right_val></_></_>
        <_>
          <!-- tree 23 -->
          <_>
            <!-- root node -->
            <feature>
              <rects>
                <_>
                  15 4 6 1 -1.</_>
                <_>
                  15 4 3 1 2.</_></rects>
              <tilted>0</tilted></feature>
            <threshold>1.5634699957445264e-004</threshold>
            <left_val>9.5916710793972015e-002</left_val>
            <right_val>-1.8667329847812653e-001</right_val></_></_>
        <_>
          <!-- tree 24 -->
          <_>
            <!-- root node -->
            <feature>
              <rects>
                <_>
                  10 4 12 10 -1.</_>
                <_>
                  14 4 4 10 3.</_></rects>
              <tilted>0</tilted></feature>
            <threshold>3.7274570204317570e-003</threshold>
            <left_val>-2.5214511156082153e-001</left_val>
            <right_val>2.2329540550708771e-001</right_val></_></_>
        <_>
          <!-- tree 25 -->
          <_>
            <!-- root node -->
            <feature>
              <rects>
                <_>
                  10 0 15 3 -1.</_>
                <_>
                  10 1 15 1 3.</_></rects>
              <tilted>0</tilted></feature>
            <threshold>-1.1526360176503658e-003</threshold>
            <left_val>2.4072089791297913e-001</left_val>
            <right_val>-1.5711550414562225e-001</right_val></_></_>
        <_>
          <!-- tree 26 -->
          <_>
            <!-- root node -->
            <feature>
              <rects>
                <_>
                  15 8 4 18 -1.</_>
                <_>
                  15 14 4 6 3.</_></rects>
              <tilted>0</tilted></feature>
            <threshold>-1.7286289483308792e-002</threshold>
            <left_val>-8.0312252044677734e-001</left_val>
            <right_val>6.1228830367326736e-002</right_val></_></_>
        <_>
          <!-- tree 27 -->
          <_>
            <!-- root node -->
            <feature>
              <rects>
                <_>
                  31 30 2 4 -1.</_>
                <_>
                  31 32 2 2 2.</_></rects>
              <tilted>0</tilted></feature>
            <threshold>-1.3682800272363238e-005</threshold>
            <left_val>1.7393480241298676e-001</left_val>
            <right_val>-2.5309279561042786e-001</right_val></_></_>
        <_>
          <!-- tree 28 -->
          <_>
            <!-- root node -->
            <feature>
              <rects>
                <_>
                  13 3 2 1 -1.</_>
                <_>
                  14 3 1 1 2.</_></rects>
              <tilted>0</tilted></feature>
            <threshold>4.7438628826057538e-005</threshold>
            <left_val>1.0744590312242508e-001</left_val>
            <right_val>-4.2222750186920166e-001</right_val></_></_>
        <_>
          <!-- tree 29 -->
          <_>
            <!-- root node -->
            <feature>
              <rects>
                <_>
                  12 10 14 6 -1.</_>
                <_>
                  12 12 14 2 3.</_></rects>
              <tilted>0</tilted></feature>
            <threshold>7.0845289155840874e-003</threshold>
            <left_val>-9.9937923252582550e-002</left_val>
            <right_val>2.8595510125160217e-001</right_val></_></_>
        <_>
          <!-- tree 30 -->
          <_>
            <!-- root node -->
            <feature>
              <rects>
                <_>
                  12 11 5 14 -1.</_>
                <_>
                  12 18 5 7 2.</_></rects>
              <tilted>0</tilted></feature>
            <threshold>-1.7801199108362198e-002</threshold>
            <left_val>-6.1242157220840454e-001</left_val>
            <right_val>7.5399197638034821e-002</right_val></_></_>
        <_>
          <!-- tree 31 -->
          <_>
            <!-- root node -->
            <feature>
              <rects>
                <_>
                  20 16 6 6 -1.</_>
                <_>
                  20 19 6 3 2.</_></rects>
              <tilted>0</tilted></feature>
            <threshold>-1.6333149978891015e-003</threshold>
            <left_val>1.2404119968414307e-001</left_val>
            <right_val>-9.1265432536602020e-002</right_val></_></_>
        <_>
          <!-- tree 32 -->
          <_>
            <!-- root node -->
            <feature>
              <rects>
                <_>
                  5 11 22 14 -1.</_>
                <_>
                  5 11 11 7 2.</_>
                <_>
                  16 18 11 7 2.</_></rects>
              <tilted>0</tilted></feature>
            <threshold>-4.0583901107311249e-002</threshold>
            <left_val>-5.2161931991577148e-001</left_val>
            <right_val>1.0446780174970627e-001</right_val></_></_>
        <_>
          <!-- tree 33 -->
          <_>
            <!-- root node -->
            <feature>
              <rects>
                <_>
                  31 30 2 4 -1.</_>
                <_>
                  31 32 2 2 2.</_></rects>
              <tilted>0</tilted></feature>
            <threshold>-2.3796169552952051e-003</threshold>
            <left_val>-3.3661788702011108e-001</left_val>
            <right_val>3.2863371074199677e-002</right_val></_></_></trees>
      <stage_threshold>-1.5176509618759155e+000</stage_threshold>
      <parent>6</parent>
      <next>-1</next></_>
    <_>
      <!-- stage 8 -->
      <trees>
        <_>
          <!-- tree 0 -->
          <_>
            <!-- root node -->
            <feature>
              <rects>
                <_>
                  9 0 8 9 -1.</_>
                <_>
                  9 3 8 3 3.</_></rects>
              <tilted>0</tilted></feature>
            <threshold>-9.5273368060588837e-003</threshold>
            <left_val>2.6518470048904419e-001</left_val>
            <right_val>-3.6764121055603027e-001</right_val></_></_>
        <_>
          <!-- tree 1 -->
          <_>
            <!-- root node -->
            <feature>
              <rects>
                <_>
                  5 22 24 11 -1.</_>
                <_>
                  13 22 8 11 3.</_></rects>
              <tilted>0</tilted></feature>
            <threshold>-9.1903269290924072e-002</threshold>
            <left_val>4.0426531434059143e-001</left_val>
            <right_val>-2.3705850541591644e-001</right_val></_></_>
        <_>
          <!-- tree 2 -->
          <_>
            <!-- root node -->
            <feature>
              <rects>
                <_>
                  16 3 2 2 -1.</_>
                <_>
                  16 4 2 1 2.</_></rects>
              <tilted>0</tilted></feature>
            <threshold>-7.3561117460485548e-005</threshold>
            <left_val>-5.6418597698211670e-001</left_val>
            <right_val>1.3498570024967194e-001</right_val></_></_>
        <_>
          <!-- tree 3 -->
          <_>
            <!-- root node -->
            <feature>
              <rects>
                <_>
                  20 6 9 6 -1.</_>
                <_>
                  23 6 3 6 3.</_></rects>
              <tilted>0</tilted></feature>
            <threshold>-1.2141760438680649e-002</threshold>
            <left_val>4.7153940796852112e-001</left_val>
            <right_val>-1.7751020193099976e-001</right_val></_></_>
        <_>
          <!-- tree 4 -->
          <_>
            <!-- root node -->
            <feature>
              <rects>
                <_>
                  13 3 4 1 -1.</_>
                <_>
                  15 3 2 1 2.</_></rects>
              <tilted>0</tilted></feature>
            <threshold>-8.6135776655282825e-005</threshold>
            <left_val>-4.3493309617042542e-001</left_val>
            <right_val>1.5450610220432281e-001</right_val></_></_>
        <_>
          <!-- tree 5 -->
          <_>
            <!-- root node -->
            <feature>
              <rects>
                <_>
                  14 14 9 3 -1.</_>
                <_>
                  14 15 9 1 3.</_></rects>
              <tilted>0</tilted></feature>
            <threshold>2.1849139593541622e-003</threshold>
            <left_val>-9.7062788903713226e-002</left_val>
            <right_val>3.7669810652732849e-001</right_val></_></_>
        <_>
          <!-- tree 6 -->
          <_>
            <!-- root node -->
            <feature>
              <rects>
                <_>
                  3 28 28 6 -1.</_>
                <_>
                  17 28 14 6 2.</_></rects>
              <tilted>0</tilted></feature>
            <threshold>1.4067430049180984e-002</threshold>
            <left_val>1.6148260235786438e-001</left_val>
            <right_val>-4.7442838549613953e-001</right_val></_></_>
        <_>
          <!-- tree 7 -->
          <_>
            <!-- root node -->
            <feature>
              <rects>
                <_>
                  8 1 18 3 -1.</_>
                <_>
                  14 1 6 3 3.</_></rects>
              <tilted>0</tilted></feature>
            <threshold>-1.3921010540798306e-003</threshold>
            <left_val>5.9322081506252289e-002</left_val>
            <right_val>-5.3619718551635742e-001</right_val></_></_>
        <_>
          <!-- tree 8 -->
          <_>
            <!-- root node -->
            <feature>
              <rects>
                <_>
                  15 28 1 6 -1.</_>
                <_>
                  15 31 1 3 2.</_></rects>
              <tilted>0</tilted></feature>
            <threshold>6.5238238312304020e-004</threshold>
            <left_val>-2.5859621167182922e-001</left_val>
            <right_val>2.1251989901065826e-001</right_val></_></_>
        <_>
          <!-- tree 9 -->
          <_>
            <!-- root node -->
            <feature>
              <rects>
                <_>
                  16 4 4 1 -1.</_>
                <_>
                  16 4 2 1 2.</_></rects>
              <tilted>0</tilted></feature>
            <threshold>-4.4277599954511970e-005</threshold>
            <left_val>-3.2902830839157104e-001</left_val>
            <right_val>1.4460340142250061e-001</right_val></_></_>
        <_>
          <!-- tree 10 -->
          <_>
            <!-- root node -->
            <feature>
              <rects>
                <_>
                  5 6 9 6 -1.</_>
                <_>
                  8 6 3 6 3.</_></rects>
              <tilted>0</tilted></feature>
            <threshold>-1.7378659918904305e-002</threshold>
            <left_val>4.6620810031890869e-001</left_val>
            <right_val>-1.2425400316715240e-001</right_val></_></_>
        <_>
          <!-- tree 11 -->
          <_>
            <!-- root node -->
            <feature>
              <rects>
                <_>
                  14 4 6 1 -1.</_>
                <_>
                  16 4 2 1 3.</_></rects>
              <tilted>0</tilted></feature>
            <threshold>4.1253799281548709e-005</threshold>
            <left_val>1.5540690720081329e-001</left_val>
            <right_val>-3.4820431470870972e-001</right_val></_></_>
        <_>
          <!-- tree 12 -->
          <_>
            <!-- root node -->
            <feature>
              <rects>
                <_>
                  5 24 14 6 -1.</_>
                <_>
                  5 24 7 3 2.</_>
                <_>
                  12 27 7 3 2.</_></rects>
              <tilted>0</tilted></feature>
            <threshold>6.8150949664413929e-003</threshold>
            <left_val>-1.6969999670982361e-001</left_val>
            <right_val>3.0797570943832397e-001</right_val></_></_>
        <_>
          <!-- tree 13 -->
          <_>
            <!-- root node -->
            <feature>
              <rects>
                <_>
                  19 23 8 1 -1.</_>
                <_>
                  19 23 4 1 2.</_></rects>
              <tilted>0</tilted></feature>
            <threshold>-2.2985939867794514e-003</threshold>
            <left_val>1.3193979859352112e-001</left_val>
            <right_val>-7.5098246335983276e-002</right_val></_></_>
        <_>
          <!-- tree 14 -->
          <_>
            <!-- root node -->
            <feature>
              <rects>
                <_>
                  7 23 8 1 -1.</_>
                <_>
                  11 23 4 1 2.</_></rects>
              <tilted>0</tilted></feature>
            <threshold>1.0915549937635660e-003</threshold>
            <left_val>-1.4152529835700989e-001</left_val>
            <right_val>4.2893999814987183e-001</right_val></_></_>
        <_>
          <!-- tree 15 -->
          <_>
            <!-- root node -->
            <feature>
              <rects>
                <_>
                  18 15 5 3 -1.</_>
                <_>
                  18 16 5 1 3.</_></rects>
              <tilted>0</tilted></feature>
            <threshold>3.9261550409719348e-004</threshold>
            <left_val>-7.5184807181358337e-002</left_val>
            <right_val>1.9294600188732147e-001</right_val></_></_>
        <_>
          <!-- tree 16 -->
          <_>
            <!-- root node -->
            <feature>
              <rects>
                <_>
                  6 9 6 6 -1.</_>
                <_>
                  8 9 2 6 3.</_></rects>
              <tilted>0</tilted></feature>
            <threshold>4.1384608484804630e-003</threshold>
            <left_val>-1.1407239735126495e-001</left_val>
            <right_val>4.0133330225944519e-001</right_val></_></_>
        <_>
          <!-- tree 17 -->
          <_>
            <!-- root node -->
            <feature>
              <rects>
                <_>
                  14 15 6 12 -1.</_>
                <_>
                  14 21 6 6 2.</_></rects>
              <tilted>0</tilted></feature>
            <threshold>-2.2713709622621536e-002</threshold>
            <left_val>-7.2904682159423828e-001</left_val>
            <right_val>7.1391463279724121e-002</right_val></_></_>
        <_>
          <!-- tree 18 -->
          <_>
            <!-- root node -->
            <feature>
              <rects>
                <_>
                  11 12 9 3 -1.</_>
                <_>
                  11 13 9 1 3.</_></rects>
              <tilted>0</tilted></feature>
            <threshold>1.7967310268431902e-003</threshold>
            <left_val>-1.3586409389972687e-001</left_val>
            <right_val>3.6255410313606262e-001</right_val></_></_>
        <_>
          <!-- tree 19 -->
          <_>
            <!-- root node -->
            <feature>
              <rects>
                <_>
                  15 12 9 3 -1.</_>
                <_>
                  15 13 9 1 3.</_></rects>
              <tilted>0</tilted></feature>
            <threshold>-4.7543388791382313e-004</threshold>
            <left_val>1.8150100111961365e-001</left_val>
            <right_val>-1.0188840329647064e-001</right_val></_></_>
        <_>
          <!-- tree 20 -->
          <_>
            <!-- root node -->
            <feature>
              <rects>
                <_>
                  1 29 1 4 -1.</_>
                <_>
                  1 31 1 2 2.</_></rects>
              <tilted>0</tilted></feature>
            <threshold>-1.2011069884465542e-005</threshold>
            <left_val>1.8103249371051788e-001</left_val>
            <right_val>-2.3286120593547821e-001</right_val></_></_>
        <_>
          <!-- tree 21 -->
          <_>
            <!-- root node -->
            <feature>
              <rects>
                <_>
                  17 22 2 8 -1.</_>
                <_>
                  17 22 1 8 2.</_></rects>
              <tilted>0</tilted></feature>
            <threshold>2.0009928848594427e-003</threshold>
            <left_val>4.5235358178615570e-002</left_val>
            <right_val>-5.2301138639450073e-001</right_val></_></_>
        <_>
          <!-- tree 22 -->
          <_>
            <!-- root node -->
            <feature>
              <rects>
                <_>
                  11 15 5 3 -1.</_>
                <_>
                  11 16 5 1 3.</_></rects>
              <tilted>0</tilted></feature>
            <threshold>6.9558137329295278e-004</threshold>
            <left_val>-1.5158799290657043e-001</left_val>
            <right_val>3.0752849578857422e-001</right_val></_></_>
        <_>
          <!-- tree 23 -->
          <_>
            <!-- root node -->
            <feature>
              <rects>
                <_>
                  17 0 12 16 -1.</_>
                <_>
                  17 8 12 8 2.</_></rects>
              <tilted>0</tilted></feature>
            <threshold>8.8717512786388397e-002</threshold>
            <left_val>4.5490939170122147e-002</left_val>
            <right_val>-6.3689100742340088e-001</right_val></_></_>
        <_>
          <!-- tree 24 -->
          <_>
            <!-- root node -->
            <feature>
              <rects>
                <_>
                  9 13 12 2 -1.</_>
                <_>
                  15 13 6 2 2.</_></rects>
              <tilted>0</tilted></feature>
            <threshold>-9.6730766817927361e-003</threshold>
            <left_val>-6.4190912246704102e-001</left_val>
            <right_val>5.8821860700845718e-002</right_val></_></_>
        <_>
          <!-- tree 25 -->
          <_>
            <!-- root node -->
            <feature>
              <rects>
                <_>
                  13 15 12 3 -1.</_>
                <_>
                  13 16 12 1 3.</_></rects>
              <tilted>0</tilted></feature>
            <threshold>-1.1150559876114130e-003</threshold>
            <left_val>2.1128779649734497e-001</left_val>
            <right_val>-1.0274410247802734e-001</right_val></_></_>
        <_>
          <!-- tree 26 -->
          <_>
            <!-- root node -->
            <feature>
              <rects>
                <_>
                  8 6 6 11 -1.</_>
                <_>
                  10 6 2 11 3.</_></rects>
              <tilted>0</tilted></feature>
            <threshold>3.2812370918691158e-003</threshold>
            <left_val>-1.3169109821319580e-001</left_val>
            <right_val>3.0360201001167297e-001</right_val></_></_>
        <_>
          <!-- tree 27 -->
          <_>
            <!-- root node -->
            <feature>
              <rects>
                <_>
                  15 3 7 4 -1.</_>
                <_>
                  15 5 7 2 2.</_></rects>
              <tilted>0</tilted></feature>
            <threshold>1.4613040548283607e-004</threshold>
            <left_val>1.7722690105438232e-001</left_val>
            <right_val>-1.4798879623413086e-001</right_val></_></_>
        <_>
          <!-- tree 28 -->
          <_>
            <!-- root node -->
            <feature>
              <rects>
                <_>
                  15 24 4 6 -1.</_>
                <_>
                  17 24 2 6 2.</_></rects>
              <tilted>0</tilted></feature>
            <threshold>1.1544920271262527e-003</threshold>
            <left_val>1.0378950089216232e-001</left_val>
            <right_val>-3.9359900355339050e-001</right_val></_></_>
        <_>
          <!-- tree 29 -->
          <_>
            <!-- root node -->
            <feature>
              <rects>
                <_>
                  18 16 9 16 -1.</_>
                <_>
                  21 16 3 16 3.</_></rects>
              <tilted>0</tilted></feature>
            <threshold>-1.0082099586725235e-002</threshold>
            <left_val>1.5699470043182373e-001</left_val>
            <right_val>-1.0430649667978287e-001</right_val></_></_>
        <_>
          <!-- tree 30 -->
          <_>
            <!-- root node -->
            <feature>
              <rects>
                <_>
                  15 2 2 1 -1.</_>
                <_>
                  16 2 1 1 2.</_></rects>
              <tilted>0</tilted></feature>
            <threshold>-6.1435319366864860e-005</threshold>
            <left_val>-3.8706669211387634e-001</left_val>
            <right_val>1.0569410026073456e-001</right_val></_></_>
        <_>
          <!-- tree 31 -->
          <_>
            <!-- root node -->
            <feature>
              <rects>
                <_>
                  17 2 2 1 -1.</_>
                <_>
                  17 2 1 1 2.</_></rects>
              <tilted>0</tilted></feature>
            <threshold>-3.8943580875638872e-005</threshold>
            <left_val>-2.7570489048957825e-001</left_val>
            <right_val>8.3435706794261932e-002</right_val></_></_>
        <_>
          <!-- tree 32 -->
          <_>
            <!-- root node -->
            <feature>
              <rects>
                <_>
                  7 16 9 16 -1.</_>
                <_>
                  10 16 3 16 3.</_></rects>
              <tilted>0</tilted></feature>
            <threshold>-8.8850148022174835e-003</threshold>
            <left_val>2.7529180049896240e-001</left_val>
            <right_val>-1.5236389636993408e-001</right_val></_></_>
        <_>
          <!-- tree 33 -->
          <_>
            <!-- root node -->
            <feature>
              <rects>
                <_>
                  17 2 2 1 -1.</_>
                <_>
                  17 2 1 1 2.</_></rects>
              <tilted>0</tilted></feature>
            <threshold>5.9419231547508389e-005</threshold>
            <left_val>9.4541579484939575e-002</left_val>
            <right_val>-4.0436241030693054e-001</right_val></_></_>
        <_>
          <!-- tree 34 -->
          <_>
            <!-- root node -->
            <feature>
              <rects>
                <_>
                  14 14 2 1 -1.</_>
                <_>
                  15 14 1 1 2.</_></rects>
              <tilted>0</tilted></feature>
            <threshold>-1.1603900202317163e-004</threshold>
            <left_val>2.9696330428123474e-001</left_val>
            <right_val>-1.4761990308761597e-001</right_val></_></_>
        <_>
          <!-- tree 35 -->
          <_>
            <!-- root node -->
            <feature>
              <rects>
                <_>
                  0 23 34 9 -1.</_>
                <_>
                  0 23 17 9 2.</_></rects>
              <tilted>0</tilted></feature>
            <threshold>9.3772627413272858e-002</threshold>
            <left_val>1.0058259963989258e-001</left_val>
            <right_val>-4.1322430968284607e-001</right_val></_></_>
        <_>
          <!-- tree 36 -->
          <_>
            <!-- root node -->
            <feature>
              <rects>
                <_>
                  15 20 3 6 -1.</_>
                <_>
                  16 20 1 6 3.</_></rects>
              <tilted>0</tilted></feature>
            <threshold>1.4289179816842079e-003</threshold>
            <left_val>5.7342369109392166e-002</left_val>
            <right_val>-6.4515787363052368e-001</right_val></_></_>
        <_>
          <!-- tree 37 -->
          <_>
            <!-- root node -->
            <feature>
              <rects>
                <_>
                  16 22 2 1 -1.</_>
                <_>
                  16 22 1 1 2.</_></rects>
              <tilted>0</tilted></feature>
            <threshold>1.3107280210533645e-005</threshold>
            <left_val>-2.2558139264583588e-001</left_val>
            <right_val>2.0234799385070801e-001</right_val></_></_></trees>
      <stage_threshold>-1.3842359781265259e+000</stage_threshold>
      <parent>7</parent>
      <next>-1</next></_>
    <_>
      <!-- stage 9 -->
      <trees>
        <_>
          <!-- tree 0 -->
          <_>
            <!-- root node -->
            <feature>
              <rects>
                <_>
                  10 6 12 8 -1.</_>
                <_>
                  14 6 4 8 3.</_></rects>
              <tilted>0</tilted></feature>
            <threshold>1.7914390191435814e-003</threshold>
            <left_val>-4.1943159699440002e-001</left_val>
            <right_val>2.6169720292091370e-001</right_val></_></_>
        <_>
          <!-- tree 1 -->
          <_>
            <!-- root node -->
            <feature>
              <rects>
                <_>
                  17 2 2 1 -1.</_>
                <_>
                  17 2 1 1 2.</_></rects>
              <tilted>0</tilted></feature>
            <threshold>4.7582871047779918e-005</threshold>
            <left_val>7.6919190585613251e-002</left_val>
            <right_val>-4.4595280289649963e-001</right_val></_></_>
        <_>
          <!-- tree 2 -->
          <_>
            <!-- root node -->
            <feature>
              <rects>
                <_>
                  0 0 16 6 -1.</_>
                <_>
                  0 0 8 3 2.</_>
                <_>
                  8 3 8 3 2.</_></rects>
              <tilted>0</tilted></feature>
            <threshold>-7.1032471023499966e-003</threshold>
            <left_val>2.9816481471061707e-001</left_val>
            <right_val>-2.1966549754142761e-001</right_val></_></_>
        <_>
          <!-- tree 3 -->
          <_>
            <!-- root node -->
            <feature>
              <rects>
                <_>
                  17 24 12 9 -1.</_>
                <_>
                  17 24 6 9 2.</_></rects>
              <tilted>0</tilted></feature>
            <threshold>-1.3271800242364407e-002</threshold>
            <left_val>2.1818040311336517e-001</left_val>
            <right_val>-2.1290530264377594e-001</right_val></_></_>
        <_>
          <!-- tree 4 -->
          <_>
            <!-- root node -->
            <feature>
              <rects>
                <_>
                  15 2 4 1 -1.</_>
                <_>
                  17 2 2 1 2.</_></rects>
              <tilted>0</tilted></feature>
            <threshold>6.3698869780637324e-005</threshold>
            <left_val>1.5482519567012787e-001</left_val>
            <right_val>-3.9848369359970093e-001</right_val></_></_>
        <_>
          <!-- tree 5 -->
          <_>
            <!-- root node -->
            <feature>
              <rects>
                <_>
                  9 0 16 6 -1.</_>
                <_>
                  9 2 16 2 3.</_></rects>
              <tilted>0</tilted></feature>
            <threshold>-2.9217379633337259e-003</threshold>
            <left_val>1.7301100492477417e-001</left_val>
            <right_val>-3.8777050375938416e-001</right_val></_></_>
        <_>
          <!-- tree 6 -->
          <_>
            <!-- root node -->
            <feature>
              <rects>
                <_>
                  11 14 10 5 -1.</_>
                <_>
                  16 14 5 5 2.</_></rects>
              <tilted>0</tilted></feature>
            <threshold>-7.1134517202153802e-004</threshold>
            <left_val>1.7292189598083496e-001</left_val>
            <right_val>-3.4431830048561096e-001</right_val></_></_>
        <_>
          <!-- tree 7 -->
          <_>
            <!-- root node -->
            <feature>
              <rects>
                <_>
                  15 15 5 10 -1.</_>
                <_>
                  15 20 5 5 2.</_></rects>
              <tilted>0</tilted></feature>
            <threshold>3.2630430068820715e-003</threshold>
            <left_val>5.4980508983135223e-002</left_val>
            <right_val>-4.5866200327873230e-001</right_val></_></_>
        <_>
          <!-- tree 8 -->
          <_>
            <!-- root node -->
            <feature>
              <rects>
                <_>
                  12 0 9 26 -1.</_>
                <_>
                  12 13 9 13 2.</_></rects>
              <tilted>0</tilted></feature>
            <threshold>-9.5883850008249283e-003</threshold>
            <left_val>-6.2531810998916626e-001</left_val>
            <right_val>8.7112866342067719e-002</right_val></_></_>
        <_>
          <!-- tree 9 -->
          <_>
            <!-- root node -->
            <feature>
              <rects>
                <_>
                  18 0 1 33 -1.</_>
                <_>
                  18 11 1 11 3.</_></rects>
              <tilted>0</tilted></feature>
            <threshold>1.4253520406782627e-002</threshold>
            <left_val>4.8540510237216949e-002</left_val>
            <right_val>-4.2693451046943665e-001</right_val></_></_>
        <_>
          <!-- tree 10 -->
          <_>
            <!-- root node -->
            <feature>
              <rects>
                <_>
                  13 3 7 2 -1.</_>
                <_>
                  13 4 7 1 2.</_></rects>
              <tilted>0</tilted></feature>
            <threshold>7.3886119935195893e-005</threshold>
            <left_val>1.7888310551643372e-001</left_val>
            <right_val>-2.6411390304565430e-001</right_val></_></_>
        <_>
          <!-- tree 11 -->
          <_>
            <!-- root node -->
            <feature>
              <rects>
                <_>
                  19 3 1 2 -1.</_>
                <_>
                  19 4 1 1 2.</_></rects>
              <tilted>0</tilted></feature>
            <threshold>-5.6091241276590154e-005</threshold>
            <left_val>-3.2409799098968506e-001</left_val>
            <right_val>1.0075079649686813e-001</right_val></_></_>
        <_>
          <!-- tree 12 -->
          <_>
            <!-- root node -->
            <feature>
              <rects>
                <_>
                  5 6 6 9 -1.</_>
                <_>
                  7 6 2 9 3.</_></rects>
              <tilted>0</tilted></feature>
            <threshold>-1.0832790285348892e-002</threshold>
            <left_val>4.2391461133956909e-001</left_val>
            <right_val>-1.2389799952507019e-001</right_val></_></_>
        <_>
          <!-- tree 13 -->
          <_>
            <!-- root node -->
            <feature>
              <rects>
                <_>
                  12 16 10 4 -1.</_>
                <_>
                  12 16 5 4 2.</_></rects>
              <tilted>0</tilted></feature>
            <threshold>1.1111459694802761e-002</threshold>
            <left_val>8.4551237523555756e-002</left_val>
            <right_val>-5.6834828853607178e-001</right_val></_></_>
        <_>
          <!-- tree 14 -->
          <_>
            <!-- root node -->
            <feature>
              <rects>
                <_>
                  2 29 30 5 -1.</_>
                <_>
                  17 29 15 5 2.</_></rects>
              <tilted>0</tilted></feature>
            <threshold>4.3259721249341965e-002</threshold>
            <left_val>5.4123930633068085e-002</left_val>
            <right_val>-6.9218492507934570e-001</right_val></_></_>
        <_>
          <!-- tree 15 -->
          <_>
            <!-- root node -->
            <feature>
              <rects>
                <_>
                  26 27 3 4 -1.</_>
                <_>
                  26 29 3 2 2.</_></rects>
              <tilted>0</tilted></feature>
            <threshold>2.5807399651966989e-004</threshold>
            <left_val>8.0722026526927948e-002</left_val>
            <right_val>-1.6862760484218597e-001</right_val></_></_>
        <_>
          <!-- tree 16 -->
          <_>
            <!-- root node -->
            <feature>
              <rects>
                <_>
                  16 26 2 4 -1.</_>
                <_>
                  16 28 2 2 2.</_></rects>
              <tilted>0</tilted></feature>
            <threshold>1.7945529543794692e-004</threshold>
            <left_val>-2.9540979862213135e-001</left_val>
            <right_val>1.4051729440689087e-001</right_val></_></_>
        <_>
          <!-- tree 17 -->
          <_>
            <!-- root node -->
            <feature>
              <rects>
                <_>
                  19 3 1 2 -1.</_>
                <_>
                  19 4 1 1 2.</_></rects>
              <tilted>0</tilted></feature>
            <threshold>3.3036070817615837e-005</threshold>
            <left_val>6.2914431095123291e-002</left_val>
            <right_val>-2.3753459751605988e-001</right_val></_></_>
        <_>
          <!-- tree 18 -->
          <_>
            <!-- root node -->
            <feature>
              <rects>
                <_>
                  14 3 1 2 -1.</_>
                <_>
                  14 4 1 1 2.</_></rects>
              <tilted>0</tilted></feature>
            <threshold>-3.8909518480068073e-005</threshold>
            <left_val>-4.1358751058578491e-001</left_val>
            <right_val>1.1243420094251633e-001</right_val></_></_>
        <_>
          <!-- tree 19 -->
          <_>
            <!-- root node -->
            <feature>
              <rects>
                <_>
                  16 13 3 2 -1.</_>
                <_>
                  16 14 3 1 2.</_></rects>
              <tilted>0</tilted></feature>
            <threshold>3.5664590541273355e-004</threshold>
            <left_val>-1.6495490074157715e-001</left_val>
            <right_val>2.5033819675445557e-001</right_val></_></_>
        <_>
          <!-- tree 20 -->
          <_>
            <!-- root node -->
            <feature>
              <rects>
                <_>
                  14 25 6 9 -1.</_>
                <_>
                  14 28 6 3 3.</_></rects>
              <tilted>0</tilted></feature>
            <threshold>-3.4904340282082558e-003</threshold>
            <left_val>2.7505311369895935e-001</left_val>
            <right_val>-1.4308269321918488e-001</right_val></_></_>
        <_>
          <!-- tree 21 -->
          <_>
            <!-- root node -->
            <feature>
              <rects>
                <_>
                  26 27 3 4 -1.</_>
                <_>
                  26 29 3 2 2.</_></rects>
              <tilted>0</tilted></feature>
            <threshold>6.5219299867749214e-003</threshold>
            <left_val>-2.0588889718055725e-002</left_val>
            <right_val>3.6245098710060120e-001</right_val></_></_>
        <_>
          <!-- tree 22 -->
          <_>
            <!-- root node -->
            <feature>
              <rects>
                <_>
                  5 27 3 4 -1.</_>
                <_>
                  5 29 3 2 2.</_></rects>
              <tilted>0</tilted></feature>
            <threshold>1.9849570526275784e-004</threshold>
            <left_val>1.6588880121707916e-001</left_val>
            <right_val>-2.7370071411132813e-001</right_val></_></_>
        <_>
          <!-- tree 23 -->
          <_>
            <!-- root node -->
            <feature>
              <rects>
                <_>
                  5 22 28 8 -1.</_>
                <_>
                  5 22 14 8 2.</_></rects>
              <tilted>0</tilted></feature>
            <threshold>3.4177269786596298e-002</threshold>
            <left_val>9.2059157788753510e-002</left_val>
            <right_val>-2.4927979707717896e-001</right_val></_></_>
        <_>
          <!-- tree 24 -->
          <_>
            <!-- root node -->
            <feature>
              <rects>
                <_>
                  12 13 10 8 -1.</_>
                <_>
                  12 13 5 4 2.</_>
                <_>
                  17 17 5 4 2.</_></rects>
              <tilted>0</tilted></feature>
            <threshold>8.8436380028724670e-003</threshold>
            <left_val>7.2862371802330017e-002</left_val>
            <right_val>-5.7880002260208130e-001</right_val></_></_>
        <_>
          <!-- tree 25 -->
          <_>
            <!-- root node -->
            <feature>
              <rects>
                <_>
                  18 6 6 12 -1.</_>
                <_>
                  20 6 2 12 3.</_></rects>
              <tilted>0</tilted></feature>
            <threshold>1.7556509701535106e-003</threshold>
            <left_val>-8.9080937206745148e-002</left_val>
            <right_val>1.7457039654254913e-001</right_val></_></_>
        <_>
          <!-- tree 26 -->
          <_>
            <!-- root node -->
            <feature>
              <rects>
                <_>
                  13 12 2 5 -1.</_>
                <_>
                  14 12 1 5 2.</_></rects>
              <tilted>0</tilted></feature>
            <threshold>-3.9056298555806279e-004</threshold>
            <left_val>2.7041500806808472e-001</left_val>
            <right_val>-1.5342010557651520e-001</right_val></_></_>
        <_>
          <!-- tree 27 -->
          <_>
            <!-- root node -->
            <feature>
              <rects>
                <_>
                  14 23 6 4 -1.</_>
                <_>
                  16 23 2 4 3.</_></rects>
              <tilted>0</tilted></feature>
            <threshold>-4.6932650730013847e-003</threshold>
            <left_val>-7.1792721748352051e-001</left_val>
            <right_val>5.8346390724182129e-002</right_val></_></_>
        <_>
          <!-- tree 28 -->
          <_>
            <!-- root node -->
            <feature>
              <rects>
                <_>
                  4 2 22 2 -1.</_>
                <_>
                  4 3 22 1 2.</_></rects>
              <tilted>0</tilted></feature>
            <threshold>-1.0179439559578896e-003</threshold>
            <left_val>1.6077309846878052e-001</left_val>
            <right_val>-2.4577720463275909e-001</right_val></_></_>
        <_>
          <!-- tree 29 -->
          <_>
            <!-- root node -->
            <feature>
              <rects>
                <_>
                  16 0 6 8 -1.</_>
                <_>
                  16 4 6 4 2.</_></rects>
              <tilted>0</tilted></feature>
            <threshold>1.7186420038342476e-002</threshold>
            <left_val>-6.1103399842977524e-002</left_val>
            <right_val>4.3360930681228638e-001</right_val></_></_>
        <_>
          <!-- tree 30 -->
          <_>
            <!-- root node -->
            <feature>
              <rects>
                <_>
                  14 25 3 2 -1.</_>
                <_>
                  14 26 3 1 2.</_></rects>
              <tilted>0</tilted></feature>
            <threshold>1.3389309970079921e-005</threshold>
            <left_val>-2.4736510217189789e-001</left_val>
            <right_val>1.4863230288028717e-001</right_val></_></_>
        <_>
          <!-- tree 31 -->
          <_>
            <!-- root node -->
            <feature>
              <rects>
                <_>
                  2 0 30 4 -1.</_>
                <_>
                  12 0 10 4 3.</_></rects>
              <tilted>0</tilted></feature>
            <threshold>-3.0414059292525053e-003</threshold>
            <left_val>6.6195577383041382e-002</left_val>
            <right_val>-5.4946351051330566e-001</right_val></_></_>
        <_>
          <!-- tree 32 -->
          <_>
            <!-- root node -->
            <feature>
              <rects>
                <_>
                  13 0 7 15 -1.</_>
                <_>
                  13 5 7 5 3.</_></rects>
              <tilted>0</tilted></feature>
            <threshold>-1.8782829865813255e-002</threshold>
            <left_val>2.5967800617218018e-001</left_val>
            <right_val>-1.4787089824676514e-001</right_val></_></_>
        <_>
          <!-- tree 33 -->
          <_>
            <!-- root node -->
            <feature>
              <rects>
                <_>
                  9 5 21 5 -1.</_>
                <_>
                  16 5 7 5 3.</_></rects>
              <tilted>0</tilted></feature>
            <threshold>-1.8768820911645889e-002</threshold>
            <left_val>1.4790350198745728e-001</left_val>
            <right_val>-1.2942300736904144e-001</right_val></_></_>
        <_>
          <!-- tree 34 -->
          <_>
            <!-- root node -->
            <feature>
              <rects>
                <_>
                  4 5 21 5 -1.</_>
                <_>
                  11 5 7 5 3.</_></rects>
              <tilted>0</tilted></feature>
            <threshold>2.8612440451979637e-002</threshold>
            <left_val>-1.1553669720888138e-001</left_val>
            <right_val>4.9164569377899170e-001</right_val></_></_>
        <_>
          <!-- tree 35 -->
          <_>
            <!-- root node -->
            <feature>
              <rects>
                <_>
                  19 19 15 15 -1.</_>
                <_>
                  24 19 5 15 3.</_></rects>
              <tilted>0</tilted></feature>
            <threshold>-3.8035038858652115e-002</threshold>
            <left_val>3.0102640390396118e-001</left_val>
            <right_val>-5.9220969676971436e-002</right_val></_></_>
        <_>
          <!-- tree 36 -->
          <_>
            <!-- root node -->
            <feature>
              <rects>
                <_>
                  0 19 15 15 -1.</_>
                <_>
                  5 19 5 15 3.</_></rects>
              <tilted>0</tilted></feature>
            <threshold>4.4949129223823547e-002</threshold>
            <left_val>-1.5642629563808441e-001</left_val>
            <right_val>3.5082310438156128e-001</right_val></_></_>
        <_>
          <!-- tree 37 -->
          <_>
            <!-- root node -->
            <feature>
              <rects>
                <_>
                  18 4 1 2 -1.</_>
                <_>
                  18 5 1 1 2.</_></rects>
              <tilted>0</tilted></feature>
            <threshold>-7.0966656494420022e-005</threshold>
            <left_val>-5.1266187429428101e-001</left_val>
            <right_val>6.9944746792316437e-002</right_val></_></_>
        <_>
          <!-- tree 38 -->
          <_>
            <!-- root node -->
            <feature>
              <rects>
                <_>
                  6 22 10 1 -1.</_>
                <_>
                  11 22 5 1 2.</_></rects>
              <tilted>0</tilted></feature>
            <threshold>9.2224171385169029e-004</threshold>
            <left_val>-1.3669620454311371e-001</left_val>
            <right_val>3.1877940893173218e-001</right_val></_></_>
        <_>
          <!-- tree 39 -->
          <_>
            <!-- root node -->
            <feature>
              <rects>
                <_>
                  7 13 27 20 -1.</_>
                <_>
                  7 23 27 10 2.</_></rects>
              <tilted>0</tilted></feature>
            <threshold>1.8298810720443726e-001</threshold>
            <left_val>-9.1503992676734924e-002</left_val>
            <right_val>2.8919738531112671e-001</right_val></_></_>
        <_>
          <!-- tree 40 -->
          <_>
            <!-- root node -->
            <feature>
              <rects>
                <_>
                  0 31 2 2 -1.</_>
                <_>
                  0 32 2 1 2.</_></rects>
              <tilted>0</tilted></feature>
            <threshold>-1.1293949683022220e-005</threshold>
            <left_val>1.8419669568538666e-001</left_val>
            <right_val>-2.2996650636196136e-001</right_val></_></_>
        <_>
          <!-- tree 41 -->
          <_>
            <!-- root node -->
            <feature>
              <rects>
                <_>
                  15 4 6 1 -1.</_>
                <_>
                  15 4 3 1 2.</_></rects>
              <tilted>0</tilted></feature>
            <threshold>7.2062030085362494e-005</threshold>
            <left_val>8.7766163051128387e-002</left_val>
            <right_val>-1.6902850568294525e-001</right_val></_></_>
        <_>
          <!-- tree 42 -->
          <_>
            <!-- root node -->
            <feature>
              <rects>
                <_>
                  15 0 4 30 -1.</_>
                <_>
                  15 15 4 15 2.</_></rects>
              <tilted>0</tilted></feature>
            <threshold>6.0309018939733505e-002</threshold>
            <left_val>7.2313003242015839e-002</left_val>
            <right_val>-5.7575339078903198e-001</right_val></_></_>
        <_>
          <!-- tree 43 -->
          <_>
            <!-- root node -->
            <feature>
              <rects>
                <_>
                  20 4 2 1 -1.</_>
                <_>
                  20 4 1 1 2.</_></rects>
              <tilted>0</tilted></feature>
            <threshold>-4.6750581532251090e-005</threshold>
            <left_val>-3.3612939715385437e-001</left_val>
            <right_val>1.2197300046682358e-001</right_val></_></_>
        <_>
          <!-- tree 44 -->
          <_>
            <!-- root node -->
            <feature>
              <rects>
                <_>
                  13 10 4 12 -1.</_>
                <_>
                  13 16 4 6 2.</_></rects>
              <tilted>0</tilted></feature>
            <threshold>-1.5217949636280537e-002</threshold>
            <left_val>-8.4707397222518921e-001</left_val>
            <right_val>4.1511490941047668e-002</right_val></_></_>
        <_>
          <!-- tree 45 -->
          <_>
            <!-- root node -->
            <feature>
              <rects>
                <_>
                  13 2 12 9 -1.</_>
                <_>
                  13 5 12 3 3.</_></rects>
              <tilted>0</tilted></feature>
            <threshold>-5.5909371003508568e-003</threshold>
            <left_val>1.7720620334148407e-001</left_val>
            <right_val>-1.6240049898624420e-001</right_val></_></_>
        <_>
          <!-- tree 46 -->
          <_>
            <!-- root node -->
            <feature>
              <rects>
                <_>
                  10 10 9 6 -1.</_>
                <_>
                  10 12 9 2 3.</_></rects>
              <tilted>0</tilted></feature>
            <threshold>7.5189098715782166e-003</threshold>
            <left_val>-1.1360280215740204e-001</left_val>
            <right_val>4.0056860446929932e-001</right_val></_></_>
        <_>
          <!-- tree 47 -->
          <_>
            <!-- root node -->
            <feature>
              <rects>
                <_>
                  15 14 13 3 -1.</_>
                <_>
                  15 15 13 1 3.</_></rects>
              <tilted>0</tilted></feature>
            <threshold>6.3899002270773053e-004</threshold>
            <left_val>-1.1000859737396240e-001</left_val>
            <right_val>1.5575690567493439e-001</right_val></_></_></trees>
      <stage_threshold>-1.5069069862365723e+000</stage_threshold>
      <parent>8</parent>
      <next>-1</next></_>
    <_>
      <!-- stage 10 -->
      <trees>
        <_>
          <!-- tree 0 -->
          <_>
            <!-- root node -->
            <feature>
              <rects>
                <_>
                  15 0 4 24 -1.</_>
                <_>
                  15 8 4 8 3.</_></rects>
              <tilted>0</tilted></feature>
            <threshold>1.2500160373747349e-002</threshold>
            <left_val>-3.1734740734100342e-001</left_val>
            <right_val>2.9745250940322876e-001</right_val></_></_>
        <_>
          <!-- tree 1 -->
          <_>
            <!-- root node -->
            <feature>
              <rects>
                <_>
                  17 24 12 9 -1.</_>
                <_>
                  17 24 6 9 2.</_></rects>
              <tilted>0</tilted></feature>
            <threshold>-1.9149929285049438e-002</threshold>
            <left_val>1.9382010400295258e-001</left_val>
            <right_val>-1.7168429493904114e-001</right_val></_></_>
        <_>
          <!-- tree 2 -->
          <_>
            <!-- root node -->
            <feature>
              <rects>
                <_>
                  5 1 24 3 -1.</_>
                <_>
                  13 1 8 3 3.</_></rects>
              <tilted>0</tilted></feature>
            <threshold>-4.4667940586805344e-002</threshold>
            <left_val>3.5763201117515564e-001</left_val>
            <right_val>-1.7683209478855133e-001</right_val></_></_>
        <_>
          <!-- tree 3 -->
          <_>
            <!-- root node -->
            <feature>
              <rects>
                <_>
                  20 5 2 1 -1.</_>
                <_>
                  20 5 1 1 2.</_></rects>
              <tilted>0</tilted></feature>
            <threshold>-2.3826409233151935e-005</threshold>
            <left_val>-4.1044089198112488e-001</left_val>
            <right_val>1.5433199703693390e-001</right_val></_></_>
        <_>
          <!-- tree 4 -->
          <_>
            <!-- root node -->
            <feature>
              <rects>
                <_>
                  12 5 2 1 -1.</_>
                <_>
                  13 5 1 1 2.</_></rects>
              <tilted>0</tilted></feature>
            <threshold>-4.8457910452270880e-005</threshold>
            <left_val>-4.3700349330902100e-001</left_val>
            <right_val>1.1319760233163834e-001</right_val></_></_>
        <_>
          <!-- tree 5 -->
          <_>
            <!-- root node -->
            <feature>
              <rects>
                <_>
                  17 26 1 2 -1.</_>
                <_>
                  17 27 1 1 2.</_></rects>
              <tilted>0</tilted></feature>
            <threshold>1.2783890269929543e-005</threshold>
            <left_val>-2.5566390156745911e-001</left_val>
            <right_val>2.0879870653152466e-001</right_val></_></_>
        <_>
          <!-- tree 6 -->
          <_>
            <!-- root node -->
            <feature>
              <rects>
                <_>
                  15 28 4 6 -1.</_>
                <_>
                  15 31 4 3 2.</_></rects>
              <tilted>0</tilted></feature>
            <threshold>1.1603439925238490e-003</threshold>
            <left_val>-3.0556640028953552e-001</left_val>
            <right_val>1.3624849915504456e-001</right_val></_></_>
        <_>
          <!-- tree 7 -->
          <_>
            <!-- root node -->
            <feature>
              <rects>
                <_>
                  9 0 21 9 -1.</_>
                <_>
                  9 3 21 3 3.</_></rects>
              <tilted>0</tilted></feature>
            <threshold>-7.6369089074432850e-003</threshold>
            <left_val>1.1758410185575485e-001</left_val>
            <right_val>-3.3317258954048157e-001</right_val></_></_>
        <_>
          <!-- tree 8 -->
          <_>
            <!-- root node -->
            <feature>
              <rects>
                <_>
                  9 2 16 14 -1.</_>
                <_>
                  9 9 16 7 2.</_></rects>
              <tilted>0</tilted></feature>
            <threshold>9.5993116497993469e-002</threshold>
            <left_val>5.2567008882761002e-002</left_val>
            <right_val>-6.4159011840820313e-001</right_val></_></_>
        <_>
          <!-- tree 9 -->
          <_>
            <!-- root node -->
            <feature>
              <rects>
                <_>
                  4 28 26 6 -1.</_>
                <_>
                  4 28 13 6 2.</_></rects>
              <tilted>0</tilted></feature>
            <threshold>-1.7030029557645321e-003</threshold>
            <left_val>-3.4208980202674866e-001</left_val>
            <right_val>1.1922509968280792e-001</right_val></_></_>
        <_>
          <!-- tree 10 -->
          <_>
            <!-- root node -->
            <feature>
              <rects>
                <_>
                  0 31 34 3 -1.</_>
                <_>
                  17 31 17 3 2.</_></rects>
              <tilted>0</tilted></feature>
            <threshold>-3.4278210252523422e-002</threshold>
            <left_val>-4.5810478925704956e-001</left_val>
            <right_val>8.2705117762088776e-002</right_val></_></_>
        <_>
          <!-- tree 11 -->
          <_>
            <!-- root node -->
            <feature>
              <rects>
                <_>
                  8 1 18 3 -1.</_>
                <_>
                  8 2 18 1 3.</_></rects>
              <tilted>0</tilted></feature>
            <threshold>-4.0106309461407363e-004</threshold>
            <left_val>1.6396020352840424e-001</left_val>
            <right_val>-2.4467669427394867e-001</right_val></_></_>
        <_>
          <!-- tree 12 -->
          <_>
            <!-- root node -->
            <feature>
              <rects>
                <_>
                  14 3 3 1 -1.</_>
                <_>
                  15 3 1 1 3.</_></rects>
              <tilted>0</tilted></feature>
            <threshold>5.9038338804384694e-005</threshold>
            <left_val>8.0191999673843384e-002</left_val>
            <right_val>-4.4710710644721985e-001</right_val></_></_>
        <_>
          <!-- tree 13 -->
          <_>
            <!-- root node -->
            <feature>
              <rects>
                <_>
                  12 10 10 11 -1.</_>
                <_>
                  12 10 5 11 2.</_></rects>
              <tilted>0</tilted></feature>
            <threshold>2.8229230083525181e-003</threshold>
            <left_val>-2.9876831173896790e-001</left_val>
            <right_val>1.3725310564041138e-001</right_val></_></_>
        <_>
          <!-- tree 14 -->
          <_>
            <!-- root node -->
            <feature>
              <rects>
                <_>
                  11 8 11 15 -1.</_>
                <_>
                  11 13 11 5 3.</_></rects>
              <tilted>0</tilted></feature>
            <threshold>1.6884310171008110e-003</threshold>
            <left_val>-2.9919418692588806e-001</left_val>
            <right_val>1.3852520287036896e-001</right_val></_></_>
        <_>
          <!-- tree 15 -->
          <_>
            <!-- root node -->
            <feature>
              <rects>
                <_>
                  14 11 6 14 -1.</_>
                <_>
                  14 18 6 7 2.</_></rects>
              <tilted>0</tilted></feature>
            <threshold>-2.2787550464272499e-002</threshold>
            <left_val>-7.0423382520675659e-001</left_val>
            <right_val>5.5475860834121704e-002</right_val></_></_>
        <_>
          <!-- tree 16 -->
          <_>
            <!-- root node -->
            <feature>
              <rects>
                <_>
                  12 1 8 9 -1.</_>
                <_>
                  12 4 8 3 3.</_></rects>
              <tilted>0</tilted></feature>
            <threshold>-2.3436579853296280e-002</threshold>
            <left_val>4.0942689776420593e-001</left_val>
            <right_val>-1.0378970205783844e-001</right_val></_></_>
        <_>
          <!-- tree 17 -->
          <_>
            <!-- root node -->
            <feature>
              <rects>
                <_>
                  17 3 3 1 -1.</_>
                <_>
                  18 3 1 1 3.</_></rects>
              <tilted>0</tilted></feature>
            <threshold>4.2666120862122625e-005</threshold>
            <left_val>7.5594723224639893e-002</left_val>
            <right_val>-3.0013349652290344e-001</right_val></_></_>
        <_>
          <!-- tree 18 -->
          <_>
            <!-- root node -->
            <feature>
              <rects>
                <_>
                  6 3 6 9 -1.</_>
                <_>
                  8 3 2 9 3.</_></rects>
              <tilted>0</tilted></feature>
            <threshold>-6.3800369389355183e-003</threshold>
            <left_val>2.9722270369529724e-001</left_val>
            <right_val>-1.2981270253658295e-001</right_val></_></_>
        <_>
          <!-- tree 19 -->
          <_>
            <!-- root node -->
            <feature>
              <rects>
                <_>
                  19 23 1 2 -1.</_>
                <_>
                  19 24 1 1 2.</_></rects>
              <tilted>0</tilted></feature>
            <threshold>1.2868499652540777e-005</threshold>
            <left_val>-1.3889899849891663e-001</left_val>
            <right_val>1.1494229733943939e-001</right_val></_></_>
        <_>
          <!-- tree 20 -->
          <_>
            <!-- root node -->
            <feature>
              <rects>
                <_>
                  14 1 3 7 -1.</_>
                <_>
                  15 1 1 7 3.</_></rects>
              <tilted>0</tilted></feature>
            <threshold>-2.0913130138069391e-003</threshold>
            <left_val>-7.6249051094055176e-001</left_val>
            <right_val>4.9359399825334549e-002</right_val></_></_>
        <_>
          <!-- tree 21 -->
          <_>
            <!-- root node -->
            <feature>
              <rects>
                <_>
                  23 22 2 4 -1.</_>
                <_>
                  24 22 1 2 2.</_>
                <_>
                  23 24 1 2 2.</_></rects>
              <tilted>0</tilted></feature>
            <threshold>1.3860670151188970e-003</threshold>
            <left_val>-3.9922829717397690e-002</left_val>
            <right_val>3.5922130942344666e-001</right_val></_></_>
        <_>
          <!-- tree 22 -->
          <_>
            <!-- root node -->
            <feature>
              <rects>
                <_>
                  9 22 2 4 -1.</_>
                <_>
                  9 22 1 2 2.</_>
                <_>
                  10 24 1 2 2.</_></rects>
              <tilted>0</tilted></feature>
            <threshold>6.9916690699756145e-004</threshold>
            <left_val>-9.1261573135852814e-002</left_val>
            <right_val>3.9889070391654968e-001</right_val></_></_>
        <_>
          <!-- tree 23 -->
          <_>
            <!-- root node -->
            <feature>
              <rects>
                <_>
                  15 15 7 3 -1.</_>
                <_>
                  15 16 7 1 3.</_></rects>
              <tilted>0</tilted></feature>
            <threshold>3.9232530980370939e-004</threshold>
            <left_val>-1.0351529717445374e-001</left_val>
            <right_val>1.7057639360427856e-001</right_val></_></_>
        <_>
          <!-- tree 24 -->
          <_>
            <!-- root node -->
            <feature>
              <rects>
                <_>
                  2 17 5 16 -1.</_>
                <_>
                  2 25 5 8 2.</_></rects>
              <tilted>0</tilted></feature>
            <threshold>5.8537889271974564e-002</threshold>
            <left_val>-6.9135367870330811e-002</left_val>
            <right_val>5.0067037343978882e-001</right_val></_></_>
        <_>
          <!-- tree 25 -->
          <_>
            <!-- root node -->
            <feature>
              <rects>
                <_>
                  28 26 3 2 -1.</_>
                <_>
                  28 27 3 1 2.</_></rects>
              <tilted>0</tilted></feature>
            <threshold>-1.3153479812899604e-005</threshold>
            <left_val>1.7682099342346191e-001</left_val>
            <right_val>-1.5242700278759003e-001</right_val></_></_>
        <_>
          <!-- tree 26 -->
          <_>
            <!-- root node -->
            <feature>
              <rects>
                <_>
                  3 26 1 2 -1.</_>
                <_>
                  3 27 1 1 2.</_></rects>
              <tilted>0</tilted></feature>
            <threshold>-1.2527480066637509e-005</threshold>
            <left_val>1.9017109274864197e-001</left_val>
            <right_val>-1.8041250109672546e-001</right_val></_></_>
        <_>
          <!-- tree 27 -->
          <_>
            <!-- root node -->
            <feature>
              <rects>
                <_>
                  17 17 2 12 -1.</_>
                <_>
                  17 21 2 4 3.</_></rects>
              <tilted>0</tilted></feature>
            <threshold>-1.2772330082952976e-002</threshold>
            <left_val>-8.6468541622161865e-001</left_val>
            <right_val>2.8702870011329651e-002</right_val></_></_>
        <_>
          <!-- tree 28 -->
          <_>
            <!-- root node -->
            <feature>
              <rects>
                <_>
                  5 25 14 2 -1.</_>
                <_>
                  12 25 7 2 2.</_></rects>
              <tilted>0</tilted></feature>
            <threshold>3.8165750447660685e-003</threshold>
            <left_val>-1.1269190162420273e-001</left_val>
            <right_val>3.3288478851318359e-001</right_val></_></_>
        <_>
          <!-- tree 29 -->
          <_>
            <!-- root node -->
            <feature>
              <rects>
                <_>
                  11 18 18 16 -1.</_>
                <_>
                  17 18 6 16 3.</_></rects>
              <tilted>0</tilted></feature>
            <threshold>-1.4924369752407074e-001</threshold>
            <left_val>-6.4495301246643066e-001</left_val>
            <right_val>3.5420410335063934e-002</right_val></_></_>
        <_>
          <!-- tree 30 -->
          <_>
            <!-- root node -->
            <feature>
              <rects>
                <_>
                  2 12 30 22 -1.</_>
                <_>
                  12 12 10 22 3.</_></rects>
              <tilted>0</tilted></feature>
            <threshold>-1.0640709847211838e-001</threshold>
            <left_val>2.0654520392417908e-001</left_val>
            <right_val>-2.3260550200939178e-001</right_val></_></_>
        <_>
          <!-- tree 31 -->
          <_>
            <!-- root node -->
            <feature>
              <rects>
                <_>
                  18 23 2 6 -1.</_>
                <_>
                  18 26 2 3 2.</_></rects>
              <tilted>0</tilted></feature>
            <threshold>-4.1521959938108921e-003</threshold>
            <left_val>-6.4139878749847412e-001</left_val>
            <right_val>2.8222590684890747e-002</right_val></_></_>
        <_>
          <!-- tree 32 -->
          <_>
            <!-- root node -->
            <feature>
              <rects>
                <_>
                  10 12 10 10 -1.</_>
                <_>
                  15 12 5 10 2.</_></rects>
              <tilted>0</tilted></feature>
            <threshold>-2.4939110502600670e-002</threshold>
            <left_val>-5.2236378192901611e-001</left_val>
            <right_val>6.2484391033649445e-002</right_val></_></_>
        <_>
          <!-- tree 33 -->
          <_>
            <!-- root node -->
            <feature>
              <rects>
                <_>
                  17 4 1 2 -1.</_>
                <_>
                  17 5 1 1 2.</_></rects>
              <tilted>0</tilted></feature>
            <threshold>-3.5719680454349145e-005</threshold>
            <left_val>-4.0152621269226074e-001</left_val>
            <right_val>6.0924299061298370e-002</right_val></_></_>
        <_>
          <!-- tree 34 -->
          <_>
            <!-- root node -->
            <feature>
              <rects>
                <_>
                  9 0 11 3 -1.</_>
                <_>
                  9 1 11 1 3.</_></rects>
              <tilted>0</tilted></feature>
            <threshold>-1.9161589443683624e-004</threshold>
            <left_val>1.7034310102462769e-001</left_val>
            <right_val>-2.0773570239543915e-001</right_val></_></_>
        <_>
          <!-- tree 35 -->
          <_>
            <!-- root node -->
            <feature>
              <rects>
                <_>
                  14 1 9 12 -1.</_>
                <_>
                  14 5 9 4 3.</_></rects>
              <tilted>0</tilted></feature>
            <threshold>-9.4838757067918777e-003</threshold>
            <left_val>1.8170720338821411e-001</left_val>
            <right_val>-1.4404499530792236e-001</right_val></_></_>
        <_>
          <!-- tree 36 -->
          <_>
            <!-- root node -->
            <feature>
              <rects>
                <_>
                  0 1 34 32 -1.</_>
                <_>
                  0 1 17 16 2.</_>
                <_>
                  17 17 17 16 2.</_></rects>
              <tilted>0</tilted></feature>
            <threshold>1.8039450049400330e-001</threshold>
            <left_val>6.2981642782688141e-002</left_val>
            <right_val>-5.4091930389404297e-001</right_val></_></_>
        <_>
          <!-- tree 37 -->
          <_>
            <!-- root node -->
            <feature>
              <rects>
                <_>
                  21 9 6 12 -1.</_>
                <_>
                  23 9 2 12 3.</_></rects>
              <tilted>0</tilted></feature>
            <threshold>-2.7354459743946791e-003</threshold>
            <left_val>1.0586900264024734e-001</left_val>
            <right_val>-8.7725527584552765e-002</right_val></_></_>
        <_>
          <!-- tree 38 -->
          <_>
            <!-- root node -->
            <feature>
              <rects>
                <_>
                  7 9 6 12 -1.</_>
                <_>
                  9 9 2 12 3.</_></rects>
              <tilted>0</tilted></feature>
            <threshold>6.6746328957378864e-003</threshold>
            <left_val>-9.6979022026062012e-002</left_val>
            <right_val>3.3632409572601318e-001</right_val></_></_>
        <_>
          <!-- tree 39 -->
          <_>
            <!-- root node -->
            <feature>
              <rects>
                <_>
                  16 16 6 2 -1.</_>
                <_>
                  19 16 3 1 2.</_>
                <_>
                  16 17 3 1 2.</_></rects>
              <tilted>0</tilted></feature>
            <threshold>2.5914038997143507e-003</threshold>
            <left_val>1.6661489382386208e-002</left_val>
            <right_val>-4.9141091108322144e-001</right_val></_></_>
        <_>
          <!-- tree 40 -->
          <_>
            <!-- root node -->
            <feature>
              <rects>
                <_>
                  12 16 6 2 -1.</_>
                <_>
                  12 16 3 1 2.</_>
                <_>
                  15 17 3 1 2.</_></rects>
              <tilted>0</tilted></feature>
            <threshold>5.8612081920728087e-004</threshold>
            <left_val>-1.1243479698896408e-001</left_val>
            <right_val>3.3268740773200989e-001</right_val></_></_>
        <_>
          <!-- tree 41 -->
          <_>
            <!-- root node -->
            <feature>
              <rects>
                <_>
                  17 27 1 4 -1.</_>
                <_>
                  17 29 1 2 2.</_></rects>
              <tilted>0</tilted></feature>
            <threshold>2.4263290106318891e-004</threshold>
            <left_val>-1.9145679473876953e-001</left_val>
            <right_val>1.6313910484313965e-001</right_val></_></_>
        <_>
          <!-- tree 42 -->
          <_>
            <!-- root node -->
            <feature>
              <rects>
                <_>
                  0 23 12 8 -1.</_>
                <_>
                  0 23 6 4 2.</_>
                <_>
                  6 27 6 4 2.</_></rects>
              <tilted>0</tilted></feature>
            <threshold>-9.9309012293815613e-003</threshold>
            <left_val>3.1746160984039307e-001</left_val>
            <right_val>-1.0160540044307709e-001</right_val></_></_>
        <_>
          <!-- tree 43 -->
          <_>
            <!-- root node -->
            <feature>
              <rects>
                <_>
                  18 22 3 6 -1.</_>
                <_>
                  18 25 3 3 2.</_></rects>
              <tilted>0</tilted></feature>
            <threshold>-6.8429019302129745e-003</threshold>
            <left_val>-4.9563789367675781e-001</left_val>
            <right_val>1.7509849742054939e-002</right_val></_></_>
        <_>
          <!-- tree 44 -->
          <_>
            <!-- root node -->
            <feature>
              <rects>
                <_>
                  7 10 6 15 -1.</_>
                <_>
                  9 10 2 15 3.</_></rects>
              <tilted>0</tilted></feature>
            <threshold>-8.1359297037124634e-003</threshold>
            <left_val>2.7235171198844910e-001</left_val>
            <right_val>-1.1919700354337692e-001</right_val></_></_>
        <_>
          <!-- tree 45 -->
          <_>
            <!-- root node -->
            <feature>
              <rects>
                <_>
                  14 22 6 1 -1.</_>
                <_>
                  14 22 3 1 2.</_></rects>
              <tilted>0</tilted></feature>
            <threshold>2.5549579877406359e-003</threshold>
            <left_val>4.4107921421527863e-002</left_val>
            <right_val>-7.9070180654525757e-001</right_val></_></_>
        <_>
          <!-- tree 46 -->
          <_>
            <!-- root node -->
            <feature>
              <rects>
                <_>
                  1 26 6 1 -1.</_>
                <_>
                  3 26 2 1 3.</_></rects>
              <tilted>0</tilted></feature>
            <threshold>-1.3535889593185857e-005</threshold>
            <left_val>1.7299090325832367e-001</left_val>
            <right_val>-1.8699230253696442e-001</right_val></_></_>
        <_>
          <!-- tree 47 -->
          <_>
            <!-- root node -->
            <feature>
              <rects>
                <_>
                  28 26 2 2 -1.</_>
                <_>
                  28 27 2 1 2.</_></rects>
              <tilted>0</tilted></feature>
            <threshold>2.1652649156749249e-003</threshold>
            <left_val>-2.7130380272865295e-002</left_val>
            <right_val>5.7458531856536865e-001</right_val></_></_>
        <_>
          <!-- tree 48 -->
          <_>
            <!-- root node -->
            <feature>
              <rects>
                <_>
                  4 26 2 2 -1.</_>
                <_>
                  4 27 2 1 2.</_></rects>
              <tilted>0</tilted></feature>
            <threshold>5.5509790399810299e-005</threshold>
            <left_val>1.3933460414409637e-001</left_val>
            <right_val>-2.4486809968948364e-001</right_val></_></_>
        <_>
          <!-- tree 49 -->
          <_>
            <!-- root node -->
            <feature>
              <rects>
                <_>
                  18 1 6 2 -1.</_>
                <_>
                  18 1 3 2 2.</_></rects>
              <tilted>0</tilted></feature>
            <threshold>4.4904340757057071e-004</threshold>
            <left_val>6.2219601124525070e-002</left_val>
            <right_val>-4.2452681064605713e-001</right_val></_></_>
        <_>
          <!-- tree 50 -->
          <_>
            <!-- root node -->
            <feature>
              <rects>
                <_>
                  6 17 14 3 -1.</_>
                <_>
                  6 18 14 1 3.</_></rects>
              <tilted>0</tilted></feature>
            <threshold>1.6785559710115194e-003</threshold>
            <left_val>-1.1684300005435944e-001</left_val>
            <right_val>2.9358088970184326e-001</right_val></_></_></trees>
      <stage_threshold>-1.3751009702682495e+000</stage_threshold>
      <parent>9</parent>
      <next>-1</next></_>
    <_>
      <!-- stage 11 -->
      <trees>
        <_>
          <!-- tree 0 -->
          <_>
            <!-- root node -->
            <feature>
              <rects>
                <_>
                  12 11 8 15 -1.</_>
                <_>
                  16 11 4 15 2.</_></rects>
              <tilted>0</tilted></feature>
            <threshold>-3.2326569780707359e-003</threshold>
            <left_val>1.7195050418376923e-001</left_val>
            <right_val>-4.3235918879508972e-001</right_val></_></_>
        <_>
          <!-- tree 1 -->
          <_>
            <!-- root node -->
            <feature>
              <rects>
                <_>
                  11 4 12 15 -1.</_>
                <_>
                  15 4 4 15 3.</_></rects>
              <tilted>0</tilted></feature>
            <threshold>2.1342181134968996e-003</threshold>
            <left_val>-3.4073030948638916e-001</left_val>
            <right_val>2.2222140431404114e-001</right_val></_></_>
        <_>
          <!-- tree 2 -->
          <_>
            <!-- root node -->
            <feature>
              <rects>
                <_>
                  5 2 24 4 -1.</_>
                <_>
                  13 2 8 4 3.</_></rects>
              <tilted>0</tilted></feature>
            <threshold>-4.1682410985231400e-002</threshold>
            <left_val>3.2794660329818726e-001</left_val>
            <right_val>-1.8249300122261047e-001</right_val></_></_>
        <_>
          <!-- tree 3 -->
          <_>
            <!-- root node -->
            <feature>
              <rects>
                <_>
                  16 10 6 24 -1.</_>
                <_>
                  16 18 6 8 3.</_></rects>
              <tilted>0</tilted></feature>
            <threshold>-6.3218758441507816e-003</threshold>
            <left_val>1.1310639977455139e-001</left_val>
            <right_val>-3.3794468641281128e-001</right_val></_></_>
        <_>
          <!-- tree 4 -->
          <_>
            <!-- root node -->
            <feature>
              <rects>
                <_>
                  12 3 4 1 -1.</_>
                <_>
                  14 3 2 1 2.</_></rects>
              <tilted>0</tilted></feature>
            <threshold>-1.0653649951564148e-004</threshold>
            <left_val>-3.4153300523757935e-001</left_val>
            <right_val>1.7814800143241882e-001</right_val></_></_>
        <_>
          <!-- tree 5 -->
          <_>
            <!-- root node -->
            <feature>
              <rects>
                <_>
                  17 3 4 1 -1.</_>
                <_>
                  17 3 2 1 2.</_></rects>
              <tilted>0</tilted></feature>
            <threshold>-4.2554689571261406e-005</threshold>
            <left_val>-3.1726071238517761e-001</left_val>
            <right_val>1.1885680258274078e-001</right_val></_></_>
        <_>
          <!-- tree 6 -->
          <_>
            <!-- root node -->
            <feature>
              <rects>
                <_>
                  12 0 9 4 -1.</_>
                <_>
                  15 0 3 4 3.</_></rects>
              <tilted>0</tilted></feature>
            <threshold>-1.2384000001475215e-005</threshold>
            <left_val>1.4936479926109314e-001</left_val>
            <right_val>-4.1644340753555298e-001</right_val></_></_>
        <_>
          <!-- tree 7 -->
          <_>
            <!-- root node -->
            <feature>
              <rects>
                <_>
                  14 17 8 7 -1.</_>
                <_>
                  14 17 4 7 2.</_></rects>
              <tilted>0</tilted></feature>
            <threshold>1.7400560900568962e-002</threshold>
            <left_val>2.8846429195255041e-003</left_val>
            <right_val>-7.1127492189407349e-001</right_val></_></_>
        <_>
          <!-- tree 8 -->
          <_>
            <!-- root node -->
            <feature>
              <rects>
                <_>
                  10 10 10 6 -1.</_>
                <_>
                  10 12 10 2 3.</_></rects>
              <tilted>0</tilted></feature>
            <threshold>-4.1319658048450947e-003</threshold>
            <left_val>3.0487298965454102e-001</left_val>
            <right_val>-1.4555050432682037e-001</right_val></_></_>
        <_>
          <!-- tree 9 -->
          <_>
            <!-- root node -->
            <feature>
              <rects>
                <_>
                  14 14 7 12 -1.</_>
                <_>
                  14 18 7 4 3.</_></rects>
              <tilted>0</tilted></feature>
            <threshold>-2.3606399074196815e-002</threshold>
            <left_val>-7.3489367961883545e-001</left_val>
            <right_val>8.7193638086318970e-002</right_val></_></_>
        <_>
          <!-- tree 10 -->
          <_>
            <!-- root node -->
            <feature>
              <rects>
                <_>
                  11 12 7 3 -1.</_>
                <_>
                  11 13 7 1 3.</_></rects>
              <tilted>0</tilted></feature>
            <threshold>1.4888560399413109e-003</threshold>
            <left_val>-1.7049740254878998e-001</left_val>
            <right_val>2.9771909117698669e-001</right_val></_></_>
        <_>
          <!-- tree 11 -->
          <_>
            <!-- root node -->
            <feature>
              <rects>
                <_>
                  17 0 2 6 -1.</_>
                <_>
                  17 2 2 2 3.</_></rects>
              <tilted>0</tilted></feature>
            <threshold>-1.3046759704593569e-005</threshold>
            <left_val>1.0159769654273987e-001</left_val>
            <right_val>-3.4348121285438538e-001</right_val></_></_>
        <_>
          <!-- tree 12 -->
          <_>
            <!-- root node -->
            <feature>
              <rects>
                <_>
                  4 30 3 4 -1.</_>
                <_>
                  4 32 3 2 2.</_></rects>
              <tilted>0</tilted></feature>
            <threshold>3.3806599094532430e-004</threshold>
            <left_val>1.2519170343875885e-001</left_val>
            <right_val>-3.3140280842781067e-001</right_val></_></_>
        <_>
          <!-- tree 13 -->
          <_>
            <!-- root node -->
            <feature>
              <rects>
                <_>
                  17 28 1 2 -1.</_>
                <_>
                  17 29 1 1 2.</_></rects>
              <tilted>0</tilted></feature>
            <threshold>1.2884979696536902e-005</threshold>
            <left_val>-2.3426569998264313e-001</left_val>
            <right_val>1.4128050208091736e-001</right_val></_></_>
        <_>
          <!-- tree 14 -->
          <_>
            <!-- root node -->
            <feature>
              <rects>
                <_>
                  14 6 4 1 -1.</_>
                <_>
                  16 6 2 1 2.</_></rects>
              <tilted>0</tilted></feature>
            <threshold>8.1968282756861299e-005</threshold>
            <left_val>8.5678517818450928e-002</left_val>
            <right_val>-3.7309938669204712e-001</right_val></_></_>
        <_>
          <!-- tree 15 -->
          <_>
            <!-- root node -->
            <feature>
              <rects>
                <_>
                  17 26 1 2 -1.</_>
                <_>
                  17 27 1 1 2.</_></rects>
              <tilted>0</tilted></feature>
            <threshold>3.4734479413600639e-005</threshold>
            <left_val>-1.4128659665584564e-001</left_val>
            <right_val>1.0308939963579178e-001</right_val></_></_>
        <_>
          <!-- tree 16 -->
          <_>
            <!-- root node -->
            <feature>
              <rects>
                <_>
                  9 3 13 2 -1.</_>
                <_>
                  9 4 13 1 2.</_></rects>
              <tilted>0</tilted></feature>
            <threshold>-1.2347820302238688e-005</threshold>
            <left_val>1.7198839783668518e-001</left_val>
            <right_val>-2.2799299657344818e-001</right_val></_></_>
        <_>
          <!-- tree 17 -->
          <_>
            <!-- root node -->
            <feature>
              <rects>
                <_>
                  17 11 7 3 -1.</_>
                <_>
                  17 12 7 1 3.</_></rects>
              <tilted>0</tilted></feature>
            <threshold>4.8392638564109802e-004</threshold>
            <left_val>-5.8063939213752747e-002</left_val>
            <right_val>1.3486149907112122e-001</right_val></_></_>
        <_>
          <!-- tree 18 -->
          <_>
            <!-- root node -->
            <feature>
              <rects>
                <_>
                  11 13 11 3 -1.</_>
                <_>
                  11 14 11 1 3.</_></rects>
              <tilted>0</tilted></feature>
            <threshold>1.6575029585510492e-003</threshold>
            <left_val>-1.3308219611644745e-001</left_val>
            <right_val>2.8564390540122986e-001</right_val></_></_>
        <_>
          <!-- tree 19 -->
          <_>
            <!-- root node -->
            <feature>
              <rects>
                <_>
                  14 29 6 4 -1.</_>
                <_>
                  16 29 2 4 3.</_></rects>
              <tilted>0</tilted></feature>
            <threshold>-1.2565699580591172e-004</threshold>
            <left_val>1.8788219988346100e-001</left_val>
            <right_val>-2.0164589583873749e-001</right_val></_></_>
        <_>
          <!-- tree 20 -->
          <_>
            <!-- root node -->
            <feature>
              <rects>
                <_>
                  14 20 6 10 -1.</_>
                <_>
                  16 20 2 10 3.</_></rects>
              <tilted>0</tilted></feature>
            <threshold>-6.7552630789577961e-003</threshold>
            <left_val>-5.5885392427444458e-001</left_val>
            <right_val>7.3222100734710693e-002</right_val></_></_>
        <_>
          <!-- tree 21 -->
          <_>
            <!-- root node -->
            <feature>
              <rects>
                <_>
                  17 11 7 3 -1.</_>
                <_>
                  17 12 7 1 3.</_></rects>
              <tilted>0</tilted></feature>
            <threshold>8.1829652190208435e-003</threshold>
            <left_val>-2.0711231045424938e-003</left_val>
            <right_val>-7.7155792713165283e-001</right_val></_></_>
        <_>
          <!-- tree 22 -->
          <_>
            <!-- root node -->
            <feature>
              <rects>
                <_>
                  10 11 7 3 -1.</_>
                <_>
                  10 12 7 1 3.</_></rects>
              <tilted>0</tilted></feature>
            <threshold>1.2932369718328118e-003</threshold>
            <left_val>-1.2365680187940598e-001</left_val>
            <right_val>3.3410251140594482e-001</right_val></_></_>
        <_>
          <!-- tree 23 -->
          <_>
            <!-- root node -->
            <feature>
              <rects>
                <_>
                  8 5 19 15 -1.</_>
                <_>
                  8 10 19 5 3.</_></rects>
              <tilted>0</tilted></feature>
            <threshold>4.2323660105466843e-002</threshold>
            <left_val>9.9898688495159149e-002</left_val>
            <right_val>-3.8558280467987061e-001</right_val></_></_>
        <_>
          <!-- tree 24 -->
          <_>
            <!-- root node -->
            <feature>
              <rects>
                <_>
                  16 5 2 2 -1.</_>
                <_>
                  16 6 2 1 2.</_></rects>
              <tilted>0</tilted></feature>
            <threshold>-7.0756563218310475e-005</threshold>
            <left_val>-5.1269251108169556e-001</left_val>
            <right_val>7.3927253484725952e-002</right_val></_></_>
        <_>
          <!-- tree 25 -->
          <_>
            <!-- root node -->
            <feature>
              <rects>
                <_>
                  30 28 3 6 -1.</_>
                <_>
                  30 30 3 2 3.</_></rects>
              <tilted>0</tilted></feature>
            <threshold>-1.3653850146511104e-005</threshold>
            <left_val>6.9716997444629669e-002</left_val>
            <right_val>-8.2048989832401276e-002</right_val></_></_>
        <_>
          <!-- tree 26 -->
          <_>
            <!-- root node -->
            <feature>
              <rects>
                <_>
                  3 7 15 2 -1.</_>
                <_>
                  8 7 5 2 3.</_></rects>
              <tilted>0</tilted></feature>
            <threshold>-4.1733002290129662e-003</threshold>
            <left_val>1.8773120641708374e-001</left_val>
            <right_val>-1.8508820235729218e-001</right_val></_></_>
        <_>
          <!-- tree 27 -->
          <_>
            <!-- root node -->
            <feature>
              <rects>
                <_>
                  30 28 3 6 -1.</_>
                <_>
                  30 30 3 2 3.</_></rects>
              <tilted>0</tilted></feature>
            <threshold>9.9867833778262138e-003</threshold>
            <left_val>-2.2678390145301819e-002</left_val>
            <right_val>4.2410808801651001e-001</right_val></_></_>
        <_>
          <!-- tree 28 -->
          <_>
            <!-- root node -->
            <feature>
              <rects>
                <_>
                  1 28 3 6 -1.</_>
                <_>
                  1 30 3 2 3.</_></rects>
              <tilted>0</tilted></feature>
            <threshold>-5.6863609643187374e-005</threshold>
            <left_val>1.8752869963645935e-001</left_val>
            <right_val>-1.8483319878578186e-001</right_val></_></_>
        <_>
          <!-- tree 29 -->
          <_>
            <!-- root node -->
            <feature>
              <rects>
                <_>
                  32 32 2 2 -1.</_>
                <_>
                  32 33 2 1 2.</_></rects>
              <tilted>0</tilted></feature>
            <threshold>-1.2571969818964135e-005</threshold>
            <left_val>1.5857779979705811e-001</left_val>
            <right_val>-1.7393989861011505e-001</right_val></_></_>
        <_>
          <!-- tree 30 -->
          <_>
            <!-- root node -->
            <feature>
              <rects>
                <_>
                  0 12 28 22 -1.</_>
                <_>
                  0 23 28 11 2.</_></rects>
              <tilted>0</tilted></feature>
            <threshold>2.0452560484409332e-001</threshold>
            <left_val>-1.2249259650707245e-001</left_val>
            <right_val>2.7932721376419067e-001</right_val></_></_>
        <_>
          <!-- tree 31 -->
          <_>
            <!-- root node -->
            <feature>
              <rects>
                <_>
                  10 2 14 18 -1.</_>
                <_>
                  10 11 14 9 2.</_></rects>
              <tilted>0</tilted></feature>
            <threshold>7.8761499025858939e-005</threshold>
            <left_val>-5.1677542924880981e-001</left_val>
            <right_val>6.7836478352546692e-002</right_val></_></_>
        <_>
          <!-- tree 32 -->
          <_>
            <!-- root node -->
            <feature>
              <rects>
                <_>
                  15 0 4 12 -1.</_>
                <_>
                  15 4 4 4 3.</_></rects>
              <tilted>0</tilted></feature>
            <threshold>2.2226849570870399e-002</threshold>
            <left_val>-7.0032916963100433e-002</left_val>
            <right_val>5.8721441030502319e-001</right_val></_></_>
        <_>
          <!-- tree 33 -->
          <_>
            <!-- root node -->
            <feature>
              <rects>
                <_>
                  18 5 4 3 -1.</_>
                <_>
                  18 6 4 1 3.</_></rects>
              <tilted>0</tilted></feature>
            <threshold>4.1153038182528690e-005</threshold>
            <left_val>9.7354963421821594e-002</left_val>
            <right_val>-1.6505229473114014e-001</right_val></_></_>
        <_>
          <!-- tree 34 -->
          <_>
            <!-- root node -->
            <feature>
              <rects>
                <_>
                  0 15 34 15 -1.</_>
                <_>
                  17 15 17 15 2.</_></rects>
              <tilted>0</tilted></feature>
            <threshold>-1.4446640014648438e-001</threshold>
            <left_val>-3.9987859129905701e-001</left_val>
            <right_val>8.3515681326389313e-002</right_val></_></_>
        <_>
          <!-- tree 35 -->
          <_>
            <!-- root node -->
            <feature>
              <rects>
                <_>
                  27 15 6 16 -1.</_>
                <_>
                  27 23 6 8 2.</_></rects>
              <tilted>0</tilted></feature>
            <threshold>-3.5813130438327789e-002</threshold>
            <left_val>3.7242400646209717e-001</left_val>
            <right_val>-6.6227853298187256e-002</right_val></_></_>
        <_>
          <!-- tree 36 -->
          <_>
            <!-- root node -->
            <feature>
              <rects>
                <_>
                  0 32 2 2 -1.</_>
                <_>
                  0 33 2 1 2.</_></rects>
              <tilted>0</tilted></feature>
            <threshold>-1.2243500350450631e-005</threshold>
            <left_val>1.7872780561447144e-001</left_val>
            <right_val>-1.9733080267906189e-001</right_val></_></_>
        <_>
          <!-- tree 37 -->
          <_>
            <!-- root node -->
            <feature>
              <rects>
                <_>
                  28 0 2 4 -1.</_>
                <_>
                  28 2 2 2 2.</_></rects>
              <tilted>0</tilted></feature>
            <threshold>-1.6452330164611340e-003</threshold>
            <left_val>-2.6340219378471375e-001</left_val>
            <right_val>4.7849688678979874e-002</right_val></_></_>
        <_>
          <!-- tree 38 -->
          <_>
            <!-- root node -->
            <feature>
              <rects>
                <_>
                  4 0 26 6 -1.</_>
                <_>
                  4 2 26 2 3.</_></rects>
              <tilted>0</tilted></feature>
            <threshold>-4.6534771099686623e-003</threshold>
            <left_val>1.2794859707355499e-001</left_val>
            <right_val>-2.4037319421768188e-001</right_val></_></_>
        <_>
          <!-- tree 39 -->
          <_>
            <!-- root node -->
            <feature>
              <rects>
                <_>
                  28 0 2 4 -1.</_>
                <_>
                  28 2 2 2 2.</_></rects>
              <tilted>0</tilted></feature>
            <threshold>-6.2762647867202759e-003</threshold>
            <left_val>-3.7714651226997375e-001</left_val>
            <right_val>8.3067184314131737e-003</right_val></_></_>
        <_>
          <!-- tree 40 -->
          <_>
            <!-- root node -->
            <feature>
              <rects>
                <_>
                  4 0 2 4 -1.</_>
                <_>
                  4 2 2 2 2.</_></rects>
              <tilted>0</tilted></feature>
            <threshold>-1.9194689812138677e-003</threshold>
            <left_val>-4.4157150387763977e-001</left_val>
            <right_val>7.7964462339878082e-002</right_val></_></_>
        <_>
          <!-- tree 41 -->
          <_>
            <!-- root node -->
            <feature>
              <rects>
                <_>
                  4 31 26 3 -1.</_>
                <_>
                  4 31 13 3 2.</_></rects>
              <tilted>0</tilted></feature>
            <threshold>-3.8298990111798048e-003</threshold>
            <left_val>-3.2001659274101257e-001</left_val>
            <right_val>9.9818736314773560e-002</right_val></_></_>
        <_>
          <!-- tree 42 -->
          <_>
            <!-- root node -->
            <feature>
              <rects>
                <_>
                  3 1 15 9 -1.</_>
                <_>
                  3 4 15 3 3.</_></rects>
              <tilted>0</tilted></feature>
            <threshold>-6.6133630461990833e-003</threshold>
            <left_val>1.4627020061016083e-001</left_val>
            <right_val>-2.2245720028877258e-001</right_val></_></_>
        <_>
          <!-- tree 43 -->
          <_>
            <!-- root node -->
            <feature>
              <rects>
                <_>
                  14 0 17 16 -1.</_>
                <_>
                  14 8 17 8 2.</_></rects>
              <tilted>0</tilted></feature>
            <threshold>1.4592020213603973e-001</threshold>
            <left_val>1.9211739301681519e-002</left_val>
            <right_val>-7.2366547584533691e-001</right_val></_></_>
        <_>
          <!-- tree 44 -->
          <_>
            <!-- root node -->
            <feature>
              <rects>
                <_>
                  9 0 14 30 -1.</_>
                <_>
                  9 0 7 15 2.</_>
                <_>
                  16 15 7 15 2.</_></rects>
              <tilted>0</tilted></feature>
            <threshold>-7.6950266957283020e-002</threshold>
            <left_val>-6.6868752241134644e-001</left_val>
            <right_val>4.4607099145650864e-002</right_val></_></_>
        <_>
          <!-- tree 45 -->
          <_>
            <!-- root node -->
            <feature>
              <rects>
                <_>
                  17 3 1 2 -1.</_>
                <_>
                  17 4 1 1 2.</_></rects>
              <tilted>0</tilted></feature>
            <threshold>-3.5462071537040174e-005</threshold>
            <left_val>-3.3219659328460693e-001</left_val>
            <right_val>6.7033097147941589e-002</right_val></_></_>
        <_>
          <!-- tree 46 -->
          <_>
            <!-- root node -->
            <feature>
              <rects>
                <_>
                  13 26 4 2 -1.</_>
                <_>
                  15 26 2 2 2.</_></rects>
              <tilted>0</tilted></feature>
            <threshold>-2.6336428709328175e-004</threshold>
            <left_val>1.6430009901523590e-001</left_val>
            <right_val>-1.9331060349941254e-001</right_val></_></_>
        <_>
          <!-- tree 47 -->
          <_>
            <!-- root node -->
            <feature>
              <rects>
                <_>
                  16 23 3 2 -1.</_>
                <_>
                  17 23 1 2 3.</_></rects>
              <tilted>0</tilted></feature>
            <threshold>9.6115347696468234e-004</threshold>
            <left_val>3.3532321453094482e-002</left_val>
            <right_val>-6.4787369966506958e-001</right_val></_></_>
        <_>
          <!-- tree 48 -->
          <_>
            <!-- root node -->
            <feature>
              <rects>
                <_>
                  6 27 1 2 -1.</_>
                <_>
                  6 28 1 1 2.</_></rects>
              <tilted>0</tilted></feature>
            <threshold>5.1588598580565304e-005</threshold>
            <left_val>1.0983520001173019e-001</left_val>
            <right_val>-2.7276441454887390e-001</right_val></_></_>
        <_>
          <!-- tree 49 -->
          <_>
            <!-- root node -->
            <feature>
              <rects>
                <_>
                  17 30 1 4 -1.</_>
                <_>
                  17 32 1 2 2.</_></rects>
              <tilted>0</tilted></feature>
            <threshold>1.5921150043141097e-004</threshold>
            <left_val>-2.0919279754161835e-001</left_val>
            <right_val>1.6391420364379883e-001</right_val></_></_>
        <_>
          <!-- tree 50 -->
          <_>
            <!-- root node -->
            <feature>
              <rects>
                <_>
                  5 9 24 12 -1.</_>
                <_>
                  5 9 12 6 2.</_>
                <_>
                  17 15 12 6 2.</_></rects>
              <tilted>0</tilted></feature>
            <threshold>5.6600868701934814e-002</threshold>
            <left_val>4.2424481362104416e-002</left_val>
            <right_val>-7.1081572771072388e-001</right_val></_></_>
        <_>
          <!-- tree 51 -->
          <_>
            <!-- root node -->
            <feature>
              <rects>
                <_>
                  16 5 12 8 -1.</_>
                <_>
                  20 5 4 8 3.</_></rects>
              <tilted>0</tilted></feature>
            <threshold>-2.5144610553979874e-002</threshold>
            <left_val>1.3820570707321167e-001</left_val>
            <right_val>-6.2197949737310410e-002</right_val></_></_></trees>
      <stage_threshold>-1.3484660387039185e+000</stage_threshold>
      <parent>10</parent>
      <next>-1</next></_>
    <_>
      <!-- stage 12 -->
      <trees>
        <_>
          <!-- tree 0 -->
          <_>
            <!-- root node -->
            <feature>
              <rects>
                <_>
                  9 7 15 6 -1.</_>
                <_>
                  14 7 5 6 3.</_></rects>
              <tilted>0</tilted></feature>
            <threshold>7.2360001504421234e-003</threshold>
            <left_val>-2.7531120181083679e-001</left_val>
            <right_val>2.4326260387897491e-001</right_val></_></_>
        <_>
          <!-- tree 1 -->
          <_>
            <!-- root node -->
            <feature>
              <rects>
                <_>
                  17 24 12 9 -1.</_>
                <_>
                  17 24 6 9 2.</_></rects>
              <tilted>0</tilted></feature>
            <threshold>-2.6372009888291359e-002</threshold>
            <left_val>2.1226020157337189e-001</left_val>
            <right_val>-1.3147519528865814e-001</right_val></_></_>
        <_>
          <!-- tree 2 -->
          <_>
            <!-- root node -->
            <feature>
              <rects>
                <_>
                  14 3 4 1 -1.</_>
                <_>
                  16 3 2 1 2.</_></rects>
              <tilted>0</tilted></feature>
            <threshold>-8.8542852608952671e-005</threshold>
            <left_val>-4.3974840641021729e-001</left_val>
            <right_val>1.2320490181446075e-001</right_val></_></_>
        <_>
          <!-- tree 3 -->
          <_>
            <!-- root node -->
            <feature>
              <rects>
                <_>
                  16 3 4 1 -1.</_>
                <_>
                  16 3 2 1 2.</_></rects>
              <tilted>0</tilted></feature>
            <threshold>-6.2371327658183873e-005</threshold>
            <left_val>-2.8400459885597229e-001</left_val>
            <right_val>1.4103309810161591e-001</right_val></_></_>
        <_>
          <!-- tree 4 -->
          <_>
            <!-- root node -->
            <feature>
              <rects>
                <_>
                  11 0 10 12 -1.</_>
                <_>
                  11 4 10 4 3.</_></rects>
              <tilted>0</tilted></feature>
            <threshold>-2.9408030211925507e-002</threshold>
            <left_val>3.0471870303153992e-001</left_val>
            <right_val>-1.7646090686321259e-001</right_val></_></_>
        <_>
          <!-- tree 5 -->
          <_>
            <!-- root node -->
            <feature>
              <rects>
                <_>
                  15 2 18 1 -1.</_>
                <_>
                  15 2 9 1 2.</_></rects>
              <tilted>0</tilted></feature>
            <threshold>-4.7973630717024207e-004</threshold>
            <left_val>6.5840877592563629e-002</left_val>
            <right_val>-5.1742708683013916e-001</right_val></_></_>
        <_>
          <!-- tree 6 -->
          <_>
            <!-- root node -->
            <feature>
              <rects>
                <_>
                  16 26 1 2 -1.</_>
                <_>
                  16 27 1 1 2.</_></rects>
              <tilted>0</tilted></feature>
            <threshold>1.3359040167415515e-005</threshold>
            <left_val>-2.9879450798034668e-001</left_val>
            <right_val>1.5357890725135803e-001</right_val></_></_>
        <_>
          <!-- tree 7 -->
          <_>
            <!-- root node -->
            <feature>
              <rects>
                <_>
                  9 0 17 20 -1.</_>
                <_>
                  9 10 17 10 2.</_></rects>
              <tilted>0</tilted></feature>
            <threshold>1.3750390708446503e-001</threshold>
            <left_val>8.1739343702793121e-002</left_val>
            <right_val>-5.7188767194747925e-001</right_val></_></_>
        <_>
          <!-- tree 8 -->
          <_>
            <!-- root node -->
            <feature>
              <rects>
                <_>
                  16 21 2 9 -1.</_>
                <_>
                  16 24 2 3 3.</_></rects>
              <tilted>0</tilted></feature>
            <threshold>-6.0617090202867985e-003</threshold>
            <left_val>-6.1318200826644897e-001</left_val>
            <right_val>6.9210700690746307e-002</right_val></_></_>
        <_>
          <!-- tree 9 -->
          <_>
            <!-- root node -->
            <feature>
              <rects>
                <_>
                  14 10 10 9 -1.</_>
                <_>
                  14 13 10 3 3.</_></rects>
              <tilted>0</tilted></feature>
            <threshold>7.3939650319516659e-003</threshold>
            <left_val>-1.4061610400676727e-001</left_val>
            <right_val>2.0489630103111267e-001</right_val></_></_>
        <_>
          <!-- tree 10 -->
          <_>
            <!-- root node -->
            <feature>
              <rects>
                <_>
                  14 3 6 1 -1.</_>
                <_>
                  16 3 2 1 3.</_></rects>
              <tilted>0</tilted></feature>
            <threshold>4.4263309973757714e-005</threshold>
            <left_val>1.0509560257196426e-001</left_val>
            <right_val>-3.6749970912933350e-001</right_val></_></_>
        <_>
          <!-- tree 11 -->
          <_>
            <!-- root node -->
            <feature>
              <rects>
                <_>
                  17 6 9 8 -1.</_>
                <_>
                  20 6 3 8 3.</_></rects>
              <tilted>0</tilted></feature>
            <threshold>1.5618719626218081e-003</threshold>
            <left_val>-7.2744347155094147e-002</left_val>
            <right_val>1.7850169539451599e-001</right_val></_></_>
        <_>
          <!-- tree 12 -->
          <_>
            <!-- root node -->
            <feature>
              <rects>
                <_>
                  8 6 9 7 -1.</_>
                <_>
                  11 6 3 7 3.</_></rects>
              <tilted>0</tilted></feature>
            <threshold>3.9386479184031487e-003</threshold>
            <left_val>-1.4718000590801239e-001</left_val>
            <right_val>2.8458839654922485e-001</right_val></_></_>
        <_>
          <!-- tree 13 -->
          <_>
            <!-- root node -->
            <feature>
              <rects>
                <_>
                  14 1 20 3 -1.</_>
                <_>
                  14 1 10 3 2.</_></rects>
              <tilted>0</tilted></feature>
            <threshold>-9.5307506620883942e-002</threshold>
            <left_val>-8.2465952634811401e-001</left_val>
            <right_val>2.9386619571596384e-003</right_val></_></_>
        <_>
          <!-- tree 14 -->
          <_>
            <!-- root node -->
            <feature>
              <rects>
                <_>
                  0 1 20 3 -1.</_>
                <_>
                  10 1 10 3 2.</_></rects>
              <tilted>0</tilted></feature>
            <threshold>-1.0487230028957129e-003</threshold>
            <left_val>8.0329656600952148e-002</left_val>
            <right_val>-5.0727808475494385e-001</right_val></_></_>
        <_>
          <!-- tree 15 -->
          <_>
            <!-- root node -->
            <feature>
              <rects>
                <_>
                  0 29 34 5 -1.</_>
                <_>
                  0 29 17 5 2.</_></rects>
              <tilted>0</tilted></feature>
            <threshold>-1.0967410169541836e-002</threshold>
            <left_val>-3.8373449444770813e-001</left_val>
            <right_val>9.6486650407314301e-002</right_val></_></_>
        <_>
          <!-- tree 16 -->
          <_>
            <!-- root node -->
            <feature>
              <rects>
                <_>
                  3 27 16 6 -1.</_>
                <_>
                  3 27 8 3 2.</_>
                <_>
                  11 30 8 3 2.</_></rects>
              <tilted>0</tilted></feature>
            <threshold>7.8102620318531990e-003</threshold>
            <left_val>-1.8248069286346436e-001</left_val>
            <right_val>2.1105210483074188e-001</right_val></_></_>
        <_>
          <!-- tree 17 -->
          <_>
            <!-- root node -->
            <feature>
              <rects>
                <_>
                  16 12 4 14 -1.</_>
                <_>
                  16 19 4 7 2.</_></rects>
              <tilted>0</tilted></feature>
            <threshold>-2.2027000784873962e-002</threshold>
            <left_val>-8.3853232860565186e-001</left_val>
            <right_val>2.7921469882130623e-002</right_val></_></_>
        <_>
          <!-- tree 18 -->
          <_>
            <!-- root node -->
            <feature>
              <rects>
                <_>
                  14 14 5 2 -1.</_>
                <_>
                  14 15 5 1 2.</_></rects>
              <tilted>0</tilted></feature>
            <threshold>7.5529422610998154e-004</threshold>
            <left_val>-1.3505600392818451e-001</left_val>
            <right_val>2.9198661446571350e-001</right_val></_></_>
        <_>
          <!-- tree 19 -->
          <_>
            <!-- root node -->
            <feature>
              <rects>
                <_>
                  15 11 11 6 -1.</_>
                <_>
                  15 13 11 2 3.</_></rects>
              <tilted>0</tilted></feature>
            <threshold>-2.2020939737558365e-002</threshold>
            <left_val>-6.3078242540359497e-001</left_val>
            <right_val>1.6391599550843239e-002</right_val></_></_>
        <_>
          <!-- tree 20 -->
          <_>
            <!-- root node -->
            <feature>
              <rects>
                <_>
                  12 4 4 1 -1.</_>
                <_>
                  14 4 2 1 2.</_></rects>
              <tilted>0</tilted></feature>
            <threshold>-6.1012349760858342e-005</threshold>
            <left_val>-2.8582340478897095e-001</left_val>
            <right_val>1.2241409718990326e-001</right_val></_></_>
        <_>
          <!-- tree 21 -->
          <_>
            <!-- root node -->
            <feature>
              <rects>
                <_>
                  19 0 8 8 -1.</_>
                <_>
                  23 0 4 4 2.</_>
                <_>
                  19 4 4 4 2.</_></rects>
              <tilted>0</tilted></feature>
            <threshold>-1.5766710042953491e-002</threshold>
            <left_val>4.3543308973312378e-001</left_val>
            <right_val>-5.5140160024166107e-002</right_val></_></_>
        <_>
          <!-- tree 22 -->
          <_>
            <!-- root node -->
            <feature>
              <rects>
                <_>
                  7 0 8 8 -1.</_>
                <_>
                  7 0 4 4 2.</_>
                <_>
                  11 4 4 4 2.</_></rects>
              <tilted>0</tilted></feature>
            <threshold>-1.2578619644045830e-002</threshold>
            <left_val>5.3216469287872314e-001</left_val>
            <right_val>-6.3576653599739075e-002</right_val></_></_>
        <_>
          <!-- tree 23 -->
          <_>
            <!-- root node -->
            <feature>
              <rects>
                <_>
                  20 2 1 2 -1.</_>
                <_>
                  20 3 1 1 2.</_></rects>
              <tilted>0</tilted></feature>
            <threshold>-1.1040789831895381e-004</threshold>
            <left_val>-2.4229280650615692e-001</left_val>
            <right_val>1.0106399655342102e-001</right_val></_></_>
        <_>
          <!-- tree 24 -->
          <_>
            <!-- root node -->
            <feature>
              <rects>
                <_>
                  11 13 6 3 -1.</_>
                <_>
                  11 14 6 1 3.</_></rects>
              <tilted>0</tilted></feature>
            <threshold>1.4731549890711904e-003</threshold>
            <left_val>-1.1770080029964447e-001</left_val>
            <right_val>3.1315758824348450e-001</right_val></_></_>
        <_>
          <!-- tree 25 -->
          <_>
            <!-- root node -->
            <feature>
              <rects>
                <_>
                  10 12 15 6 -1.</_>
                <_>
                  10 14 15 2 3.</_></rects>
              <tilted>0</tilted></feature>
            <threshold>-3.3739691134542227e-003</threshold>
            <left_val>2.9965510964393616e-001</left_val>
            <right_val>-1.2717139720916748e-001</right_val></_></_>
        <_>
          <!-- tree 26 -->
          <_>
            <!-- root node -->
            <feature>
              <rects>
                <_>
                  13 7 8 18 -1.</_>
                <_>
                  13 13 8 6 3.</_></rects>
              <tilted>0</tilted></feature>
            <threshold>-2.3957010358572006e-002</threshold>
            <left_val>-7.2088038921356201e-001</left_val>
            <right_val>5.9098370373249054e-002</right_val></_></_>
        <_>
          <!-- tree 27 -->
          <_>
            <!-- root node -->
            <feature>
              <rects>
                <_>
                  18 24 2 1 -1.</_>
                <_>
                  18 24 1 1 2.</_></rects>
              <tilted>0</tilted></feature>
            <threshold>-1.6809349472168833e-004</threshold>
            <left_val>-3.5464289784431458e-001</left_val>
            <right_val>4.7630321234464645e-002</right_val></_></_>
        <_>
          <!-- tree 28 -->
          <_>
            <!-- root node -->
            <feature>
              <rects>
                <_>
                  1 27 1 2 -1.</_>
                <_>
                  1 28 1 1 2.</_></rects>
              <tilted>0</tilted></feature>
            <threshold>-1.2719479855149984e-005</threshold>
            <left_val>1.8840110301971436e-001</left_val>
            <right_val>-1.8709880113601685e-001</right_val></_></_>
        <_>
          <!-- tree 29 -->
          <_>
            <!-- root node -->
            <feature>
              <rects>
                <_>
                  1 18 33 16 -1.</_>
                <_>
                  1 26 33 8 2.</_></rects>
              <tilted>0</tilted></feature>
            <threshold>1.4810769259929657e-001</threshold>
            <left_val>-1.3201829791069031e-001</left_val>
            <right_val>2.5196489691734314e-001</right_val></_></_>
        <_>
          <!-- tree 30 -->
          <_>
            <!-- root node -->
            <feature>
              <rects>
                <_>
                  14 24 2 1 -1.</_>
                <_>
                  15 24 1 1 2.</_></rects>
              <tilted>0</tilted></feature>
            <threshold>-1.2768249689543154e-005</threshold>
            <left_val>1.5466369688510895e-001</left_val>
            <right_val>-2.1936990320682526e-001</right_val></_></_>
        <_>
          <!-- tree 31 -->
          <_>
            <!-- root node -->
            <feature>
              <rects>
                <_>
                  8 0 25 9 -1.</_>
                <_>
                  8 3 25 3 3.</_></rects>
              <tilted>0</tilted></feature>
            <threshold>-1.3103130273520947e-002</threshold>
            <left_val>9.6037022769451141e-002</left_val>
            <right_val>-2.1904580295085907e-001</right_val></_></_>
        <_>
          <!-- tree 32 -->
          <_>
            <!-- root node -->
            <feature>
              <rects>
                <_>
                  3 19 16 12 -1.</_>
                <_>
                  3 19 8 6 2.</_>
                <_>
                  11 25 8 6 2.</_></rects>
              <tilted>0</tilted></feature>
            <threshold>3.3014409244060516e-002</threshold>
            <left_val>-9.0986236929893494e-002</left_val>
            <right_val>3.7365868687629700e-001</right_val></_></_>
        <_>
          <!-- tree 33 -->
          <_>
            <!-- root node -->
            <feature>
              <rects>
                <_>
                  18 16 1 12 -1.</_>
                <_>
                  18 20 1 4 3.</_></rects>
              <tilted>0</tilted></feature>
            <threshold>-4.8974198289215565e-003</threshold>
            <left_val>-5.3574180603027344e-001</left_val>
            <right_val>4.0399629622697830e-002</right_val></_></_>
        <_>
          <!-- tree 34 -->
          <_>
            <!-- root node -->
            <feature>
              <rects>
                <_>
                  11 5 2 9 -1.</_>
                <_>
                  11 8 2 3 3.</_></rects>
              <tilted>0</tilted></feature>
            <threshold>-1.4265379832067993e-005</threshold>
            <left_val>1.5567240118980408e-001</left_val>
            <right_val>-2.0799620449542999e-001</right_val></_></_>
        <_>
          <!-- tree 35 -->
          <_>
            <!-- root node -->
            <feature>
              <rects>
                <_>
                  19 0 3 18 -1.</_>
                <_>
                  19 6 3 6 3.</_></rects>
              <tilted>0</tilted></feature>
            <threshold>-6.3748732209205627e-003</threshold>
            <left_val>1.0045210272073746e-001</left_val>
            <right_val>-7.8236237168312073e-002</right_val></_></_>
        <_>
          <!-- tree 36 -->
          <_>
            <!-- root node -->
            <feature>
              <rects>
                <_>
                  12 0 3 18 -1.</_>
                <_>
                  12 6 3 6 3.</_></rects>
              <tilted>0</tilted></feature>
            <threshold>9.5985941588878632e-003</threshold>
            <left_val>-1.4747069776058197e-001</left_val>
            <right_val>3.1708958745002747e-001</right_val></_></_>
        <_>
          <!-- tree 37 -->
          <_>
            <!-- root node -->
            <feature>
              <rects>
                <_>
                  21 4 1 4 -1.</_>
                <_>
                  21 6 1 2 2.</_></rects>
              <tilted>0</tilted></feature>
            <threshold>-1.1930269829463214e-004</threshold>
            <left_val>-3.0101108551025391e-001</left_val>
            <right_val>7.7574923634529114e-002</right_val></_></_>
        <_>
          <!-- tree 38 -->
          <_>
            <!-- root node -->
            <feature>
              <rects>
                <_>
                  12 4 1 4 -1.</_>
                <_>
                  12 6 1 2 2.</_></rects>
              <tilted>0</tilted></feature>
            <threshold>5.4642088798573241e-005</threshold>
            <left_val>2.0737780630588531e-001</left_val>
            <right_val>-2.2188690304756165e-001</right_val></_></_>
        <_>
          <!-- tree 39 -->
          <_>
            <!-- root node -->
            <feature>
              <rects>
                <_>
                  24 7 6 9 -1.</_>
                <_>
                  26 7 2 9 3.</_></rects>
              <tilted>0</tilted></feature>
            <threshold>-1.2724840082228184e-002</threshold>
            <left_val>4.5901629328727722e-001</left_val>
            <right_val>-5.2916299551725388e-002</right_val></_></_>
        <_>
          <!-- tree 40 -->
          <_>
            <!-- root node -->
            <feature>
              <rects>
                <_>
                  4 8 6 9 -1.</_>
                <_>
                  6 8 2 9 3.</_></rects>
              <tilted>0</tilted></feature>
            <threshold>-6.0204449109733105e-003</threshold>
            <left_val>3.0137050151824951e-001</left_val>
            <right_val>-1.1537879705429077e-001</right_val></_></_>
        <_>
          <!-- tree 41 -->
          <_>
            <!-- root node -->
            <feature>
              <rects>
                <_>
                  15 21 6 3 -1.</_>
                <_>
                  17 21 2 3 3.</_></rects>
              <tilted>0</tilted></feature>
            <threshold>2.6878500357270241e-003</threshold>
            <left_val>4.4731758534908295e-002</left_val>
            <right_val>-5.0017267465591431e-001</right_val></_></_>
        <_>
          <!-- tree 42 -->
          <_>
            <!-- root node -->
            <feature>
              <rects>
                <_>
                  12 12 9 12 -1.</_>
                <_>
                  15 12 3 12 3.</_></rects>
              <tilted>0</tilted></feature>
            <threshold>-2.0813779905438423e-002</threshold>
            <left_val>-7.9780471324920654e-001</left_val>
            <right_val>3.8849130272865295e-002</right_val></_></_>
        <_>
          <!-- tree 43 -->
          <_>
            <!-- root node -->
            <feature>
              <rects>
                <_>
                  16 21 2 2 -1.</_>
                <_>
                  16 22 2 1 2.</_></rects>
              <tilted>0</tilted></feature>
            <threshold>7.9025783634278923e-005</threshold>
            <left_val>-1.5422900021076202e-001</left_val>
            <right_val>2.3590919375419617e-001</right_val></_></_>
        <_>
          <!-- tree 44 -->
          <_>
            <!-- root node -->
            <feature>
              <rects>
                <_>
                  14 2 6 1 -1.</_>
                <_>
                  17 2 3 1 2.</_></rects>
              <tilted>0</tilted></feature>
            <threshold>-6.9322537456173450e-005</threshold>
            <left_val>-2.7016970515251160e-001</left_val>
            <right_val>1.2574440240859985e-001</right_val></_></_>
        <_>
          <!-- tree 45 -->
          <_>
            <!-- root node -->
            <feature>
              <rects>
                <_>
                  13 23 15 11 -1.</_>
                <_>
                  18 23 5 11 3.</_></rects>
              <tilted>0</tilted></feature>
            <threshold>-9.3088872730731964e-002</threshold>
            <left_val>-6.2404519319534302e-001</left_val>
            <right_val>1.0329839773476124e-002</right_val></_></_>
        <_>
          <!-- tree 46 -->
          <_>
            <!-- root node -->
            <feature>
              <rects>
                <_>
                  13 11 4 15 -1.</_>
                <_>
                  13 16 4 5 3.</_></rects>
              <tilted>0</tilted></feature>
            <threshold>-1.4813910238444805e-002</threshold>
            <left_val>-5.8863562345504761e-001</left_val>
            <right_val>5.1586959511041641e-002</right_val></_></_>
        <_>
          <!-- tree 47 -->
          <_>
            <!-- root node -->
            <feature>
              <rects>
                <_>
                  23 22 4 4 -1.</_>
                <_>
                  25 22 2 2 2.</_>
                <_>
                  23 24 2 2 2.</_></rects>
              <tilted>0</tilted></feature>
            <threshold>2.1936099510639906e-003</threshold>
            <left_val>-4.8173088580369949e-002</left_val>
            <right_val>2.4818080663681030e-001</right_val></_></_>
        <_>
          <!-- tree 48 -->
          <_>
            <!-- root node -->
            <feature>
              <rects>
                <_>
                  0 4 8 18 -1.</_>
                <_>
                  0 10 8 6 3.</_></rects>
              <tilted>0</tilted></feature>
            <threshold>-4.7585271298885345e-002</threshold>
            <left_val>-4.7321480512619019e-001</left_val>
            <right_val>6.5475076436996460e-002</right_val></_></_>
        <_>
          <!-- tree 49 -->
          <_>
            <!-- root node -->
            <feature>
              <rects>
                <_>
                  26 1 8 1 -1.</_>
                <_>
                  26 1 4 1 2.</_></rects>
              <tilted>0</tilted></feature>
            <threshold>-1.0482349898666143e-003</threshold>
            <left_val>-1.6028639674186707e-001</left_val>
            <right_val>4.8404220491647720e-002</right_val></_></_>
        <_>
          <!-- tree 50 -->
          <_>
            <!-- root node -->
            <feature>
              <rects>
                <_>
                  7 0 20 3 -1.</_>
                <_>
                  7 1 20 1 3.</_></rects>
              <tilted>0</tilted></feature>
            <threshold>-8.8177801808342338e-004</threshold>
            <left_val>1.9813820719718933e-001</left_val>
            <right_val>-1.4902679622173309e-001</right_val></_></_>
        <_>
          <!-- tree 51 -->
          <_>
            <!-- root node -->
            <feature>
              <rects>
                <_>
                  26 1 8 1 -1.</_>
                <_>
                  26 1 4 1 2.</_></rects>
              <tilted>0</tilted></feature>
            <threshold>1.2954160338267684e-003</threshold>
            <left_val>3.3728770911693573e-002</left_val>
            <right_val>-1.5552410483360291e-001</right_val></_></_>
        <_>
          <!-- tree 52 -->
          <_>
            <!-- root node -->
            <feature>
              <rects>
                <_>
                  11 0 12 28 -1.</_>
                <_>
                  11 14 12 14 2.</_></rects>
              <tilted>0</tilted></feature>
            <threshold>1.6245290637016296e-001</threshold>
            <left_val>5.1252931356430054e-002</left_val>
            <right_val>-6.1100578308105469e-001</right_val></_></_>
        <_>
          <!-- tree 53 -->
          <_>
            <!-- root node -->
            <feature>
              <rects>
                <_>
                  26 1 8 1 -1.</_>
                <_>
                  26 1 4 1 2.</_></rects>
              <tilted>0</tilted></feature>
            <threshold>1.3564839719037991e-005</threshold>
            <left_val>-5.7963971048593521e-002</left_val>
            <right_val>5.5033169686794281e-002</right_val></_></_>
        <_>
          <!-- tree 54 -->
          <_>
            <!-- root node -->
            <feature>
              <rects>
                <_>
                  0 1 8 1 -1.</_>
                <_>
                  4 1 4 1 2.</_></rects>
              <tilted>0</tilted></feature>
            <threshold>-1.8348849844187498e-003</threshold>
            <left_val>-3.8804480433464050e-001</left_val>
            <right_val>8.3882831037044525e-002</right_val></_></_>
        <_>
          <!-- tree 55 -->
          <_>
            <!-- root node -->
            <feature>
              <rects>
                <_>
                  17 19 4 2 -1.</_>
                <_>
                  19 19 2 1 2.</_>
                <_>
                  17 20 2 1 2.</_></rects>
              <tilted>0</tilted></feature>
            <threshold>-1.0169450251851231e-004</threshold>
            <left_val>1.3475480675697327e-001</left_val>
            <right_val>-9.0884253382682800e-002</right_val></_></_>
        <_>
          <!-- tree 56 -->
          <_>
            <!-- root node -->
            <feature>
              <rects>
                <_>
                  13 19 4 2 -1.</_>
                <_>
                  13 19 2 1 2.</_>
                <_>
                  15 20 2 1 2.</_></rects>
              <tilted>0</tilted></feature>
            <threshold>1.8859069678001106e-004</threshold>
            <left_val>-1.2280959635972977e-001</left_val>
            <right_val>2.6270911097526550e-001</right_val></_></_></trees>
      <stage_threshold>-1.2896749973297119e+000</stage_threshold>
      <parent>11</parent>
      <next>-1</next></_>
    <_>
      <!-- stage 13 -->
      <trees>
        <_>
          <!-- tree 0 -->
          <_>
            <!-- root node -->
            <feature>
              <rects>
                <_>
                  7 1 12 8 -1.</_>
                <_>
                  7 1 6 4 2.</_>
                <_>
                  13 5 6 4 2.</_></rects>
              <tilted>0</tilted></feature>
            <threshold>6.9195497781038284e-003</threshold>
            <left_val>-2.9658049345016479e-001</left_val>
            <right_val>1.9790239632129669e-001</right_val></_></_>
        <_>
          <!-- tree 1 -->
          <_>
            <!-- root node -->
            <feature>
              <rects>
                <_>
                  12 12 10 6 -1.</_>
                <_>
                  12 12 5 6 2.</_></rects>
              <tilted>0</tilted></feature>
            <threshold>6.0748128453269601e-004</threshold>
            <left_val>-4.2747348546981812e-001</left_val>
            <right_val>1.3368549942970276e-001</right_val></_></_>
        <_>
          <!-- tree 2 -->
          <_>
            <!-- root node -->
            <feature>
              <rects>
                <_>
                  5 20 24 14 -1.</_>
                <_>
                  13 20 8 14 3.</_></rects>
              <tilted>0</tilted></feature>
            <threshold>-9.5769926905632019e-002</threshold>
            <left_val>2.9987728595733643e-001</left_val>
            <right_val>-1.6155329346656799e-001</right_val></_></_>
        <_>
          <!-- tree 3 -->
          <_>
            <!-- root node -->
            <feature>
              <rects>
                <_>
                  14 13 8 7 -1.</_>
                <_>
                  14 13 4 7 2.</_></rects>
              <tilted>0</tilted></feature>
            <threshold>1.2505049817264080e-002</threshold>
            <left_val>8.1818617880344391e-002</left_val>
            <right_val>-4.6405419707298279e-001</right_val></_></_>
        <_>
          <!-- tree 4 -->
          <_>
            <!-- root node -->
            <feature>
              <rects>
                <_>
                  12 0 5 12 -1.</_>
                <_>
                  12 4 5 4 3.</_></rects>
              <tilted>0</tilted></feature>
            <threshold>-8.9309997856616974e-003</threshold>
            <left_val>1.9787970185279846e-001</left_val>
            <right_val>-2.3383060097694397e-001</right_val></_></_>
        <_>
          <!-- tree 5 -->
          <_>
            <!-- root node -->
            <feature>
              <rects>
                <_>
                  17 2 1 2 -1.</_>
                <_>
                  17 3 1 1 2.</_></rects>
              <tilted>0</tilted></feature>
            <threshold>-4.8904428695095703e-005</threshold>
            <left_val>-4.0793651342391968e-001</left_val>
            <right_val>8.6973853409290314e-002</right_val></_></_>
        <_>
          <!-- tree 6 -->
          <_>
            <!-- root node -->
            <feature>
              <rects>
                <_>
                  14 11 6 9 -1.</_>
                <_>
                  14 14 6 3 3.</_></rects>
              <tilted>0</tilted></feature>
            <threshold>3.6083199083805084e-003</threshold>
            <left_val>-1.7477059364318848e-001</left_val>
            <right_val>2.3505289852619171e-001</right_val></_></_>
        <_>
          <!-- tree 7 -->
          <_>
            <!-- root node -->
            <feature>
              <rects>
                <_>
                  6 0 24 8 -1.</_>
                <_>
                  18 0 12 4 2.</_>
                <_>
                  6 4 12 4 2.</_></rects>
              <tilted>0</tilted></feature>
            <threshold>-3.6812148988246918e-002</threshold>
            <left_val>-5.2066707611083984e-001</left_val>
            <right_val>3.6951180547475815e-002</right_val></_></_>
        <_>
          <!-- tree 8 -->
          <_>
            <!-- root node -->
            <feature>
              <rects>
                <_>
                  5 25 12 1 -1.</_>
                <_>
                  11 25 6 1 2.</_></rects>
              <tilted>0</tilted></feature>
            <threshold>1.9140719668939710e-003</threshold>
            <left_val>-1.0747420042753220e-001</left_val>
            <right_val>3.9464628696441650e-001</right_val></_></_>
        <_>
          <!-- tree 9 -->
          <_>
            <!-- root node -->
            <feature>
              <rects>
                <_>
                  18 11 3 14 -1.</_>
                <_>
                  18 18 3 7 2.</_></rects>
              <tilted>0</tilted></feature>
            <threshold>-1.7615240067243576e-002</threshold>
            <left_val>-6.7252612113952637e-001</left_val>
            <right_val>2.1600299514830112e-003</right_val></_></_>
        <_>
          <!-- tree 10 -->
          <_>
            <!-- root node -->
            <feature>
              <rects>
                <_>
                  9 12 10 3 -1.</_>
                <_>
                  14 12 5 3 2.</_></rects>
              <tilted>0</tilted></feature>
            <threshold>-8.3746220916509628e-003</threshold>
            <left_val>-5.1204627752304077e-001</left_val>
            <right_val>7.3350198566913605e-002</right_val></_></_>
        <_>
          <!-- tree 11 -->
          <_>
            <!-- root node -->
            <feature>
              <rects>
                <_>
                  15 13 12 17 -1.</_>
                <_>
                  15 13 6 17 2.</_></rects>
              <tilted>0</tilted></feature>
            <threshold>-3.6785040050745010e-002</threshold>
            <left_val>1.4968149363994598e-001</left_val>
            <right_val>-6.9218039512634277e-002</right_val></_></_>
        <_>
          <!-- tree 12 -->
          <_>
            <!-- root node -->
            <feature>
              <rects>
                <_>
                  7 13 12 17 -1.</_>
                <_>
                  13 13 6 17 2.</_></rects>
              <tilted>0</tilted></feature>
            <threshold>-1.7638590186834335e-002</threshold>
            <left_val>1.5617990493774414e-001</left_val>
            <right_val>-2.4423320591449738e-001</right_val></_></_>
        <_>
          <!-- tree 13 -->
          <_>
            <!-- root node -->
            <feature>
              <rects>
                <_>
                  9 20 18 3 -1.</_>
                <_>
                  15 20 6 3 3.</_></rects>
              <tilted>0</tilted></feature>
            <threshold>3.0224600341171026e-003</threshold>
            <left_val>-8.6186259984970093e-002</left_val>
            <right_val>2.9919809103012085e-001</right_val></_></_>
        <_>
          <!-- tree 14 -->
          <_>
            <!-- root node -->
            <feature>
              <rects>
                <_>
                  16 24 2 2 -1.</_>
                <_>
                  16 25 2 1 2.</_></rects>
              <tilted>0</tilted></feature>
            <threshold>6.9164147134870291e-005</threshold>
            <left_val>-2.0095109939575195e-001</left_val>
            <right_val>1.8155680596828461e-001</right_val></_></_>
        <_>
          <!-- tree 15 -->
          <_>
            <!-- root node -->
            <feature>
              <rects>
                <_>
                  13 2 13 2 -1.</_>
                <_>
                  13 3 13 1 2.</_></rects>
              <tilted>0</tilted></feature>
            <threshold>-1.3063019650871865e-005</threshold>
            <left_val>1.3187560439109802e-001</left_val>
            <right_val>-3.0464789271354675e-001</right_val></_></_>
        <_>
          <!-- tree 16 -->
          <_>
            <!-- root node -->
            <feature>
              <rects>
                <_>
                  13 3 1 2 -1.</_>
                <_>
                  13 4 1 1 2.</_></rects>
              <tilted>0</tilted></feature>
            <threshold>-3.6963851016480476e-005</threshold>
            <left_val>-3.8077330589294434e-001</left_val>
            <right_val>9.7902767360210419e-002</right_val></_></_>
        <_>
          <!-- tree 17 -->
          <_>
            <!-- root node -->
            <feature>
              <rects>
                <_>
                  14 16 11 3 -1.</_>
                <_>
                  14 17 11 1 3.</_></rects>
              <tilted>0</tilted></feature>
            <threshold>2.0348159596323967e-003</threshold>
            <left_val>-8.4554679691791534e-002</left_val>
            <right_val>2.8542721271514893e-001</right_val></_></_>
        <_>
          <!-- tree 18 -->
          <_>
            <!-- root node -->
            <feature>
              <rects>
                <_>
                  15 22 3 4 -1.</_>
                <_>
                  16 22 1 4 3.</_></rects>
              <tilted>0</tilted></feature>
            <threshold>8.6245447164401412e-004</threshold>
            <left_val>6.4925253391265869e-002</left_val>
            <right_val>-5.5793690681457520e-001</right_val></_></_>
        <_>
          <!-- tree 19 -->
          <_>
            <!-- root node -->
            <feature>
              <rects>
                <_>
                  12 10 13 6 -1.</_>
                <_>
                  12 12 13 2 3.</_></rects>
              <tilted>0</tilted></feature>
            <threshold>8.5877589881420135e-003</threshold>
            <left_val>-9.9820077419281006e-002</left_val>
            <right_val>2.8901410102844238e-001</right_val></_></_>
        <_>
          <!-- tree 20 -->
          <_>
            <!-- root node -->
            <feature>
              <rects>
                <_>
                  13 12 3 12 -1.</_>
                <_>
                  13 18 3 6 2.</_></rects>
              <tilted>0</tilted></feature>
            <threshold>-1.0347659699618816e-002</threshold>
            <left_val>-5.8309447765350342e-001</left_val>
            <right_val>6.8394668400287628e-002</right_val></_></_>
        <_>
          <!-- tree 21 -->
          <_>
            <!-- root node -->
            <feature>
              <rects>
                <_>
                  15 15 7 3 -1.</_>
                <_>
                  15 16 7 1 3.</_></rects>
              <tilted>0</tilted></feature>
            <threshold>1.1061070254072547e-003</threshold>
            <left_val>-1.0216820240020752e-001</left_val>
            <right_val>2.1089890599250793e-001</right_val></_></_>
        <_>
          <!-- tree 22 -->
          <_>
            <!-- root node -->
            <feature>
              <rects>
                <_>
                  9 14 10 3 -1.</_>
                <_>
                  9 15 10 1 3.</_></rects>
              <tilted>0</tilted></feature>
            <threshold>1.7457220237702131e-003</threshold>
            <left_val>-1.2356939911842346e-001</left_val>
            <right_val>2.9175060987472534e-001</right_val></_></_>
        <_>
          <!-- tree 23 -->
          <_>
            <!-- root node -->
            <feature>
              <rects>
                <_>
                  30 30 3 4 -1.</_>
                <_>
                  30 32 3 2 2.</_></rects>
              <tilted>0</tilted></feature>
            <threshold>-1.2842269825341646e-005</threshold>
            <left_val>1.5499940514564514e-001</left_val>
            <right_val>-2.4284209311008453e-001</right_val></_></_>
        <_>
          <!-- tree 24 -->
          <_>
            <!-- root node -->
            <feature>
              <rects>
                <_>
                  3 5 14 28 -1.</_>
                <_>
                  3 5 7 14 2.</_>
                <_>
                  10 19 7 14 2.</_></rects>
              <tilted>0</tilted></feature>
            <threshold>9.8466977477073669e-002</threshold>
            <left_val>-6.0878828167915344e-002</left_val>
            <right_val>5.8190482854843140e-001</right_val></_></_>
        <_>
          <!-- tree 25 -->
          <_>
            <!-- root node -->
            <feature>
              <rects>
                <_>
                  16 24 3 1 -1.</_>
                <_>
                  17 24 1 1 3.</_></rects>
              <tilted>0</tilted></feature>
            <threshold>-2.5808971258811653e-004</threshold>
            <left_val>-4.2273360490798950e-001</left_val>
            <right_val>6.4212962985038757e-002</right_val></_></_>
        <_>
          <!-- tree 26 -->
          <_>
            <!-- root node -->
            <feature>
              <rects>
                <_>
                  16 24 2 1 -1.</_>
                <_>
                  17 24 1 1 2.</_></rects>
              <tilted>0</tilted></feature>
            <threshold>-1.3686970305570867e-005</threshold>
            <left_val>1.6977269947528839e-001</left_val>
            <right_val>-1.9408179819583893e-001</right_val></_></_>
        <_>
          <!-- tree 27 -->
          <_>
            <!-- root node -->
            <feature>
              <rects>
                <_>
                  24 24 8 2 -1.</_>
                <_>
                  28 24 4 1 2.</_>
                <_>
                  24 25 4 1 2.</_></rects>
              <tilted>0</tilted></feature>
            <threshold>1.8326609861105680e-003</threshold>
            <left_val>-5.0559788942337036e-002</left_val>
            <right_val>3.1108498573303223e-001</right_val></_></_>
        <_>
          <!-- tree 28 -->
          <_>
            <!-- root node -->
            <feature>
              <rects>
                <_>
                  2 24 8 2 -1.</_>
                <_>
                  2 24 4 1 2.</_>
                <_>
                  6 25 4 1 2.</_></rects>
              <tilted>0</tilted></feature>
            <threshold>-1.8545750062912703e-003</threshold>
            <left_val>4.0921160578727722e-001</left_val>
            <right_val>-7.8288219869136810e-002</right_val></_></_>
        <_>
          <!-- tree 29 -->
          <_>
            <!-- root node -->
            <feature>
              <rects>
                <_>
                  14 4 6 15 -1.</_>
                <_>
                  14 9 6 5 3.</_></rects>
              <tilted>0</tilted></feature>
            <threshold>-3.2745201140642166e-002</threshold>
            <left_val>-7.8813290596008301e-001</left_val>
            <right_val>4.0391400456428528e-002</right_val></_></_>
        <_>
          <!-- tree 30 -->
          <_>
            <!-- root node -->
            <feature>
              <rects>
                <_>
                  1 26 10 2 -1.</_>
                <_>
                  1 26 5 1 2.</_>
                <_>
                  6 27 5 1 2.</_></rects>
              <tilted>0</tilted></feature>
            <threshold>-4.0173558518290520e-003</threshold>
            <left_val>5.5951541662216187e-001</left_val>
            <right_val>-6.0018688440322876e-002</right_val></_></_>
        <_>
          <!-- tree 31 -->
          <_>
            <!-- root node -->
            <feature>
              <rects>
                <_>
                  17 1 12 6 -1.</_>
                <_>
                  17 3 12 2 3.</_></rects>
              <tilted>0</tilted></feature>
            <threshold>-3.1874928623437881e-002</threshold>
            <left_val>-8.4769618511199951e-001</left_val>
            <right_val>2.2200420498847961e-002</right_val></_></_>
        <_>
          <!-- tree 32 -->
          <_>
            <!-- root node -->
            <feature>
              <rects>
                <_>
                  5 1 12 6 -1.</_>
                <_>
                  5 3 12 2 3.</_></rects>
              <tilted>0</tilted></feature>
            <threshold>-1.0604349663481116e-003</threshold>
            <left_val>1.0649400204420090e-001</left_val>
            <right_val>-2.7863618731498718e-001</right_val></_></_>
        <_>
          <!-- tree 33 -->
          <_>
            <!-- root node -->
            <feature>
              <rects>
                <_>
                  16 4 2 1 -1.</_>
                <_>
                  16 4 1 1 2.</_></rects>
              <tilted>0</tilted></feature>
            <threshold>-2.1050009308964945e-005</threshold>
            <left_val>-3.1412890553474426e-001</left_val>
            <right_val>8.8873498141765594e-002</right_val></_></_>
        <_>
          <!-- tree 34 -->
          <_>
            <!-- root node -->
            <feature>
              <rects>
                <_>
                  11 17 12 3 -1.</_>
                <_>
                  11 18 12 1 3.</_></rects>
              <tilted>0</tilted></feature>
            <threshold>1.6718719853088260e-003</threshold>
            <left_val>-1.0127130150794983e-001</left_val>
            <right_val>2.8616440296173096e-001</right_val></_></_>
        <_>
          <!-- tree 35 -->
          <_>
            <!-- root node -->
            <feature>
              <rects>
                <_>
                  30 30 3 4 -1.</_>
                <_>
                  30 32 3 2 2.</_></rects>
              <tilted>0</tilted></feature>
            <threshold>-3.9864871650934219e-003</threshold>
            <left_val>-2.9037100076675415e-001</left_val>
            <right_val>3.3491570502519608e-002</right_val></_></_>
        <_>
          <!-- tree 36 -->
          <_>
            <!-- root node -->
            <feature>
              <rects>
                <_>
                  16 19 2 9 -1.</_>
                <_>
                  16 22 2 3 3.</_></rects>
              <tilted>0</tilted></feature>
            <threshold>-7.4766008183360100e-003</threshold>
            <left_val>-7.8579610586166382e-001</left_val>
            <right_val>3.2634939998388290e-002</right_val></_></_>
        <_>
          <!-- tree 37 -->
          <_>
            <!-- root node -->
            <feature>
              <rects>
                <_>
                  18 17 1 8 -1.</_>
                <_>
                  18 21 1 4 2.</_></rects>
              <tilted>0</tilted></feature>
            <threshold>1.5425010351464152e-003</threshold>
            <left_val>2.6642329990863800e-002</left_val>
            <right_val>-3.3002939820289612e-001</right_val></_></_>
        <_>
          <!-- tree 38 -->
          <_>
            <!-- root node -->
            <feature>
              <rects>
                <_>
                  8 17 14 3 -1.</_>
                <_>
                  8 18 14 1 3.</_></rects>
              <tilted>0</tilted></feature>
            <threshold>-1.8233540467917919e-003</threshold>
            <left_val>2.8508341312408447e-001</left_val>
            <right_val>-1.0152959823608398e-001</right_val></_></_>
        <_>
          <!-- tree 39 -->
          <_>
            <!-- root node -->
            <feature>
              <rects>
                <_>
                  30 30 2 4 -1.</_>
                <_>
                  30 32 2 2 2.</_></rects>
              <tilted>0</tilted></feature>
            <threshold>-1.3060640412732027e-005</threshold>
            <left_val>5.5945921689271927e-002</left_val>
            <right_val>-7.3278307914733887e-002</right_val></_></_>
        <_>
          <!-- tree 40 -->
          <_>
            <!-- root node -->
            <feature>
              <rects>
                <_>
                  8 14 3 14 -1.</_>
                <_>
                  9 14 1 14 3.</_></rects>
              <tilted>0</tilted></feature>
            <threshold>3.8481319788843393e-003</threshold>
            <left_val>-7.8686706721782684e-002</left_val>
            <right_val>3.6625140905380249e-001</right_val></_></_>
        <_>
          <!-- tree 41 -->
          <_>
            <!-- root node -->
            <feature>
              <rects>
                <_>
                  23 14 3 13 -1.</_>
                <_>
                  24 14 1 13 3.</_></rects>
              <tilted>0</tilted></feature>
            <threshold>2.6416960172355175e-003</threshold>
            <left_val>-3.8587499409914017e-002</left_val>
            <right_val>2.0086860656738281e-001</right_val></_></_>
        <_>
          <!-- tree 42 -->
          <_>
            <!-- root node -->
            <feature>
              <rects>
                <_>
                  8 14 3 11 -1.</_>
                <_>
                  9 14 1 11 3.</_></rects>
              <tilted>0</tilted></feature>
            <threshold>-1.6440850449725986e-003</threshold>
            <left_val>3.0251848697662354e-001</left_val>
            <right_val>-1.1803939938545227e-001</right_val></_></_>
        <_>
          <!-- tree 43 -->
          <_>
            <!-- root node -->
            <feature>
              <rects>
                <_>
                  17 22 9 8 -1.</_>
                <_>
                  17 26 9 4 2.</_></rects>
              <tilted>0</tilted></feature>
            <threshold>3.0952740460634232e-002</threshold>
            <left_val>3.1792368739843369e-002</left_val>
            <right_val>-2.7709820866584778e-001</right_val></_></_>
        <_>
          <!-- tree 44 -->
          <_>
            <!-- root node -->
            <feature>
              <rects>
                <_>
                  8 22 9 8 -1.</_>
                <_>
                  8 26 9 4 2.</_></rects>
              <tilted>0</tilted></feature>
            <threshold>-2.2747710347175598e-002</threshold>
            <left_val>-8.6137831211090088e-001</left_val>
            <right_val>3.3293139189481735e-002</right_val></_></_>
        <_>
          <!-- tree 45 -->
          <_>
            <!-- root node -->
            <feature>
              <rects>
                <_>
                  30 30 2 4 -1.</_>
                <_>
                  30 32 2 2 2.</_></rects>
              <tilted>0</tilted></feature>
            <threshold>5.9919240884482861e-003</threshold>
            <left_val>-2.4463260546326637e-002</left_val>
            <right_val>3.8754659891128540e-001</right_val></_></_>
        <_>
          <!-- tree 46 -->
          <_>
            <!-- root node -->
            <feature>
              <rects>
                <_>
                  2 30 2 4 -1.</_>
                <_>
                  2 32 2 2 2.</_></rects>
              <tilted>0</tilted></feature>
            <threshold>-1.3525030226446688e-005</threshold>
            <left_val>1.4390079677104950e-001</left_val>
            <right_val>-2.1448850631713867e-001</right_val></_></_>
        <_>
          <!-- tree 47 -->
          <_>
            <!-- root node -->
            <feature>
              <rects>
                <_>
                  12 12 22 16 -1.</_>
                <_>
                  12 12 11 16 2.</_></rects>
              <tilted>0</tilted></feature>
            <threshold>-2.7996060252189636e-001</threshold>
            <left_val>-8.8052821159362793e-001</left_val>
            <right_val>1.6839310526847839e-002</right_val></_></_>
        <_>
          <!-- tree 48 -->
          <_>
            <!-- root node -->
            <feature>
              <rects>
                <_>
                  4 7 10 8 -1.</_>
                <_>
                  4 7 5 4 2.</_>
                <_>
                  9 11 5 4 2.</_></rects>
              <tilted>0</tilted></feature>
            <threshold>1.9596370402723551e-003</threshold>
            <left_val>-1.8236529827117920e-001</left_val>
            <right_val>1.5903830528259277e-001</right_val></_></_>
        <_>
          <!-- tree 49 -->
          <_>
            <!-- root node -->
            <feature>
              <rects>
                <_>
                  28 1 3 15 -1.</_>
                <_>
                  28 6 3 5 3.</_></rects>
              <tilted>0</tilted></feature>
            <threshold>-2.7944289147853851e-002</threshold>
            <left_val>-4.6665841341018677e-001</left_val>
            <right_val>1.8765190616250038e-002</right_val></_></_>
        <_>
          <!-- tree 50 -->
          <_>
            <!-- root node -->
            <feature>
              <rects>
                <_>
                  3 1 4 15 -1.</_>
                <_>
                  3 6 4 5 3.</_></rects>
              <tilted>0</tilted></feature>
            <threshold>2.1544199436903000e-002</threshold>
            <left_val>5.4894231259822845e-002</left_val>
            <right_val>-5.3275799751281738e-001</right_val></_></_>
        <_>
          <!-- tree 51 -->
          <_>
            <!-- root node -->
            <feature>
              <rects>
                <_>
                  16 24 3 4 -1.</_>
                <_>
                  17 24 1 4 3.</_></rects>
              <tilted>0</tilted></feature>
            <threshold>5.4762099171057343e-004</threshold>
            <left_val>4.1565649211406708e-002</left_val>
            <right_val>-2.7298739552497864e-001</right_val></_></_>
        <_>
          <!-- tree 52 -->
          <_>
            <!-- root node -->
            <feature>
              <rects>
                <_>
                  0 20 28 9 -1.</_>
                <_>
                  14 20 14 9 2.</_></rects>
              <tilted>0</tilted></feature>
            <threshold>-1.6422130167484283e-001</threshold>
            <left_val>-6.8992072343826294e-001</left_val>
            <right_val>4.0649939328432083e-002</right_val></_></_>
        <_>
          <!-- tree 53 -->
          <_>
            <!-- root node -->
            <feature>
              <rects>
                <_>
                  15 0 9 20 -1.</_>
                <_>
                  15 10 9 10 2.</_></rects>
              <tilted>0</tilted></feature>
            <threshold>6.3459470868110657e-002</threshold>
            <left_val>5.8382719755172729e-002</left_val>
            <right_val>-3.0612999200820923e-001</right_val></_></_>
        <_>
          <!-- tree 54 -->
          <_>
            <!-- root node -->
            <feature>
              <rects>
                <_>
                  15 3 3 1 -1.</_>
                <_>
                  16 3 1 1 3.</_></rects>
              <tilted>0</tilted></feature>
            <threshold>1.0329030192224309e-004</threshold>
            <left_val>5.9988550841808319e-002</left_val>
            <right_val>-4.4081199169158936e-001</right_val></_></_>
        <_>
          <!-- tree 55 -->
          <_>
            <!-- root node -->
            <feature>
              <rects>
                <_>
                  15 22 4 2 -1.</_>
                <_>
                  15 23 4 1 2.</_></rects>
              <tilted>0</tilted></feature>
            <threshold>1.0765049955807626e-004</threshold>
            <left_val>-1.4910580217838287e-001</left_val>
            <right_val>1.8475760519504547e-001</right_val></_></_>
        <_>
          <!-- tree 56 -->
          <_>
            <!-- root node -->
            <feature>
              <rects>
                <_>
                  15 18 2 15 -1.</_>
                <_>
                  15 23 2 5 3.</_></rects>
              <tilted>0</tilted></feature>
            <threshold>-1.2709179427474737e-003</threshold>
            <left_val>1.1715690046548843e-001</left_val>
            <right_val>-2.4529689550399780e-001</right_val></_></_>
        <_>
          <!-- tree 57 -->
          <_>
            <!-- root node -->
            <feature>
              <rects>
                <_>
                  16 23 2 9 -1.</_>
                <_>
                  16 26 2 3 3.</_></rects>
              <tilted>0</tilted></feature>
            <threshold>-5.4746870882809162e-003</threshold>
            <left_val>-4.5890888571739197e-001</left_val>
            <right_val>6.6353581845760345e-002</right_val></_></_>
        <_>
          <!-- tree 58 -->
          <_>
            <!-- root node -->
            <feature>
              <rects>
                <_>
                  0 16 34 14 -1.</_>
                <_>
                  0 23 34 7 2.</_></rects>
              <tilted>0</tilted></feature>
            <threshold>-6.6604577004909515e-002</threshold>
            <left_val>4.0405249595642090e-001</left_val>
            <right_val>-8.2285329699516296e-002</right_val></_></_>
        <_>
          <!-- tree 59 -->
          <_>
            <!-- root node -->
            <feature>
              <rects>
                <_>
                  12 2 22 2 -1.</_>
                <_>
                  12 2 11 2 2.</_></rects>
              <tilted>0</tilted></feature>
            <threshold>-1.0335539700463414e-003</threshold>
            <left_val>6.8194687366485596e-002</left_val>
            <right_val>-4.1461160778999329e-001</right_val></_></_>
        <_>
          <!-- tree 60 -->
          <_>
            <!-- root node -->
            <feature>
              <rects>
                <_>
                  6 5 6 6 -1.</_>
                <_>
                  8 5 2 6 3.</_></rects>
              <tilted>0</tilted></feature>
            <threshold>-1.1524650268256664e-002</threshold>
            <left_val>3.7653210759162903e-001</left_val>
            <right_val>-7.3163263499736786e-002</right_val></_></_>
        <_>
          <!-- tree 61 -->
          <_>
            <!-- root node -->
            <feature>
              <rects>
                <_>
                  21 6 6 7 -1.</_>
                <_>
                  23 6 2 7 3.</_></rects>
              <tilted>0</tilted></feature>
            <threshold>-2.0166959613561630e-002</threshold>
            <left_val>4.2866480350494385e-001</left_val>
            <right_val>-2.2180279716849327e-002</right_val></_></_>
        <_>
          <!-- tree 62 -->
          <_>
            <!-- root node -->
            <feature>
              <rects>
                <_>
                  0 12 6 7 -1.</_>
                <_>
                  3 12 3 7 2.</_></rects>
              <tilted>0</tilted></feature>
            <threshold>1.4223640318959951e-003</threshold>
            <left_val>1.1297599971294403e-001</left_val>
            <right_val>-2.4703189730644226e-001</right_val></_></_></trees>
      <stage_threshold>-1.3253489732742310e+000</stage_threshold>
      <parent>12</parent>
      <next>-1</next></_>
    <_>
      <!-- stage 14 -->
      <trees>
        <_>
          <!-- tree 0 -->
          <_>
            <!-- root node -->
            <feature>
              <rects>
                <_>
                  11 6 12 8 -1.</_>
                <_>
                  15 6 4 8 3.</_></rects>
              <tilted>0</tilted></feature>
            <threshold>1.9917569588869810e-003</threshold>
            <left_val>-3.1796970963478088e-001</left_val>
            <right_val>1.8547530472278595e-001</right_val></_></_>
        <_>
          <!-- tree 1 -->
          <_>
            <!-- root node -->
            <feature>
              <rects>
                <_>
                  17 24 12 9 -1.</_>
                <_>
                  17 24 6 9 2.</_></rects>
              <tilted>0</tilted></feature>
            <threshold>-1.0786670260131359e-002</threshold>
            <left_val>1.1509159952402115e-001</left_val>
            <right_val>-1.5518260002136230e-001</right_val></_></_>
        <_>
          <!-- tree 2 -->
          <_>
            <!-- root node -->
            <feature>
              <rects>
                <_>
                  14 4 6 1 -1.</_>
                <_>
                  16 4 2 1 3.</_></rects>
              <tilted>0</tilted></feature>
            <threshold>-1.0413090058136731e-004</threshold>
            <left_val>-3.4430810809135437e-001</left_val>
            <right_val>1.2144289910793304e-001</right_val></_></_>
        <_>
          <!-- tree 3 -->
          <_>
            <!-- root node -->
            <feature>
              <rects>
                <_>
                  17 7 9 8 -1.</_>
                <_>
                  20 7 3 8 3.</_></rects>
              <tilted>0</tilted></feature>
            <threshold>1.8974309787154198e-003</threshold>
            <left_val>-1.1231530457735062e-002</left_val>
            <right_val>1.9656120240688324e-001</right_val></_></_>
        <_>
          <!-- tree 4 -->
          <_>
            <!-- root node -->
            <feature>
              <rects>
                <_>
                  8 6 9 10 -1.</_>
                <_>
                  11 6 3 10 3.</_></rects>
              <tilted>0</tilted></feature>
            <threshold>2.7301739901304245e-003</threshold>
            <left_val>-2.1596759557723999e-001</left_val>
            <right_val>2.3711399734020233e-001</right_val></_></_>
        <_>
          <!-- tree 5 -->
          <_>
            <!-- root node -->
            <feature>
              <rects>
                <_>
                  2 1 30 18 -1.</_>
                <_>
                  12 1 10 18 3.</_></rects>
              <tilted>0</tilted></feature>
            <threshold>-1.6980449855327606e-001</threshold>
            <left_val>2.0714969933032990e-001</left_val>
            <right_val>-2.2106480598449707e-001</right_val></_></_>
        <_>
          <!-- tree 6 -->
          <_>
            <!-- root node -->
            <feature>
              <rects>
                <_>
                  16 27 2 4 -1.</_>
                <_>
                  16 29 2 2 2.</_></rects>
              <tilted>0</tilted></feature>
            <threshold>3.3370961318723857e-004</threshold>
            <left_val>-2.8287950158119202e-001</left_val>
            <right_val>1.7452849447727203e-001</right_val></_></_>
        <_>
          <!-- tree 7 -->
          <_>
            <!-- root node -->
            <feature>
              <rects>
                <_>
                  10 0 14 6 -1.</_>
                <_>
                  10 2 14 2 3.</_></rects>
              <tilted>0</tilted></feature>
            <threshold>-9.3727856874465942e-003</threshold>
            <left_val>2.0270089805126190e-001</left_val>
            <right_val>-2.0805659890174866e-001</right_val></_></_>
        <_>
          <!-- tree 8 -->
          <_>
            <!-- root node -->
            <feature>
              <rects>
                <_>
                  15 25 3 2 -1.</_>
                <_>
                  15 26 3 1 2.</_></rects>
              <tilted>0</tilted></feature>
            <threshold>1.2603220056917053e-005</threshold>
            <left_val>-2.9973170161247253e-001</left_val>
            <right_val>1.3633260130882263e-001</right_val></_></_>
        <_>
          <!-- tree 9 -->
          <_>
            <!-- root node -->
            <feature>
              <rects>
                <_>
                  16 3 2 3 -1.</_>
                <_>
                  16 4 2 1 3.</_></rects>
              <tilted>0</tilted></feature>
            <threshold>3.3961328881559893e-005</threshold>
            <left_val>1.2031459808349609e-001</left_val>
            <right_val>-3.7721529603004456e-001</right_val></_></_>
        <_>
          <!-- tree 10 -->
          <_>
            <!-- root node -->
            <feature>
              <rects>
                <_>
                  0 27 32 7 -1.</_>
                <_>
                  16 27 16 7 2.</_></rects>
              <tilted>0</tilted></feature>
            <threshold>2.3497899994254112e-002</threshold>
            <left_val>6.2735483050346375e-002</left_val>
            <right_val>-4.6774509549140930e-001</right_val></_></_>
        <_>
          <!-- tree 11 -->
          <_>
            <!-- root node -->
            <feature>
              <rects>
                <_>
                  10 1 14 24 -1.</_>
                <_>
                  10 13 14 12 2.</_></rects>
              <tilted>0</tilted></feature>
            <threshold>8.9568570256233215e-003</threshold>
            <left_val>-3.9585098624229431e-001</left_val>
            <right_val>8.5670016705989838e-002</right_val></_></_>
        <_>
          <!-- tree 12 -->
          <_>
            <!-- root node -->
            <feature>
              <rects>
                <_>
                  7 25 1 6 -1.</_>
                <_>
                  7 28 1 3 2.</_></rects>
              <tilted>0</tilted></feature>
            <threshold>1.2573809362947941e-004</threshold>
            <left_val>1.4145329594612122e-001</left_val>
            <right_val>-2.2781640291213989e-001</right_val></_></_>
        <_>
          <!-- tree 13 -->
          <_>
            <!-- root node -->
            <feature>
              <rects>
                <_>
                  17 30 1 4 -1.</_>
                <_>
                  17 32 1 2 2.</_></rects>
              <tilted>0</tilted></feature>
            <threshold>2.8827198548242450e-004</threshold>
            <left_val>-1.7462049424648285e-001</left_val>
            <right_val>1.6483679413795471e-001</right_val></_></_>
        <_>
          <!-- tree 14 -->
          <_>
            <!-- root node -->
            <feature>
              <rects>
                <_>
                  15 18 1 8 -1.</_>
                <_>
                  15 22 1 4 2.</_></rects>
              <tilted>0</tilted></feature>
            <threshold>-2.2818860597908497e-003</threshold>
            <left_val>-5.6350088119506836e-001</left_val>
            <right_val>5.4508648812770844e-002</right_val></_></_>
        <_>
          <!-- tree 15 -->
          <_>
            <!-- root node -->
            <feature>
              <rects>
                <_>
                  16 15 4 10 -1.</_>
                <_>
                  16 20 4 5 2.</_></rects>
              <tilted>0</tilted></feature>
            <threshold>-6.3577817854820751e-006</threshold>
            <left_val>1.1784960329532623e-001</left_val>
            <right_val>-2.4153770506381989e-001</right_val></_></_>
        <_>
          <!-- tree 16 -->
          <_>
            <!-- root node -->
            <feature>
              <rects>
                <_>
                  10 11 12 11 -1.</_>
                <_>
                  14 11 4 11 3.</_></rects>
              <tilted>0</tilted></feature>
            <threshold>-2.4937039241194725e-002</threshold>
            <left_val>-6.3801842927932739e-001</left_val>
            <right_val>3.9044678211212158e-002</right_val></_></_>
        <_>
          <!-- tree 17 -->
          <_>
            <!-- root node -->
            <feature>
              <rects>
                <_>
                  14 15 10 4 -1.</_>
                <_>
                  14 15 5 4 2.</_></rects>
              <tilted>0</tilted></feature>
            <threshold>1.6642779111862183e-002</threshold>
            <left_val>1.6915870830416679e-002</left_val>
            <right_val>-5.1536637544631958e-001</right_val></_></_>
        <_>
          <!-- tree 18 -->
          <_>
            <!-- root node -->
            <feature>
              <rects>
                <_>
                  11 16 10 4 -1.</_>
                <_>
                  16 16 5 4 2.</_></rects>
              <tilted>0</tilted></feature>
            <threshold>-4.3265838758088648e-004</threshold>
            <left_val>1.0903909802436829e-001</left_val>
            <right_val>-2.7613270282745361e-001</right_val></_></_>
        <_>
          <!-- tree 19 -->
          <_>
            <!-- root node -->
            <feature>
              <rects>
                <_>
                  19 21 8 1 -1.</_>
                <_>
                  19 21 4 1 2.</_></rects>
              <tilted>0</tilted></feature>
            <threshold>5.8155041188001633e-004</threshold>
            <left_val>-8.3077587187290192e-002</left_val>
            <right_val>1.7918680608272552e-001</right_val></_></_>
        <_>
          <!-- tree 20 -->
          <_>
            <!-- root node -->
            <feature>
              <rects>
                <_>
                  12 4 2 1 -1.</_>
                <_>
                  13 4 1 1 2.</_></rects>
              <tilted>0</tilted></feature>
            <threshold>-3.0934759706724435e-005</threshold>
            <left_val>-2.9645609855651855e-001</left_val>
            <right_val>1.0821759700775146e-001</right_val></_></_>
        <_>
          <!-- tree 21 -->
          <_>
            <!-- root node -->
            <feature>
              <rects>
                <_>
                  20 1 8 6 -1.</_>
                <_>
                  24 1 4 3 2.</_>
                <_>
                  20 4 4 3 2.</_></rects>
              <tilted>0</tilted></feature>
            <threshold>-8.4735779091715813e-003</threshold>
            <left_val>3.2708579301834106e-001</left_val>
            <right_val>-7.0688560605049133e-002</right_val></_></_>
        <_>
          <!-- tree 22 -->
          <_>
            <!-- root node -->
            <feature>
              <rects>
                <_>
                  6 23 15 11 -1.</_>
                <_>
                  11 23 5 11 3.</_></rects>
              <tilted>0</tilted></feature>
            <threshold>-1.0699619539082050e-002</threshold>
            <left_val>2.0492459833621979e-001</left_val>
            <right_val>-1.4580370485782623e-001</right_val></_></_>
        <_>
          <!-- tree 23 -->
          <_>
            <!-- root node -->
            <feature>
              <rects>
                <_>
                  16 22 12 2 -1.</_>
                <_>
                  16 22 6 2 2.</_></rects>
              <tilted>0</tilted></feature>
            <threshold>-1.0081670247018337e-002</threshold>
            <left_val>1.8112359941005707e-001</left_val>
            <right_val>-6.7734330892562866e-002</right_val></_></_>
        <_>
          <!-- tree 24 -->
          <_>
            <!-- root node -->
            <feature>
              <rects>
                <_>
                  6 22 12 2 -1.</_>
                <_>
                  12 22 6 2 2.</_></rects>
              <tilted>0</tilted></feature>
            <threshold>2.6497710496187210e-003</threshold>
            <left_val>-1.2154279649257660e-001</left_val>
            <right_val>3.6386340856552124e-001</right_val></_></_>
        <_>
          <!-- tree 25 -->
          <_>
            <!-- root node -->
            <feature>
              <rects>
                <_>
                  13 22 18 6 -1.</_>
                <_>
                  22 22 9 3 2.</_>
                <_>
                  13 25 9 3 2.</_></rects>
              <tilted>0</tilted></feature>
            <threshold>1.4580049552023411e-002</threshold>
            <left_val>-5.7681430131196976e-002</left_val>
            <right_val>2.6768299937248230e-001</right_val></_></_>
        <_>
          <!-- tree 26 -->
          <_>
            <!-- root node -->
            <feature>
              <rects>
                <_>
                  15 22 2 3 -1.</_>
                <_>
                  16 22 1 3 2.</_></rects>
              <tilted>0</tilted></feature>
            <threshold>-1.0014099534600973e-003</threshold>
            <left_val>-6.5515810251235962e-001</left_val>
            <right_val>4.5513380318880081e-002</right_val></_></_>
        <_>
          <!-- tree 27 -->
          <_>
            <!-- root node -->
            <feature>
              <rects>
                <_>
                  19 1 10 6 -1.</_>
                <_>
                  24 1 5 3 2.</_>
                <_>
                  19 4 5 3 2.</_></rects>
              <tilted>0</tilted></feature>
            <threshold>9.8102968186140060e-003</threshold>
            <left_val>-5.3169578313827515e-002</left_val>
            <right_val>2.1953310072422028e-001</right_val></_></_>
        <_>
          <!-- tree 28 -->
          <_>
            <!-- root node -->
            <feature>
              <rects>
                <_>
                  10 4 11 2 -1.</_>
                <_>
                  10 5 11 1 2.</_></rects>
              <tilted>0</tilted></feature>
            <threshold>5.6226821470772848e-005</threshold>
            <left_val>2.0108869671821594e-001</left_val>
            <right_val>-1.6690330207347870e-001</right_val></_></_>
        <_>
          <!-- tree 29 -->
          <_>
            <!-- root node -->
            <feature>
              <rects>
                <_>
                  17 6 5 14 -1.</_>
                <_>
                  17 13 5 7 2.</_></rects>
              <tilted>0</tilted></feature>
            <threshold>4.3099220842123032e-002</threshold>
            <left_val>1.8107770010828972e-002</left_val>
            <right_val>-6.3785737752914429e-001</right_val></_></_>
        <_>
          <!-- tree 30 -->
          <_>
            <!-- root node -->
            <feature>
              <rects>
                <_>
                  13 6 3 14 -1.</_>
                <_>
                  13 13 3 7 2.</_></rects>
              <tilted>0</tilted></feature>
            <threshold>-5.3077342454344034e-004</threshold>
            <left_val>2.6227590441703796e-001</left_val>
            <right_val>-1.3678979873657227e-001</right_val></_></_>
        <_>
          <!-- tree 31 -->
          <_>
            <!-- root node -->
            <feature>
              <rects>
                <_>
                  17 12 3 2 -1.</_>
                <_>
                  17 13 3 1 2.</_></rects>
              <tilted>0</tilted></feature>
            <threshold>2.8054259018972516e-004</threshold>
            <left_val>-1.4452770352363586e-001</left_val>
            <right_val>2.0903159677982330e-001</right_val></_></_>
        <_>
          <!-- tree 32 -->
          <_>
            <!-- root node -->
            <feature>
              <rects>
                <_>
                  14 9 4 14 -1.</_>
                <_>
                  14 16 4 7 2.</_></rects>
              <tilted>0</tilted></feature>
            <threshold>-2.2029500454664230e-002</threshold>
            <left_val>-9.8808228969573975e-001</left_val>
            <right_val>3.1015109270811081e-002</right_val></_></_>
        <_>
          <!-- tree 33 -->
          <_>
            <!-- root node -->
            <feature>
              <rects>
                <_>
                  16 23 2 2 -1.</_>
                <_>
                  16 24 2 1 2.</_></rects>
              <tilted>0</tilted></feature>
            <threshold>4.3015061237383634e-005</threshold>
            <left_val>-1.7897430062294006e-001</left_val>
            <right_val>1.5818090736865997e-001</right_val></_></_>
        <_>
          <!-- tree 34 -->
          <_>
            <!-- root node -->
            <feature>
              <rects>
                <_>
                  13 3 4 1 -1.</_>
                <_>
                  15 3 2 1 2.</_></rects>
              <tilted>0</tilted></feature>
            <threshold>1.2282560055609792e-004</threshold>
            <left_val>7.6963417232036591e-002</left_val>
            <right_val>-3.8153231143951416e-001</right_val></_></_>
        <_>
          <!-- tree 35 -->
          <_>
            <!-- root node -->
            <feature>
              <rects>
                <_>
                  15 18 8 3 -1.</_>
                <_>
                  15 19 8 1 3.</_></rects>
              <tilted>0</tilted></feature>
            <threshold>-8.6076877778396010e-004</threshold>
            <left_val>1.5501900017261505e-001</left_val>
            <right_val>-7.1540139615535736e-002</right_val></_></_>
        <_>
          <!-- tree 36 -->
          <_>
            <!-- root node -->
            <feature>
              <rects>
                <_>
                  8 18 16 3 -1.</_>
                <_>
                  8 19 16 1 3.</_></rects>
              <tilted>0</tilted></feature>
            <threshold>1.6154169570654631e-003</threshold>
            <left_val>-9.9942207336425781e-002</left_val>
            <right_val>2.6945680379867554e-001</right_val></_></_>
        <_>
          <!-- tree 37 -->
          <_>
            <!-- root node -->
            <feature>
              <rects>
                <_>
                  16 18 9 3 -1.</_>
                <_>
                  16 19 9 1 3.</_></rects>
              <tilted>0</tilted></feature>
            <threshold>-6.4827231690287590e-003</threshold>
            <left_val>-5.2870440483093262e-001</left_val>
            <right_val>1.2647420167922974e-002</right_val></_></_>
        <_>
          <!-- tree 38 -->
          <_>
            <!-- root node -->
            <feature>
              <rects>
                <_>
                  7 18 11 3 -1.</_>
                <_>
                  7 19 11 1 3.</_></rects>
              <tilted>0</tilted></feature>
            <threshold>-1.5684410464018583e-003</threshold>
            <left_val>3.1927600502967834e-001</left_val>
            <right_val>-1.0815290361642838e-001</right_val></_></_>
        <_>
          <!-- tree 39 -->
          <_>
            <!-- root node -->
            <feature>
              <rects>
                <_>
                  14 2 20 2 -1.</_>
                <_>
                  14 2 10 2 2.</_></rects>
              <tilted>0</tilted></feature>
            <threshold>-1.2862610165029764e-003</threshold>
            <left_val>4.5236751437187195e-002</left_val>
            <right_val>-3.3398410677909851e-001</right_val></_></_>
        <_>
          <!-- tree 40 -->
          <_>
            <!-- root node -->
            <feature>
              <rects>
                <_>
                  3 30 3 2 -1.</_>
                <_>
                  3 31 3 1 2.</_></rects>
              <tilted>0</tilted></feature>
            <threshold>1.4042230031918734e-004</threshold>
            <left_val>9.7422741353511810e-002</left_val>
            <right_val>-2.7889451384544373e-001</right_val></_></_>
        <_>
          <!-- tree 41 -->
          <_>
            <!-- root node -->
            <feature>
              <rects>
                <_>
                  15 21 4 12 -1.</_>
                <_>
                  15 25 4 4 3.</_></rects>
              <tilted>0</tilted></feature>
            <threshold>-2.3924540728330612e-003</threshold>
            <left_val>1.3695059716701508e-001</left_val>
            <right_val>-2.0085720717906952e-001</right_val></_></_>
        <_>
          <!-- tree 42 -->
          <_>
            <!-- root node -->
            <feature>
              <rects>
                <_>
                  3 24 1 3 -1.</_>
                <_>
                  3 25 1 1 3.</_></rects>
              <tilted>0</tilted></feature>
            <threshold>-1.5471869846805930e-003</threshold>
            <left_val>6.2747347354888916e-001</left_val>
            <right_val>-4.3293550610542297e-002</right_val></_></_>
        <_>
          <!-- tree 43 -->
          <_>
            <!-- root node -->
            <feature>
              <rects>
                <_>
                  18 3 2 1 -1.</_>
                <_>
                  18 3 1 1 2.</_></rects>
              <tilted>0</tilted></feature>
            <threshold>-2.3722719561192207e-005</threshold>
            <left_val>-2.9497098922729492e-001</left_val>
            <right_val>1.1733420193195343e-001</right_val></_></_>
        <_>
          <!-- tree 44 -->
          <_>
            <!-- root node -->
            <feature>
              <rects>
                <_>
                  0 2 20 2 -1.</_>
                <_>
                  10 2 10 2 2.</_></rects>
              <tilted>0</tilted></feature>
            <threshold>-4.2329251300543547e-004</threshold>
            <left_val>5.0446100533008575e-002</left_val>
            <right_val>-4.9106961488723755e-001</right_val></_></_>
        <_>
          <!-- tree 45 -->
          <_>
            <!-- root node -->
            <feature>
              <rects>
                <_>
                  23 0 8 1 -1.</_>
                <_>
                  23 0 4 1 2.</_></rects>
              <tilted>0</tilted></feature>
            <threshold>-1.2120769824832678e-003</threshold>
            <left_val>-2.0988740026950836e-001</left_val>
            <right_val>6.8285822868347168e-002</right_val></_></_>
        <_>
          <!-- tree 46 -->
          <_>
            <!-- root node -->
            <feature>
              <rects>
                <_>
                  0 13 16 18 -1.</_>
                <_>
                  8 13 8 18 2.</_></rects>
              <tilted>0</tilted></feature>
            <threshold>-1.8059560656547546e-001</threshold>
            <left_val>-6.6522818803787231e-001</left_val>
            <right_val>4.0734421461820602e-002</right_val></_></_>
        <_>
          <!-- tree 47 -->
          <_>
            <!-- root node -->
            <feature>
              <rects>
                <_>
                  22 1 6 10 -1.</_>
                <_>
                  25 1 3 5 2.</_>
                <_>
                  22 6 3 5 2.</_></rects>
              <tilted>0</tilted></feature>
            <threshold>-1.2802760116755962e-002</threshold>
            <left_val>2.2099399566650391e-001</left_val>
            <right_val>-3.2862931489944458e-002</right_val></_></_>
        <_>
          <!-- tree 48 -->
          <_>
            <!-- root node -->
            <feature>
              <rects>
                <_>
                  6 1 6 10 -1.</_>
                <_>
                  6 1 3 5 2.</_>
                <_>
                  9 6 3 5 2.</_></rects>
              <tilted>0</tilted></feature>
            <threshold>-1.0358760133385658e-002</threshold>
            <left_val>4.4413259625434875e-001</left_val>
            <right_val>-5.9104319661855698e-002</right_val></_></_>
        <_>
          <!-- tree 49 -->
          <_>
            <!-- root node -->
            <feature>
              <rects>
                <_>
                  22 5 2 1 -1.</_>
                <_>
                  22 5 1 1 2.</_></rects>
              <tilted>0</tilted></feature>
            <threshold>-3.1656039936933666e-005</threshold>
            <left_val>-2.7344349026679993e-001</left_val>
            <right_val>1.5306960046291351e-001</right_val></_></_>
        <_>
          <!-- tree 50 -->
          <_>
            <!-- root node -->
            <feature>
              <rects>
                <_>
                  10 5 2 1 -1.</_>
                <_>
                  11 5 1 1 2.</_></rects>
              <tilted>0</tilted></feature>
            <threshold>-2.1640609702444635e-005</threshold>
            <left_val>-2.2701619565486908e-001</left_val>
            <right_val>1.2966659665107727e-001</right_val></_></_>
        <_>
          <!-- tree 51 -->
          <_>
            <!-- root node -->
            <feature>
              <rects>
                <_>
                  21 6 6 6 -1.</_>
                <_>
                  23 6 2 6 3.</_></rects>
              <tilted>0</tilted></feature>
            <threshold>-8.7309684604406357e-003</threshold>
            <left_val>1.8562999367713928e-001</left_val>
            <right_val>-4.2040061205625534e-002</right_val></_></_>
        <_>
          <!-- tree 52 -->
          <_>
            <!-- root node -->
            <feature>
              <rects>
                <_>
                  2 25 1 2 -1.</_>
                <_>
                  2 26 1 1 2.</_></rects>
              <tilted>0</tilted></feature>
            <threshold>-1.2635709936148487e-005</threshold>
            <left_val>1.7938759922981262e-001</left_val>
            <right_val>-1.5774090588092804e-001</right_val></_></_>
        <_>
          <!-- tree 53 -->
          <_>
            <!-- root node -->
            <feature>
              <rects>
                <_>
                  28 25 6 2 -1.</_>
                <_>
                  31 25 3 1 2.</_>
                <_>
                  28 26 3 1 2.</_></rects>
              <tilted>0</tilted></feature>
            <threshold>1.8345910357311368e-003</threshold>
            <left_val>-4.9841180443763733e-002</left_val>
            <right_val>4.0005201101303101e-001</right_val></_></_>
        <_>
          <!-- tree 54 -->
          <_>
            <!-- root node -->
            <feature>
              <rects>
                <_>
                  0 25 6 2 -1.</_>
                <_>
                  0 25 3 1 2.</_>
                <_>
                  3 26 3 1 2.</_></rects>
              <tilted>0</tilted></feature>
            <threshold>-1.9217119552195072e-003</threshold>
            <left_val>4.4332578778266907e-001</left_val>
            <right_val>-6.1247501522302628e-002</right_val></_></_>
        <_>
          <!-- tree 55 -->
          <_>
            <!-- root node -->
            <feature>
              <rects>
                <_>
                  21 6 6 6 -1.</_>
                <_>
                  23 6 2 6 3.</_></rects>
              <tilted>0</tilted></feature>
            <threshold>2.3697279393672943e-003</threshold>
            <left_val>-4.5991081744432449e-002</left_val>
            <right_val>1.7744170129299164e-001</right_val></_></_>
        <_>
          <!-- tree 56 -->
          <_>
            <!-- root node -->
            <feature>
              <rects>
                <_>
                  12 13 10 8 -1.</_>
                <_>
                  12 13 5 4 2.</_>
                <_>
                  17 17 5 4 2.</_></rects>
              <tilted>0</tilted></feature>
            <threshold>-1.0941970162093639e-002</threshold>
            <left_val>-6.1941242218017578e-001</left_val>
            <right_val>4.5058060437440872e-002</right_val></_></_>
        <_>
          <!-- tree 57 -->
          <_>
            <!-- root node -->
            <feature>
              <rects>
                <_>
                  21 5 6 9 -1.</_>
                <_>
                  23 5 2 9 3.</_></rects>
              <tilted>0</tilted></feature>
            <threshold>-2.5132220238447189e-002</threshold>
            <left_val>2.4967350065708160e-001</left_val>
            <right_val>-2.0315239205956459e-002</right_val></_></_>
        <_>
          <!-- tree 58 -->
          <_>
            <!-- root node -->
            <feature>
              <rects>
                <_>
                  7 5 6 9 -1.</_>
                <_>
                  9 5 2 9 3.</_></rects>
              <tilted>0</tilted></feature>
            <threshold>2.8962090145796537e-003</threshold>
            <left_val>-9.8349973559379578e-002</left_val>
            <right_val>2.7899780869483948e-001</right_val></_></_>
        <_>
          <!-- tree 59 -->
          <_>
            <!-- root node -->
            <feature>
              <rects>
                <_>
                  15 0 4 17 -1.</_>
                <_>
                  15 0 2 17 2.</_></rects>
              <tilted>0</tilted></feature>
            <threshold>1.5033059753477573e-002</threshold>
            <left_val>3.5535208880901337e-002</left_val>
            <right_val>-8.4150367975234985e-001</right_val></_></_>
        <_>
          <!-- tree 60 -->
          <_>
            <!-- root node -->
            <feature>
              <rects>
                <_>
                  4 0 4 5 -1.</_>
                <_>
                  6 0 2 5 2.</_></rects>
              <tilted>0</tilted></feature>
            <threshold>-2.3010410368442535e-003</threshold>
            <left_val>-2.9226750135421753e-001</left_val>
            <right_val>8.7412826716899872e-002</right_val></_></_>
        <_>
          <!-- tree 61 -->
          <_>
            <!-- root node -->
            <feature>
              <rects>
                <_>
                  18 3 2 1 -1.</_>
                <_>
                  18 3 1 1 2.</_></rects>
              <tilted>0</tilted></feature>
            <threshold>2.1051790099591017e-005</threshold>
            <left_val>6.5252527594566345e-002</left_val>
            <right_val>-2.2525189816951752e-001</right_val></_></_></trees>
      <stage_threshold>-1.2798730134963989e+000</stage_threshold>
      <parent>13</parent>
      <next>-1</next></_>
    <_>
      <!-- stage 15 -->
      <trees>
        <_>
          <!-- tree 0 -->
          <_>
            <!-- root node -->
            <feature>
              <rects>
                <_>
                  5 24 12 10 -1.</_>
                <_>
                  11 24 6 10 2.</_></rects>
              <tilted>0</tilted></feature>
            <threshold>-3.5348448902368546e-002</threshold>
            <left_val>2.9801800847053528e-001</left_val>
            <right_val>-1.8305359780788422e-001</right_val></_></_>
        <_>
          <!-- tree 1 -->
          <_>
            <!-- root node -->
            <feature>
              <rects>
                <_>
                  14 1 7 12 -1.</_>
                <_>
                  14 7 7 6 2.</_></rects>
              <tilted>0</tilted></feature>
            <threshold>9.5802163705229759e-003</threshold>
            <left_val>-3.1789681315422058e-001</left_val>
            <right_val>1.7985509335994720e-001</right_val></_></_>
        <_>
          <!-- tree 2 -->
          <_>
            <!-- root node -->
            <feature>
              <rects>
                <_>
                  0 27 34 5 -1.</_>
                <_>
                  17 27 17 5 2.</_></rects>
              <tilted>0</tilted></feature>
            <threshold>-6.5916411578655243e-002</threshold>
            <left_val>-6.0038369894027710e-001</left_val>
            <right_val>7.3915638029575348e-002</right_val></_></_>
        <_>
          <!-- tree 3 -->
          <_>
            <!-- root node -->
            <feature>
              <rects>
                <_>
                  13 6 8 27 -1.</_>
                <_>
                  13 6 4 27 2.</_></rects>
              <tilted>0</tilted></feature>
            <threshold>3.4585359971970320e-003</threshold>
            <left_val>-3.8454610109329224e-001</left_val>
            <right_val>1.5112650394439697e-001</right_val></_></_>
        <_>
          <!-- tree 4 -->
          <_>
            <!-- root node -->
            <feature>
              <rects>
                <_>
                  6 3 10 2 -1.</_>
                <_>
                  6 4 10 1 2.</_></rects>
              <tilted>0</tilted></feature>
            <threshold>-1.1572619769140147e-005</threshold>
            <left_val>1.7774109542369843e-001</left_val>
            <right_val>-2.6640748977661133e-001</right_val></_></_>
        <_>
          <!-- tree 5 -->
          <_>
            <!-- root node -->
            <feature>
              <rects>
                <_>
                  15 0 13 6 -1.</_>
                <_>
                  15 2 13 2 3.</_></rects>
              <tilted>0</tilted></feature>
            <threshold>-2.2762280423194170e-003</threshold>
            <left_val>7.0420220494270325e-002</left_val>
            <right_val>-2.1372570097446442e-001</right_val></_></_>
        <_>
          <!-- tree 6 -->
          <_>
            <!-- root node -->
            <feature>
              <rects>
                <_>
                  16 27 1 2 -1.</_>
                <_>
                  16 28 1 1 2.</_></rects>
              <tilted>0</tilted></feature>
            <threshold>1.3592960385722108e-005</threshold>
            <left_val>-2.7513858675956726e-001</left_val>
            <right_val>1.5646609663963318e-001</right_val></_></_>
        <_>
          <!-- tree 7 -->
          <_>
            <!-- root node -->
            <feature>
              <rects>
                <_>
                  16 2 4 1 -1.</_>
                <_>
                  16 2 2 1 2.</_></rects>
              <tilted>0</tilted></feature>
            <threshold>-8.1915823102463037e-005</threshold>
            <left_val>-2.4485829472541809e-001</left_val>
            <right_val>4.6802770346403122e-002</right_val></_></_>
        <_>
          <!-- tree 8 -->
          <_>
            <!-- root node -->
            <feature>
              <rects>
                <_>
                  15 2 4 1 -1.</_>
                <_>
                  17 2 2 1 2.</_></rects>
              <tilted>0</tilted></feature>
            <threshold>-8.8802713435143232e-005</threshold>
            <left_val>-3.9496859908103943e-001</left_val>
            <right_val>1.0863330215215683e-001</right_val></_></_>
        <_>
          <!-- tree 9 -->
          <_>
            <!-- root node -->
            <feature>
              <rects>
                <_>
                  9 0 16 10 -1.</_>
                <_>
                  9 5 16 5 2.</_></rects>
              <tilted>0</tilted></feature>
            <threshold>-5.8989830315113068e-002</threshold>
            <left_val>4.7791260480880737e-001</left_val>
            <right_val>-7.1216978132724762e-002</right_val></_></_>
        <_>
          <!-- tree 10 -->
          <_>
            <!-- root node -->
            <feature>
              <rects>
                <_>
                  12 13 8 7 -1.</_>
                <_>
                  16 13 4 7 2.</_></rects>
              <tilted>0</tilted></feature>
            <threshold>-1.2750360183417797e-002</threshold>
            <left_val>-5.6637501716613770e-001</left_val>
            <right_val>5.5015098303556442e-002</right_val></_></_>
        <_>
          <!-- tree 11 -->
          <_>
            <!-- root node -->
            <feature>
              <rects>
                <_>
                  9 13 17 3 -1.</_>
                <_>
                  9 14 17 1 3.</_></rects>
              <tilted>0</tilted></feature>
            <threshold>1.1685290373861790e-003</threshold>
            <left_val>-1.4267790317535400e-001</left_val>
            <right_val>2.1191680431365967e-001</right_val></_></_>
        <_>
          <!-- tree 12 -->
          <_>
            <!-- root node -->
            <feature>
              <rects>
                <_>
                  4 2 24 4 -1.</_>
                <_>
                  4 2 12 2 2.</_>
                <_>
                  16 4 12 2 2.</_></rects>
              <tilted>0</tilted></feature>
            <threshold>7.7762240543961525e-003</threshold>
            <left_val>9.2047952115535736e-002</left_val>
            <right_val>-3.8462749123573303e-001</right_val></_></_>
        <_>
          <!-- tree 13 -->
          <_>
            <!-- root node -->
            <feature>
              <rects>
                <_>
                  11 16 12 12 -1.</_>
                <_>
                  11 20 12 4 3.</_></rects>
              <tilted>0</tilted></feature>
            <threshold>1.7256500199437141e-002</threshold>
            <left_val>5.2391629666090012e-002</left_val>
            <right_val>-5.7625281810760498e-001</right_val></_></_>
        <_>
          <!-- tree 14 -->
          <_>
            <!-- root node -->
            <feature>
              <rects>
                <_>
                  5 3 15 2 -1.</_>
                <_>
                  10 3 5 2 3.</_></rects>
              <tilted>0</tilted></feature>
            <threshold>-9.3077757628634572e-004</threshold>
            <left_val>1.0382279753684998e-001</left_val>
            <right_val>-2.8154391050338745e-001</right_val></_></_>
        <_>
          <!-- tree 15 -->
          <_>
            <!-- root node -->
            <feature>
              <rects>
                <_>
                  15 0 7 12 -1.</_>
                <_>
                  15 4 7 4 3.</_></rects>
              <tilted>0</tilted></feature>
            <threshold>2.3609369993209839e-002</threshold>
            <left_val>-4.9879100173711777e-002</left_val>
            <right_val>4.0339979529380798e-001</right_val></_></_>
        <_>
          <!-- tree 16 -->
          <_>
            <!-- root node -->
            <feature>
              <rects>
                <_>
                  16 3 2 1 -1.</_>
                <_>
                  17 3 1 1 2.</_></rects>
              <tilted>0</tilted></feature>
            <threshold>4.0670598536962643e-005</threshold>
            <left_val>7.5898490846157074e-002</left_val>
            <right_val>-3.8106578588485718e-001</right_val></_></_>
        <_>
          <!-- tree 17 -->
          <_>
            <!-- root node -->
            <feature>
              <rects>
                <_>
                  17 28 1 6 -1.</_>
                <_>
                  17 31 1 3 2.</_></rects>
              <tilted>0</tilted></feature>
            <threshold>1.0954069439321756e-003</threshold>
            <left_val>-1.2826749682426453e-001</left_val>
            <right_val>1.3833570480346680e-001</right_val></_></_>
        <_>
          <!-- tree 18 -->
          <_>
            <!-- root node -->
            <feature>
              <rects>
                <_>
                  8 0 8 6 -1.</_>
                <_>
                  8 0 4 3 2.</_>
                <_>
                  12 3 4 3 2.</_></rects>
              <tilted>0</tilted></feature>
            <threshold>-1.3740209862589836e-002</threshold>
            <left_val>6.1807847023010254e-001</left_val>
            <right_val>-5.0660040229558945e-002</right_val></_></_>
        <_>
          <!-- tree 19 -->
          <_>
            <!-- root node -->
            <feature>
              <rects>
                <_>
                  21 4 2 1 -1.</_>
                <_>
                  21 4 1 1 2.</_></rects>
              <tilted>0</tilted></feature>
            <threshold>-2.2977670596446842e-005</threshold>
            <left_val>-1.4493989944458008e-001</left_val>
            <right_val>9.1673448681831360e-002</right_val></_></_>
        <_>
          <!-- tree 20 -->
          <_>
            <!-- root node -->
            <feature>
              <rects>
                <_>
                  11 4 2 1 -1.</_>
                <_>
                  12 4 1 1 2.</_></rects>
              <tilted>0</tilted></feature>
            <threshold>-5.9635360230458900e-005</threshold>
            <left_val>-3.2561910152435303e-001</left_val>
            <right_val>1.0253769904375076e-001</right_val></_></_>
        <_>
          <!-- tree 21 -->
          <_>
            <!-- root node -->
            <feature>
              <rects>
                <_>
                  11 0 12 5 -1.</_>
                <_>
                  15 0 4 5 3.</_></rects>
              <tilted>0</tilted></feature>
            <threshold>-1.8599509494379163e-003</threshold>
            <left_val>1.2433169782161713e-001</left_val>
            <right_val>-2.6890888810157776e-001</right_val></_></_>
        <_>
          <!-- tree 22 -->
          <_>
            <!-- root node -->
            <feature>
              <rects>
                <_>
                  3 28 1 2 -1.</_>
                <_>
                  3 29 1 1 2.</_></rects>
              <tilted>0</tilted></feature>
            <threshold>-1.2173700270068366e-005</threshold>
            <left_val>1.7102189362049103e-001</left_val>
            <right_val>-1.8595960736274719e-001</right_val></_></_>
        <_>
          <!-- tree 23 -->
          <_>
            <!-- root node -->
            <feature>
              <rects>
                <_>
                  12 14 13 3 -1.</_>
                <_>
                  12 15 13 1 3.</_></rects>
              <tilted>0</tilted></feature>
            <threshold>1.3779340079054236e-003</threshold>
            <left_val>-1.1908479779958725e-001</left_val>
            <right_val>2.0457309484481812e-001</right_val></_></_>
        <_>
          <!-- tree 24 -->
          <_>
            <!-- root node -->
            <feature>
              <rects>
                <_>
                  8 12 13 3 -1.</_>
                <_>
                  8 13 13 1 3.</_></rects>
              <tilted>0</tilted></feature>
            <threshold>2.4662530049681664e-003</threshold>
            <left_val>-1.0437349975109100e-001</left_val>
            <right_val>3.0322769284248352e-001</right_val></_></_>
        <_>
          <!-- tree 25 -->
          <_>
            <!-- root node -->
            <feature>
              <rects>
                <_>
                  18 26 1 2 -1.</_>
                <_>
                  18 27 1 1 2.</_></rects>
              <tilted>0</tilted></feature>
            <threshold>1.3398829651123378e-005</threshold>
            <left_val>-2.3121400177478790e-001</left_val>
            <right_val>1.3644519448280334e-001</right_val></_></_>
        <_>
          <!-- tree 26 -->
          <_>
            <!-- root node -->
            <feature>
              <rects>
                <_>
                  12 15 6 3 -1.</_>
                <_>
                  12 16 6 1 3.</_></rects>
              <tilted>0</tilted></feature>
            <threshold>9.7323639784008265e-004</threshold>
            <left_val>-1.1774960160255432e-001</left_val>
            <right_val>2.3815870285034180e-001</right_val></_></_>
        <_>
          <!-- tree 27 -->
          <_>
            <!-- root node -->
            <feature>
              <rects>
                <_>
                  16 16 4 2 -1.</_>
                <_>
                  16 17 4 1 2.</_></rects>
              <tilted>0</tilted></feature>
            <threshold>2.9549159808084369e-004</threshold>
            <left_val>-7.8957229852676392e-002</left_val>
            <right_val>1.7498479783535004e-001</right_val></_></_>
        <_>
          <!-- tree 28 -->
          <_>
            <!-- root node -->
            <feature>
              <rects>
                <_>
                  12 15 10 6 -1.</_>
                <_>
                  12 15 5 3 2.</_>
                <_>
                  17 18 5 3 2.</_></rects>
              <tilted>0</tilted></feature>
            <threshold>7.9189464449882507e-003</threshold>
            <left_val>4.8177551478147507e-002</left_val>
            <right_val>-5.8600348234176636e-001</right_val></_></_>
        <_>
          <!-- tree 29 -->
          <_>
            <!-- root node -->
            <feature>
              <rects>
                <_>
                  11 4 19 12 -1.</_>
                <_>
                  11 10 19 6 2.</_></rects>
              <tilted>0</tilted></feature>
            <threshold>9.1970093548297882e-002</threshold>
            <left_val>2.2738160565495491e-002</left_val>
            <right_val>-5.0624448060989380e-001</right_val></_></_>
        <_>
          <!-- tree 30 -->
          <_>
            <!-- root node -->
            <feature>
              <rects>
                <_>
                  4 4 19 12 -1.</_>
                <_>
                  4 10 19 6 2.</_></rects>
              <tilted>0</tilted></feature>
            <threshold>-2.5978580117225647e-002</threshold>
            <left_val>-6.4974772930145264e-001</left_val>
            <right_val>4.2866919189691544e-002</right_val></_></_>
        <_>
          <!-- tree 31 -->
          <_>
            <!-- root node -->
            <feature>
              <rects>
                <_>
                  16 6 9 9 -1.</_>
                <_>
                  19 6 3 9 3.</_></rects>
              <tilted>0</tilted></feature>
            <threshold>1.7747640376910567e-003</threshold>
            <left_val>-8.1049717962741852e-002</left_val>
            <right_val>1.7349499464035034e-001</right_val></_></_>
        <_>
          <!-- tree 32 -->
          <_>
            <!-- root node -->
            <feature>
              <rects>
                <_>
                  10 16 10 5 -1.</_>
                <_>
                  15 16 5 5 2.</_></rects>
              <tilted>0</tilted></feature>
            <threshold>-1.2644910020753741e-003</threshold>
            <left_val>1.2104099988937378e-001</left_val>
            <right_val>-2.4089279770851135e-001</right_val></_></_>
        <_>
          <!-- tree 33 -->
          <_>
            <!-- root node -->
            <feature>
              <rects>
                <_>
                  19 5 12 19 -1.</_>
                <_>
                  23 5 4 19 3.</_></rects>
              <tilted>0</tilted></feature>
            <threshold>-4.5129489153623581e-002</threshold>
            <left_val>2.4126589298248291e-001</left_val>
            <right_val>-8.5255838930606842e-002</right_val></_></_>
        <_>
          <!-- tree 34 -->
          <_>
            <!-- root node -->
            <feature>
              <rects>
                <_>
                  0 18 21 16 -1.</_>
                <_>
                  0 26 21 8 2.</_></rects>
              <tilted>0</tilted></feature>
            <threshold>1.2760910391807556e-001</threshold>
            <left_val>-1.0968460142612457e-001</left_val>
            <right_val>2.6573029160499573e-001</right_val></_></_>
        <_>
          <!-- tree 35 -->
          <_>
            <!-- root node -->
            <feature>
              <rects>
                <_>
                  28 21 4 8 -1.</_>
                <_>
                  28 25 4 4 2.</_></rects>
              <tilted>0</tilted></feature>
            <threshold>-4.6598850749433041e-003</threshold>
            <left_val>2.4503119289875031e-001</left_val>
            <right_val>-8.7184622883796692e-002</right_val></_></_>
        <_>
          <!-- tree 36 -->
          <_>
            <!-- root node -->
            <feature>
              <rects>
                <_>
                  2 21 4 8 -1.</_>
                <_>
                  2 25 4 4 2.</_></rects>
              <tilted>0</tilted></feature>
            <threshold>-8.5768979042768478e-003</threshold>
            <left_val>4.3545371294021606e-001</left_val>
            <right_val>-7.7559992671012878e-002</right_val></_></_>
        <_>
          <!-- tree 37 -->
          <_>
            <!-- root node -->
            <feature>
              <rects>
                <_>
                  24 7 6 8 -1.</_>
                <_>
                  26 7 2 8 3.</_></rects>
              <tilted>0</tilted></feature>
            <threshold>8.6485464125871658e-003</threshold>
            <left_val>-3.0091999098658562e-002</left_val>
            <right_val>1.5489779412746429e-001</right_val></_></_>
        <_>
          <!-- tree 38 -->
          <_>
            <!-- root node -->
            <feature>
              <rects>
                <_>
                  12 5 1 2 -1.</_>
                <_>
                  12 6 1 1 2.</_></rects>
              <tilted>0</tilted></feature>
            <threshold>-2.9166340027586557e-005</threshold>
            <left_val>-3.7251800298690796e-001</left_val>
            <right_val>7.6047062873840332e-002</right_val></_></_>
        <_>
          <!-- tree 39 -->
          <_>
            <!-- root node -->
            <feature>
              <rects>
                <_>
                  20 5 2 3 -1.</_>
                <_>
                  20 6 2 1 3.</_></rects>
              <tilted>0</tilted></feature>
            <threshold>4.2496230889810249e-005</threshold>
            <left_val>9.9873267114162445e-002</left_val>
            <right_val>-2.6753538846969604e-001</right_val></_></_>
        <_>
          <!-- tree 40 -->
          <_>
            <!-- root node -->
            <feature>
              <rects>
                <_>
                  4 7 6 8 -1.</_>
                <_>
                  6 7 2 8 3.</_></rects>
              <tilted>0</tilted></feature>
            <threshold>-1.0951640084385872e-002</threshold>
            <left_val>3.7696030735969543e-001</left_val>
            <right_val>-7.4753142893314362e-002</right_val></_></_>
        <_>
          <!-- tree 41 -->
          <_>
            <!-- root node -->
            <feature>
              <rects>
                <_>
                  22 22 12 8 -1.</_>
                <_>
                  28 22 6 4 2.</_>
                <_>
                  22 26 6 4 2.</_></rects>
              <tilted>0</tilted></feature>
            <threshold>-1.1234099976718426e-002</threshold>
            <left_val>3.5826209187507629e-001</left_val>
            <right_val>-9.0946182608604431e-002</right_val></_></_>
        <_>
          <!-- tree 42 -->
          <_>
            <!-- root node -->
            <feature>
              <rects>
                <_>
                  10 12 3 15 -1.</_>
                <_>
                  11 12 1 15 3.</_></rects>
              <tilted>0</tilted></feature>
            <threshold>-1.7488220473751426e-003</threshold>
            <left_val>2.4406249821186066e-001</left_val>
            <right_val>-1.0310500115156174e-001</right_val></_></_>
        <_>
          <!-- tree 43 -->
          <_>
            <!-- root node -->
            <feature>
              <rects>
                <_>
                  26 25 8 2 -1.</_>
                <_>
                  30 25 4 1 2.</_>
                <_>
                  26 26 4 1 2.</_></rects>
              <tilted>0</tilted></feature>
            <threshold>5.9619778767228127e-004</threshold>
            <left_val>-7.2906397283077240e-002</left_val>
            <right_val>1.5229199826717377e-001</right_val></_></_>
        <_>
          <!-- tree 44 -->
          <_>
            <!-- root node -->
            <feature>
              <rects>
                <_>
                  5 29 4 3 -1.</_>
                <_>
                  7 29 2 3 2.</_></rects>
              <tilted>0</tilted></feature>
            <threshold>1.1987820034846663e-003</threshold>
            <left_val>8.1588916480541229e-002</left_val>
            <right_val>-3.1541401147842407e-001</right_val></_></_>
        <_>
          <!-- tree 45 -->
          <_>
            <!-- root node -->
            <feature>
              <rects>
                <_>
                  22 22 2 2 -1.</_>
                <_>
                  22 22 1 2 2.</_></rects>
              <tilted>0</tilted></feature>
            <threshold>7.5396586908027530e-005</threshold>
            <left_val>-5.8236170560121536e-002</left_val>
            <right_val>1.1409600079059601e-001</right_val></_></_>
        <_>
          <!-- tree 46 -->
          <_>
            <!-- root node -->
            <feature>
              <rects>
                <_>
                  10 22 2 2 -1.</_>
                <_>
                  11 22 1 2 2.</_></rects>
              <tilted>0</tilted></feature>
            <threshold>2.0869440049864352e-004</threshold>
            <left_val>-1.0029319673776627e-001</left_val>
            <right_val>2.5752058625221252e-001</right_val></_></_>
        <_>
          <!-- tree 47 -->
          <_>
            <!-- root node -->
            <feature>
              <rects>
                <_>
                  19 16 15 18 -1.</_>
                <_>
                  24 16 5 18 3.</_></rects>
              <tilted>0</tilted></feature>
            <threshold>3.9291840046644211e-002</threshold>
            <left_val>-8.6238563060760498e-002</left_val>
            <right_val>1.5375439822673798e-001</right_val></_></_>
        <_>
          <!-- tree 48 -->
          <_>
            <!-- root node -->
            <feature>
              <rects>
                <_>
                  15 24 2 4 -1.</_>
                <_>
                  16 24 1 4 2.</_></rects>
              <tilted>0</tilted></feature>
            <threshold>-9.9887978285551071e-004</threshold>
            <left_val>-4.4166928529739380e-001</left_val>
            <right_val>6.3864171504974365e-002</right_val></_></_>
        <_>
          <!-- tree 49 -->
          <_>
            <!-- root node -->
            <feature>
              <rects>
                <_>
                  18 23 2 4 -1.</_>
                <_>
                  18 25 2 2 2.</_></rects>
              <tilted>0</tilted></feature>
            <threshold>2.2065360099077225e-004</threshold>
            <left_val>-1.2403679639101028e-001</left_val>
            <right_val>9.2023178935050964e-002</right_val></_></_>
        <_>
          <!-- tree 50 -->
          <_>
            <!-- root node -->
            <feature>
              <rects>
                <_>
                  15 26 2 2 -1.</_>
                <_>
                  16 26 1 2 2.</_></rects>
              <tilted>0</tilted></feature>
            <threshold>-1.2165390216978267e-005</threshold>
            <left_val>1.3534590601921082e-001</left_val>
            <right_val>-2.0534980297088623e-001</right_val></_></_>
        <_>
          <!-- tree 51 -->
          <_>
            <!-- root node -->
            <feature>
              <rects>
                <_>
                  31 26 1 2 -1.</_>
                <_>
                  31 27 1 1 2.</_></rects>
              <tilted>0</tilted></feature>
            <threshold>-1.3809650226903614e-005</threshold>
            <left_val>9.0169422328472137e-002</left_val>
            <right_val>-8.1951841711997986e-002</right_val></_></_>
        <_>
          <!-- tree 52 -->
          <_>
            <!-- root node -->
            <feature>
              <rects>
                <_>
                  15 0 2 6 -1.</_>
                <_>
                  15 2 2 2 3.</_></rects>
              <tilted>0</tilted></feature>
            <threshold>-1.1722249837475829e-005</threshold>
            <left_val>6.8416863679885864e-002</left_val>
            <right_val>-3.5720369219779968e-001</right_val></_></_>
        <_>
          <!-- tree 53 -->
          <_>
            <!-- root node -->
            <feature>
              <rects>
                <_>
                  20 5 2 3 -1.</_>
                <_>
                  20 6 2 1 3.</_></rects>
              <tilted>0</tilted></feature>
            <threshold>-6.5923127112910151e-004</threshold>
            <left_val>-4.6979141235351563e-001</left_val>
            <right_val>5.6036539375782013e-002</right_val></_></_>
        <_>
          <!-- tree 54 -->
          <_>
            <!-- root node -->
            <feature>
              <rects>
                <_>
                  12 5 2 3 -1.</_>
                <_>
                  12 6 2 1 3.</_></rects>
              <tilted>0</tilted></feature>
            <threshold>3.7062440242152661e-005</threshold>
            <left_val>1.0919220000505447e-001</left_val>
            <right_val>-2.5083309412002563e-001</right_val></_></_>
        <_>
          <!-- tree 55 -->
          <_>
            <!-- root node -->
            <feature>
              <rects>
                <_>
                  16 5 9 9 -1.</_>
                <_>
                  19 5 3 9 3.</_></rects>
              <tilted>0</tilted></feature>
            <threshold>-3.8345541805028915e-002</threshold>
            <left_val>3.9449149370193481e-001</left_val>
            <right_val>-2.1699819713830948e-002</right_val></_></_>
        <_>
          <!-- tree 56 -->
          <_>
            <!-- root node -->
            <feature>
              <rects>
                <_>
                  9 5 9 9 -1.</_>
                <_>
                  12 5 3 9 3.</_></rects>
              <tilted>0</tilted></feature>
            <threshold>5.3194072097539902e-003</threshold>
            <left_val>-1.2071319669485092e-001</left_val>
            <right_val>2.2605100274085999e-001</right_val></_></_>
        <_>
          <!-- tree 57 -->
          <_>
            <!-- root node -->
            <feature>
              <rects>
                <_>
                  12 1 12 12 -1.</_>
                <_>
                  18 1 6 6 2.</_>
                <_>
                  12 7 6 6 2.</_></rects>
              <tilted>0</tilted></feature>
            <threshold>-1.0434799827635288e-002</threshold>
            <left_val>3.6169821023941040e-001</left_val>
            <right_val>-5.6112371385097504e-002</right_val></_></_>
        <_>
          <!-- tree 58 -->
          <_>
            <!-- root node -->
            <feature>
              <rects>
                <_>
                  0 20 15 14 -1.</_>
                <_>
                  5 20 5 14 3.</_></rects>
              <tilted>0</tilted></feature>
            <threshold>4.2622890323400497e-002</threshold>
            <left_val>-1.0920160263776779e-001</left_val>
            <right_val>2.2836619615554810e-001</right_val></_></_>
        <_>
          <!-- tree 59 -->
          <_>
            <!-- root node -->
            <feature>
              <rects>
                <_>
                  19 23 15 10 -1.</_>
                <_>
                  24 23 5 10 3.</_></rects>
              <tilted>0</tilted></feature>
            <threshold>-2.2250490263104439e-002</threshold>
            <left_val>1.8424509465694427e-001</left_val>
            <right_val>-5.4756268858909607e-002</right_val></_></_>
        <_>
          <!-- tree 60 -->
          <_>
            <!-- root node -->
            <feature>
              <rects>
                <_>
                  3 21 4 11 -1.</_>
                <_>
                  5 21 2 11 2.</_></rects>
              <tilted>0</tilted></feature>
            <threshold>7.8277513384819031e-003</threshold>
            <left_val>6.5396606922149658e-002</left_val>
            <right_val>-4.3647938966751099e-001</right_val></_></_>
        <_>
          <!-- tree 61 -->
          <_>
            <!-- root node -->
            <feature>
              <rects>
                <_>
                  17 4 6 1 -1.</_>
                <_>
                  19 4 2 1 3.</_></rects>
              <tilted>0</tilted></feature>
            <threshold>5.5866701586637646e-005</threshold>
            <left_val>5.5274281650781631e-002</left_val>
            <right_val>-1.9587719440460205e-001</right_val></_></_>
        <_>
          <!-- tree 62 -->
          <_>
            <!-- root node -->
            <feature>
              <rects>
                <_>
                  11 0 6 5 -1.</_>
                <_>
                  13 0 2 5 3.</_></rects>
              <tilted>0</tilted></feature>
            <threshold>-9.3770667444914579e-004</threshold>
            <left_val>1.8024809658527374e-001</left_val>
            <right_val>-1.4010800421237946e-001</right_val></_></_>
        <_>
          <!-- tree 63 -->
          <_>
            <!-- root node -->
            <feature>
              <rects>
                <_>
                  18 21 1 9 -1.</_>
                <_>
                  18 24 1 3 3.</_></rects>
              <tilted>0</tilted></feature>
            <threshold>-5.1289051771163940e-003</threshold>
            <left_val>-6.7941087484359741e-001</left_val>
            <right_val>2.0350059494376183e-002</right_val></_></_>
        <_>
          <!-- tree 64 -->
          <_>
            <!-- root node -->
            <feature>
              <rects>
                <_>
                  15 13 4 2 -1.</_>
                <_>
                  15 14 4 1 2.</_></rects>
              <tilted>0</tilted></feature>
            <threshold>4.7908708802424371e-004</threshold>
            <left_val>-1.2867780029773712e-001</left_val>
            <right_val>1.9274049997329712e-001</right_val></_></_></trees>
      <stage_threshold>-1.2973779439926147e+000</stage_threshold>
      <parent>14</parent>
      <next>-1</next></_>
    <_>
      <!-- stage 16 -->
      <trees>
        <_>
          <!-- tree 0 -->
          <_>
            <!-- root node -->
            <feature>
              <rects>
                <_>
                  11 6 12 8 -1.</_>
                <_>
                  15 6 4 8 3.</_></rects>
              <tilted>0</tilted></feature>
            <threshold>3.6605698987841606e-003</threshold>
            <left_val>-2.9724881052970886e-001</left_val>
            <right_val>2.1077330410480499e-001</right_val></_></_>
        <_>
          <!-- tree 1 -->
          <_>
            <!-- root node -->
            <feature>
              <rects>
                <_>
                  15 12 10 22 -1.</_>
                <_>
                  15 12 5 22 2.</_></rects>
              <tilted>0</tilted></feature>
            <threshold>1.5131959691643715e-002</threshold>
            <left_val>5.9204339981079102e-002</left_val>
            <right_val>-1.3259960711002350e-001</right_val></_></_>
        <_>
          <!-- tree 2 -->
          <_>
            <!-- root node -->
            <feature>
              <rects>
                <_>
                  10 7 12 27 -1.</_>
                <_>
                  16 7 6 27 2.</_></rects>
              <tilted>0</tilted></feature>
            <threshold>-2.1670149639248848e-002</threshold>
            <left_val>2.0167410373687744e-001</left_val>
            <right_val>-2.2345389425754547e-001</right_val></_></_>
        <_>
          <!-- tree 3 -->
          <_>
            <!-- root node -->
            <feature>
              <rects>
                <_>
                  15 4 6 1 -1.</_>
                <_>
                  15 4 3 1 2.</_></rects>
              <tilted>0</tilted></feature>
            <threshold>-8.3193510363344103e-005</threshold>
            <left_val>-2.8395751118659973e-001</left_val>
            <right_val>3.5010028630495071e-002</right_val></_></_>
        <_>
          <!-- tree 4 -->
          <_>
            <!-- root node -->
            <feature>
              <rects>
                <_>
                  13 4 8 1 -1.</_>
                <_>
                  17 4 4 1 2.</_></rects>
              <tilted>0</tilted></feature>
            <threshold>-9.1001609689556062e-005</threshold>
            <left_val>-2.9405570030212402e-001</left_val>
            <right_val>1.9614499807357788e-001</right_val></_></_>
        <_>
          <!-- tree 5 -->
          <_>
            <!-- root node -->
            <feature>
              <rects>
                <_>
                  15 0 10 6 -1.</_>
                <_>
                  15 2 10 2 3.</_></rects>
              <tilted>0</tilted></feature>
            <threshold>-2.6356000453233719e-003</threshold>
            <left_val>1.0854560136795044e-001</left_val>
            <right_val>-2.2435370087623596e-001</right_val></_></_>
        <_>
          <!-- tree 6 -->
          <_>
            <!-- root node -->
            <feature>
              <rects>
                <_>
                  16 25 2 2 -1.</_>
                <_>
                  16 26 2 1 2.</_></rects>
              <tilted>0</tilted></feature>
            <threshold>2.6932699256576598e-005</threshold>
            <left_val>-2.7855190634727478e-001</left_val>
            <right_val>1.3391450047492981e-001</right_val></_></_>
        <_>
          <!-- tree 7 -->
          <_>
            <!-- root node -->
            <feature>
              <rects>
                <_>
                  17 23 1 9 -1.</_>
                <_>
                  17 26 1 3 3.</_></rects>
              <tilted>0</tilted></feature>
            <threshold>-2.0259599841665477e-004</threshold>
            <left_val>1.5514689683914185e-001</left_val>
            <right_val>-2.3314890265464783e-001</right_val></_></_>
        <_>
          <!-- tree 8 -->
          <_>
            <!-- root node -->
            <feature>
              <rects>
                <_>
                  4 5 9 12 -1.</_>
                <_>
                  7 5 3 12 3.</_></rects>
              <tilted>0</tilted></feature>
            <threshold>-2.8928780928254128e-002</threshold>
            <left_val>3.2491430640220642e-001</left_val>
            <right_val>-1.2465380132198334e-001</right_val></_></_>
        <_>
          <!-- tree 9 -->
          <_>
            <!-- root node -->
            <feature>
              <rects>
                <_>
                  23 6 6 7 -1.</_>
                <_>
                  25 6 2 7 3.</_></rects>
              <tilted>0</tilted></feature>
            <threshold>-2.1202599629759789e-002</threshold>
            <left_val>5.5142998695373535e-001</left_val>
            <right_val>-1.5294279903173447e-002</right_val></_></_>
        <_>
          <!-- tree 10 -->
          <_>
            <!-- root node -->
            <feature>
              <rects>
                <_>
                  15 11 4 12 -1.</_>
                <_>
                  15 17 4 6 2.</_></rects>
              <tilted>0</tilted></feature>
            <threshold>-1.2765740044414997e-002</threshold>
            <left_val>-5.9649920463562012e-001</left_val>
            <right_val>5.3631789982318878e-002</right_val></_></_>
        <_>
          <!-- tree 11 -->
          <_>
            <!-- root node -->
            <feature>
              <rects>
                <_>
                  18 15 2 10 -1.</_>
                <_>
                  18 20 2 5 2.</_></rects>
              <tilted>0</tilted></feature>
            <threshold>-3.1755969393998384e-004</threshold>
            <left_val>1.0751230269670486e-001</left_val>
            <right_val>-1.8003630638122559e-001</right_val></_></_>
        <_>
          <!-- tree 12 -->
          <_>
            <!-- root node -->
            <feature>
              <rects>
                <_>
                  8 4 18 1 -1.</_>
                <_>
                  14 4 6 1 3.</_></rects>
              <tilted>0</tilted></feature>
            <threshold>-7.5027061393484473e-004</threshold>
            <left_val>1.1081050336360931e-001</left_val>
            <right_val>-2.6741528511047363e-001</right_val></_></_>
        <_>
          <!-- tree 13 -->
          <_>
            <!-- root node -->
            <feature>
              <rects>
                <_>
                  21 4 1 2 -1.</_>
                <_>
                  21 5 1 1 2.</_></rects>
              <tilted>0</tilted></feature>
            <threshold>-2.0577579562086612e-005</threshold>
            <left_val>-2.2077240049839020e-001</left_val>
            <right_val>9.1124437749385834e-002</right_val></_></_>
        <_>
          <!-- tree 14 -->
          <_>
            <!-- root node -->
            <feature>
              <rects>
                <_>
                  14 15 5 14 -1.</_>
                <_>
                  14 22 5 7 2.</_></rects>
              <tilted>0</tilted></feature>
            <threshold>-1.6475509852170944e-002</threshold>
            <left_val>-5.4852467775344849e-001</left_val>
            <right_val>5.9473279863595963e-002</right_val></_></_>
        <_>
          <!-- tree 15 -->
          <_>
            <!-- root node -->
            <feature>
              <rects>
                <_>
                  12 24 15 10 -1.</_>
                <_>
                  17 24 5 10 3.</_></rects>
              <tilted>0</tilted></feature>
            <threshold>-7.3333382606506348e-002</threshold>
            <left_val>-6.5366309881210327e-001</left_val>
            <right_val>2.3164149373769760e-002</right_val></_></_>
        <_>
          <!-- tree 16 -->
          <_>
            <!-- root node -->
            <feature>
              <rects>
                <_>
                  12 4 1 2 -1.</_>
                <_>
                  12 5 1 1 2.</_></rects>
              <tilted>0</tilted></feature>
            <threshold>-2.0632340238080360e-005</threshold>
            <left_val>-3.2490670680999756e-001</left_val>
            <right_val>8.9077442884445190e-002</right_val></_></_>
        <_>
          <!-- tree 17 -->
          <_>
            <!-- root node -->
            <feature>
              <rects>
                <_>
                  11 3 12 4 -1.</_>
                <_>
                  11 5 12 2 2.</_></rects>
              <tilted>0</tilted></feature>
            <threshold>-5.3392432164400816e-004</threshold>
            <left_val>2.6866111159324646e-001</left_val>
            <right_val>-1.1446979641914368e-001</right_val></_></_>
        <_>
          <!-- tree 18 -->
          <_>
            <!-- root node -->
            <feature>
              <rects>
                <_>
                  9 3 15 8 -1.</_>
                <_>
                  14 3 5 8 3.</_></rects>
              <tilted>0</tilted></feature>
            <threshold>1.9526159390807152e-002</threshold>
            <left_val>-1.1103499680757523e-001</left_val>
            <right_val>3.2025578618049622e-001</right_val></_></_>
        <_>
          <!-- tree 19 -->
          <_>
            <!-- root node -->
            <feature>
              <rects>
                <_>
                  16 0 5 22 -1.</_>
                <_>
                  16 11 5 11 2.</_></rects>
              <tilted>0</tilted></feature>
            <threshold>-1.4568139798939228e-002</threshold>
            <left_val>-6.1767029762268066e-001</left_val>
            <right_val>3.3935349434614182e-002</right_val></_></_>
        <_>
          <!-- tree 20 -->
          <_>
            <!-- root node -->
            <feature>
              <rects>
                <_>
                  0 18 15 13 -1.</_>
                <_>
                  5 18 5 13 3.</_></rects>
              <tilted>0</tilted></feature>
            <threshold>2.9841709882020950e-002</threshold>
            <left_val>-1.5691049396991730e-001</left_val>
            <right_val>2.1145759522914886e-001</right_val></_></_>
        <_>
          <!-- tree 21 -->
          <_>
            <!-- root node -->
            <feature>
              <rects>
                <_>
                  19 22 8 1 -1.</_>
                <_>
                  19 22 4 1 2.</_></rects>
              <tilted>0</tilted></feature>
            <threshold>6.9488759618252516e-004</threshold>
            <left_val>-5.8781981468200684e-002</left_val>
            <right_val>1.6951209306716919e-001</right_val></_></_>
        <_>
          <!-- tree 22 -->
          <_>
            <!-- root node -->
            <feature>
              <rects>
                <_>
                  3 0 8 1 -1.</_>
                <_>
                  7 0 4 1 2.</_></rects>
              <tilted>0</tilted></feature>
            <threshold>-8.9314457727596164e-004</threshold>
            <left_val>-2.8372308611869812e-001</left_val>
            <right_val>1.0348600149154663e-001</right_val></_></_>
        <_>
          <!-- tree 23 -->
          <_>
            <!-- root node -->
            <feature>
              <rects>
                <_>
                  32 30 2 2 -1.</_>
                <_>
                  32 31 2 1 2.</_></rects>
              <tilted>0</tilted></feature>
            <threshold>-2.8977639885852113e-005</threshold>
            <left_val>1.6711349785327911e-001</left_val>
            <right_val>-1.6644069552421570e-001</right_val></_></_>
        <_>
          <!-- tree 24 -->
          <_>
            <!-- root node -->
            <feature>
              <rects>
                <_>
                  2 15 22 4 -1.</_>
                <_>
                  2 17 22 2 2.</_></rects>
              <tilted>0</tilted></feature>
            <threshold>-2.8715759981423616e-003</threshold>
            <left_val>1.9790209829807281e-001</left_val>
            <right_val>-1.4343270659446716e-001</right_val></_></_>
        <_>
          <!-- tree 25 -->
          <_>
            <!-- root node -->
            <feature>
              <rects>
                <_>
                  19 14 3 12 -1.</_>
                <_>
                  19 18 3 4 3.</_></rects>
              <tilted>0</tilted></feature>
            <threshold>1.2504730373620987e-002</threshold>
            <left_val>1.8360350281000137e-002</left_val>
            <right_val>-4.5991888642311096e-001</right_val></_></_>
        <_>
          <!-- tree 26 -->
          <_>
            <!-- root node -->
            <feature>
              <rects>
                <_>
                  15 17 1 8 -1.</_>
                <_>
                  15 21 1 4 2.</_></rects>
              <tilted>0</tilted></feature>
            <threshold>1.8253820016980171e-003</threshold>
            <left_val>3.9902150630950928e-002</left_val>
            <right_val>-6.6295707225799561e-001</right_val></_></_>
        <_>
          <!-- tree 27 -->
          <_>
            <!-- root node -->
            <feature>
              <rects>
                <_>
                  23 16 2 8 -1.</_>
                <_>
                  24 16 1 4 2.</_>
                <_>
                  23 20 1 4 2.</_></rects>
              <tilted>0</tilted></feature>
            <threshold>-2.4821779225021601e-003</threshold>
            <left_val>2.7901908755302429e-001</left_val>
            <right_val>-3.9372999221086502e-002</right_val></_></_>
        <_>
          <!-- tree 28 -->
          <_>
            <!-- root node -->
            <feature>
              <rects>
                <_>
                  9 16 2 8 -1.</_>
                <_>
                  9 16 1 4 2.</_>
                <_>
                  10 20 1 4 2.</_></rects>
              <tilted>0</tilted></feature>
            <threshold>1.2727070134133101e-003</threshold>
            <left_val>-8.4658347070217133e-002</left_val>
            <right_val>3.4589138627052307e-001</right_val></_></_>
        <_>
          <!-- tree 29 -->
          <_>
            <!-- root node -->
            <feature>
              <rects>
                <_>
                  17 22 3 4 -1.</_>
                <_>
                  18 22 1 4 3.</_></rects>
              <tilted>0</tilted></feature>
            <threshold>1.1994329979643226e-003</threshold>
            <left_val>4.3109610676765442e-002</left_val>
            <right_val>-5.7892972230911255e-001</right_val></_></_>
        <_>
          <!-- tree 30 -->
          <_>
            <!-- root node -->
            <feature>
              <rects>
                <_>
                  0 28 34 5 -1.</_>
                <_>
                  17 28 17 5 2.</_></rects>
              <tilted>0</tilted></feature>
            <threshold>-4.4432479888200760e-002</threshold>
            <left_val>-3.3528238534927368e-001</left_val>
            <right_val>8.2043029367923737e-002</right_val></_></_>
        <_>
          <!-- tree 31 -->
          <_>
            <!-- root node -->
            <feature>
              <rects>
                <_>
                  27 4 6 4 -1.</_>
                <_>
                  27 4 3 4 2.</_></rects>
              <tilted>0</tilted></feature>
            <threshold>-1.5597069868817925e-003</threshold>
            <left_val>-1.1558090150356293e-001</left_val>
            <right_val>6.5702691674232483e-002</right_val></_></_>
        <_>
          <!-- tree 32 -->
          <_>
            <!-- root node -->
            <feature>
              <rects>
                <_>
                  0 30 2 2 -1.</_>
                <_>
                  0 31 2 1 2.</_></rects>
              <tilted>0</tilted></feature>
            <threshold>-1.2469479770516045e-005</threshold>
            <left_val>1.4066299796104431e-001</left_val>
            <right_val>-1.8525500595569611e-001</right_val></_></_>
        <_>
          <!-- tree 33 -->
          <_>
            <!-- root node -->
            <feature>
              <rects>
                <_>
                  26 28 8 6 -1.</_>
                <_>
                  26 31 8 3 2.</_></rects>
              <tilted>0</tilted></feature>
            <threshold>-1.5389019623398781e-002</threshold>
            <left_val>-4.0707349777221680e-001</left_val>
            <right_val>3.5241920500993729e-002</right_val></_></_>
        <_>
          <!-- tree 34 -->
          <_>
            <!-- root node -->
            <feature>
              <rects>
                <_>
                  13 12 5 6 -1.</_>
                <_>
                  13 14 5 2 3.</_></rects>
              <tilted>0</tilted></feature>
            <threshold>-1.9324229797348380e-003</threshold>
            <left_val>2.4728000164031982e-001</left_val>
            <right_val>-1.0947500169277191e-001</right_val></_></_>
        <_>
          <!-- tree 35 -->
          <_>
            <!-- root node -->
            <feature>
              <rects>
                <_>
                  28 1 6 7 -1.</_>
                <_>
                  28 1 3 7 2.</_></rects>
              <tilted>0</tilted></feature>
            <threshold>1.6034940490499139e-003</threshold>
            <left_val>5.9333879500627518e-002</left_val>
            <right_val>-1.3583089411258698e-001</right_val></_></_>
        <_>
          <!-- tree 36 -->
          <_>
            <!-- root node -->
            <feature>
              <rects>
                <_>
                  12 14 7 4 -1.</_>
                <_>
                  12 16 7 2 2.</_></rects>
              <tilted>0</tilted></feature>
            <threshold>-2.6560500264167786e-003</threshold>
            <left_val>2.5180360674858093e-001</left_val>
            <right_val>-1.1455439776182175e-001</right_val></_></_>
        <_>
          <!-- tree 37 -->
          <_>
            <!-- root node -->
            <feature>
              <rects>
                <_>
                  18 6 4 2 -1.</_>
                <_>
                  18 6 2 2 2.</_></rects>
              <tilted>0</tilted></feature>
            <threshold>-5.4632109822705388e-005</threshold>
            <left_val>-2.5208589434623718e-001</left_val>
            <right_val>9.5068268477916718e-002</right_val></_></_>
        <_>
          <!-- tree 38 -->
          <_>
            <!-- root node -->
            <feature>
              <rects>
                <_>
                  12 6 4 2 -1.</_>
                <_>
                  14 6 2 2 2.</_></rects>
              <tilted>0</tilted></feature>
            <threshold>1.2826839520130306e-004</threshold>
            <left_val>1.3191750645637512e-001</left_val>
            <right_val>-2.5149971246719360e-001</right_val></_></_>
        <_>
          <!-- tree 39 -->
          <_>
            <!-- root node -->
            <feature>
              <rects>
                <_>
                  16 13 8 5 -1.</_>
                <_>
                  16 13 4 5 2.</_></rects>
              <tilted>0</tilted></feature>
            <threshold>2.0578719675540924e-002</threshold>
            <left_val>1.4952559955418110e-002</left_val>
            <right_val>-6.4113491773605347e-001</right_val></_></_>
        <_>
          <!-- tree 40 -->
          <_>
            <!-- root node -->
            <feature>
              <rects>
                <_>
                  7 22 8 1 -1.</_>
                <_>
                  11 22 4 1 2.</_></rects>
              <tilted>0</tilted></feature>
            <threshold>6.0399941867217422e-004</threshold>
            <left_val>-1.2626190483570099e-001</left_val>
            <right_val>2.4828779697418213e-001</right_val></_></_>
        <_>
          <!-- tree 41 -->
          <_>
            <!-- root node -->
            <feature>
              <rects>
                <_>
                  9 3 18 1 -1.</_>
                <_>
                  15 3 6 1 3.</_></rects>
              <tilted>0</tilted></feature>
            <threshold>-4.6310079051181674e-004</threshold>
            <left_val>6.9664962589740753e-002</left_val>
            <right_val>-2.5694599747657776e-001</right_val></_></_>
        <_>
          <!-- tree 42 -->
          <_>
            <!-- root node -->
            <feature>
              <rects>
                <_>
                  10 13 8 5 -1.</_>
                <_>
                  14 13 4 5 2.</_></rects>
              <tilted>0</tilted></feature>
            <threshold>-1.2737260200083256e-002</threshold>
            <left_val>-6.0886269807815552e-001</left_val>
            <right_val>4.5463159680366516e-002</right_val></_></_>
        <_>
          <!-- tree 43 -->
          <_>
            <!-- root node -->
            <feature>
              <rects>
                <_>
                  16 31 14 2 -1.</_>
                <_>
                  16 31 7 2 2.</_></rects>
              <tilted>0</tilted></feature>
            <threshold>2.4914609268307686e-002</threshold>
            <left_val>-1.7529740929603577e-002</left_val>
            <right_val>3.1894209980964661e-001</right_val></_></_>
        <_>
          <!-- tree 44 -->
          <_>
            <!-- root node -->
            <feature>
              <rects>
                <_>
                  4 31 14 2 -1.</_>
                <_>
                  11 31 7 2 2.</_></rects>
              <tilted>0</tilted></feature>
            <threshold>-4.7344667837023735e-003</threshold>
            <left_val>2.2570540010929108e-001</left_val>
            <right_val>-1.2657800316810608e-001</right_val></_></_>
        <_>
          <!-- tree 45 -->
          <_>
            <!-- root node -->
            <feature>
              <rects>
                <_>
                  16 21 16 10 -1.</_>
                <_>
                  24 21 8 5 2.</_>
                <_>
                  16 26 8 5 2.</_></rects>
              <tilted>0</tilted></feature>
            <threshold>2.1758109331130981e-002</threshold>
            <left_val>-8.1803202629089355e-002</left_val>
            <right_val>1.7657859623432159e-001</right_val></_></_>
        <_>
          <!-- tree 46 -->
          <_>
            <!-- root node -->
            <feature>
              <rects>
                <_>
                  4 27 2 6 -1.</_>
                <_>
                  4 30 2 3 2.</_></rects>
              <tilted>0</tilted></feature>
            <threshold>3.8237680564634502e-004</threshold>
            <left_val>1.0516089946031570e-001</left_val>
            <right_val>-2.5714790821075439e-001</right_val></_></_>
        <_>
          <!-- tree 47 -->
          <_>
            <!-- root node -->
            <feature>
              <rects>
                <_>
                  19 28 1 4 -1.</_>
                <_>
                  19 30 1 2 2.</_></rects>
              <tilted>0</tilted></feature>
            <threshold>1.4033300431037787e-005</threshold>
            <left_val>-2.2943070530891418e-001</left_val>
            <right_val>1.0212060064077377e-001</right_val></_></_>
        <_>
          <!-- tree 48 -->
          <_>
            <!-- root node -->
            <feature>
              <rects>
                <_>
                  4 24 1 9 -1.</_>
                <_>
                  4 27 1 3 3.</_></rects>
              <tilted>0</tilted></feature>
            <threshold>-1.1061960321967490e-005</threshold>
            <left_val>1.8435209989547729e-001</left_val>
            <right_val>-1.6095450520515442e-001</right_val></_></_>
        <_>
          <!-- tree 49 -->
          <_>
            <!-- root node -->
            <feature>
              <rects>
                <_>
                  28 25 1 4 -1.</_>
                <_>
                  28 27 1 2 2.</_></rects>
              <tilted>0</tilted></feature>
            <threshold>3.7275128997862339e-003</threshold>
            <left_val>-1.8168320879340172e-002</left_val>
            <right_val>6.1853897571563721e-001</right_val></_></_>
        <_>
          <!-- tree 50 -->
          <_>
            <!-- root node -->
            <feature>
              <rects>
                <_>
                  2 21 5 9 -1.</_>
                <_>
                  2 24 5 3 3.</_></rects>
              <tilted>0</tilted></feature>
            <threshold>-1.7984079197049141e-002</threshold>
            <left_val>4.7402310371398926e-001</left_val>
            <right_val>-5.3298261016607285e-002</right_val></_></_>
        <_>
          <!-- tree 51 -->
          <_>
            <!-- root node -->
            <feature>
              <rects>
                <_>
                  1 13 32 16 -1.</_>
                <_>
                  1 21 32 8 2.</_></rects>
              <tilted>0</tilted></feature>
            <threshold>1.9424979388713837e-001</threshold>
            <left_val>-5.5444419384002686e-002</left_val>
            <right_val>4.6070700883865356e-001</right_val></_></_>
        <_>
          <!-- tree 52 -->
          <_>
            <!-- root node -->
            <feature>
              <rects>
                <_>
                  10 4 5 24 -1.</_>
                <_>
                  10 12 5 8 3.</_></rects>
              <tilted>0</tilted></feature>
            <threshold>-1.4663989655673504e-002</threshold>
            <left_val>-3.8300710916519165e-001</left_val>
            <right_val>7.3459260165691376e-002</right_val></_></_>
        <_>
          <!-- tree 53 -->
          <_>
            <!-- root node -->
            <feature>
              <rects>
                <_>
                  17 22 1 2 -1.</_>
                <_>
                  17 23 1 1 2.</_></rects>
              <tilted>0</tilted></feature>
            <threshold>3.7860259908484295e-005</threshold>
            <left_val>-1.1037089675664902e-001</left_val>
            <right_val>1.4196029305458069e-001</right_val></_></_>
        <_>
          <!-- tree 54 -->
          <_>
            <!-- root node -->
            <feature>
              <rects>
                <_>
                  14 3 1 2 -1.</_>
                <_>
                  14 4 1 1 2.</_></rects>
              <tilted>0</tilted></feature>
            <threshold>-3.5900218790629879e-005</threshold>
            <left_val>-3.5394111275672913e-001</left_val>
            <right_val>7.3909260332584381e-002</right_val></_></_>
        <_>
          <!-- tree 55 -->
          <_>
            <!-- root node -->
            <feature>
              <rects>
                <_>
                  16 0 12 6 -1.</_>
                <_>
                  22 0 6 3 2.</_>
                <_>
                  16 3 6 3 2.</_></rects>
              <tilted>0</tilted></feature>
            <threshold>-1.8222680315375328e-002</threshold>
            <left_val>4.2431950569152832e-001</left_val>
            <right_val>-5.0359878689050674e-002</right_val></_></_>
        <_>
          <!-- tree 56 -->
          <_>
            <!-- root node -->
            <feature>
              <rects>
                <_>
                  14 9 3 13 -1.</_>
                <_>
                  15 9 1 13 3.</_></rects>
              <tilted>0</tilted></feature>
            <threshold>-5.8832857757806778e-004</threshold>
            <left_val>2.1226720511913300e-001</left_val>
            <right_val>-1.2098740041255951e-001</right_val></_></_>
        <_>
          <!-- tree 57 -->
          <_>
            <!-- root node -->
            <feature>
              <rects>
                <_>
                  27 2 6 6 -1.</_>
                <_>
                  27 2 3 6 2.</_></rects>
              <tilted>0</tilted></feature>
            <threshold>2.7857290115207434e-003</threshold>
            <left_val>3.6489669233560562e-002</left_val>
            <right_val>-1.4424329996109009e-001</right_val></_></_>
        <_>
          <!-- tree 58 -->
          <_>
            <!-- root node -->
            <feature>
              <rects>
                <_>
                  11 0 11 3 -1.</_>
                <_>
                  11 1 11 1 3.</_></rects>
              <tilted>0</tilted></feature>
            <threshold>-5.6561408564448357e-003</threshold>
            <left_val>3.7956258654594421e-001</left_val>
            <right_val>-6.4323477447032928e-002</right_val></_></_>
        <_>
          <!-- tree 59 -->
          <_>
            <!-- root node -->
            <feature>
              <rects>
                <_>
                  18 31 2 3 -1.</_>
                <_>
                  18 31 1 3 2.</_></rects>
              <tilted>0</tilted></feature>
            <threshold>4.3584150262176991e-003</threshold>
            <left_val>-1.0725960135459900e-002</left_val>
            <right_val>7.0721411705017090e-001</right_val></_></_>
        <_>
          <!-- tree 60 -->
          <_>
            <!-- root node -->
            <feature>
              <rects>
                <_>
                  13 30 6 3 -1.</_>
                <_>
                  16 30 3 3 2.</_></rects>
              <tilted>0</tilted></feature>
            <threshold>-6.1636260943487287e-004</threshold>
            <left_val>1.6680310666561127e-001</left_val>
            <right_val>-1.6069890558719635e-001</right_val></_></_>
        <_>
          <!-- tree 61 -->
          <_>
            <!-- root node -->
            <feature>
              <rects>
                <_>
                  16 9 5 12 -1.</_>
                <_>
                  16 15 5 6 2.</_></rects>
              <tilted>0</tilted></feature>
            <threshold>-1.0522769764065742e-002</threshold>
            <left_val>-3.5622051358222961e-001</left_val>
            <right_val>3.3457200974225998e-002</right_val></_></_>
        <_>
          <!-- tree 62 -->
          <_>
            <!-- root node -->
            <feature>
              <rects>
                <_>
                  11 12 10 6 -1.</_>
                <_>
                  11 12 5 3 2.</_>
                <_>
                  16 15 5 3 2.</_></rects>
              <tilted>0</tilted></feature>
            <threshold>1.0722490027546883e-002</threshold>
            <left_val>3.5669948905706406e-002</left_val>
            <right_val>-6.9558572769165039e-001</right_val></_></_>
        <_>
          <!-- tree 63 -->
          <_>
            <!-- root node -->
            <feature>
              <rects>
                <_>
                  19 10 2 14 -1.</_>
                <_>
                  20 10 1 7 2.</_>
                <_>
                  19 17 1 7 2.</_></rects>
              <tilted>0</tilted></feature>
            <threshold>2.9985781293362379e-004</threshold>
            <left_val>-5.0192009657621384e-002</left_val>
            <right_val>8.8464781641960144e-002</right_val></_></_>
        <_>
          <!-- tree 64 -->
          <_>
            <!-- root node -->
            <feature>
              <rects>
                <_>
                  0 26 4 2 -1.</_>
                <_>
                  0 26 2 1 2.</_>
                <_>
                  2 27 2 1 2.</_></rects>
              <tilted>0</tilted></feature>
            <threshold>-1.9808229990303516e-003</threshold>
            <left_val>5.3694087266921997e-001</left_val>
            <right_val>-4.6101361513137817e-002</right_val></_></_>
        <_>
          <!-- tree 65 -->
          <_>
            <!-- root node -->
            <feature>
              <rects>
                <_>
                  18 14 3 1 -1.</_>
                <_>
                  19 14 1 1 3.</_></rects>
              <tilted>0</tilted></feature>
            <threshold>1.8727990391198546e-004</threshold>
            <left_val>-6.0575719922780991e-002</left_val>
            <right_val>1.9638229906558990e-001</right_val></_></_>
        <_>
          <!-- tree 66 -->
          <_>
            <!-- root node -->
            <feature>
              <rects>
                <_>
                  1 3 6 5 -1.</_>
                <_>
                  4 3 3 5 2.</_></rects>
              <tilted>0</tilted></feature>
            <threshold>2.9231880325824022e-003</threshold>
            <left_val>6.9108441472053528e-002</left_val>
            <right_val>-3.2976359128952026e-001</right_val></_></_>
        <_>
          <!-- tree 67 -->
          <_>
            <!-- root node -->
            <feature>
              <rects>
                <_>
                  19 1 8 6 -1.</_>
                <_>
                  23 1 4 3 2.</_>
                <_>
                  19 4 4 3 2.</_></rects>
              <tilted>0</tilted></feature>
            <threshold>6.1814258806407452e-003</threshold>
            <left_val>-6.3738837838172913e-002</left_val>
            <right_val>1.7142930626869202e-001</right_val></_></_>
        <_>
          <!-- tree 68 -->
          <_>
            <!-- root node -->
            <feature>
              <rects>
                <_>
                  12 4 8 3 -1.</_>
                <_>
                  12 5 8 1 3.</_></rects>
              <tilted>0</tilted></feature>
            <threshold>2.0464740373427048e-005</threshold>
            <left_val>1.1228159815073013e-001</left_val>
            <right_val>-2.2280369699001312e-001</right_val></_></_>
        <_>
          <!-- tree 69 -->
          <_>
            <!-- root node -->
            <feature>
              <rects>
                <_>
                  17 5 3 21 -1.</_>
                <_>
                  18 5 1 21 3.</_></rects>
              <tilted>0</tilted></feature>
            <threshold>1.0201729834079742e-002</threshold>
            <left_val>9.0943360701203346e-003</left_val>
            <right_val>-7.0443731546401978e-001</right_val></_></_>
        <_>
          <!-- tree 70 -->
          <_>
            <!-- root node -->
            <feature>
              <rects>
                <_>
                  6 0 17 26 -1.</_>
                <_>
                  6 13 17 13 2.</_></rects>
              <tilted>0</tilted></feature>
            <threshold>2.4002629518508911e-001</threshold>
            <left_val>2.6032060384750366e-002</left_val>
            <right_val>-8.6199939250946045e-001</right_val></_></_>
        <_>
          <!-- tree 71 -->
          <_>
            <!-- root node -->
            <feature>
              <rects>
                <_>
                  18 4 1 2 -1.</_>
                <_>
                  18 5 1 1 2.</_></rects>
              <tilted>0</tilted></feature>
            <threshold>-3.8160560507094488e-005</threshold>
            <left_val>-3.9414471387863159e-001</left_val>
            <right_val>4.6871598809957504e-002</right_val></_></_>
        <_>
          <!-- tree 72 -->
          <_>
            <!-- root node -->
            <feature>
              <rects>
                <_>
                  11 2 10 6 -1.</_>
                <_>
                  11 2 5 3 2.</_>
                <_>
                  16 5 5 3 2.</_></rects>
              <tilted>0</tilted></feature>
            <threshold>-3.8896598853170872e-003</threshold>
            <left_val>2.7747881412506104e-001</left_val>
            <right_val>-8.9255526661872864e-002</right_val></_></_>
        <_>
          <!-- tree 73 -->
          <_>
            <!-- root node -->
            <feature>
              <rects>
                <_>
                  22 3 12 5 -1.</_>
                <_>
                  26 3 4 5 3.</_></rects>
              <tilted>0</tilted></feature>
            <threshold>7.8696687705814838e-004</threshold>
            <left_val>-1.3425110280513763e-001</left_val>
            <right_val>9.3168526887893677e-002</right_val></_></_>
        <_>
          <!-- tree 74 -->
          <_>
            <!-- root node -->
            <feature>
              <rects>
                <_>
                  11 4 1 2 -1.</_>
                <_>
                  11 5 1 1 2.</_></rects>
              <tilted>0</tilted></feature>
            <threshold>3.4406548365950584e-005</threshold>
            <left_val>1.1039199680089951e-001</left_val>
            <right_val>-2.4233320355415344e-001</right_val></_></_>
        <_>
          <!-- tree 75 -->
          <_>
            <!-- root node -->
            <feature>
              <rects>
                <_>
                  14 5 6 14 -1.</_>
                <_>
                  14 12 6 7 2.</_></rects>
              <tilted>0</tilted></feature>
            <threshold>-4.5723309740424156e-003</threshold>
            <left_val>3.3728879690170288e-001</left_val>
            <right_val>-8.0888032913208008e-002</right_val></_></_>
        <_>
          <!-- tree 76 -->
          <_>
            <!-- root node -->
            <feature>
              <rects>
                <_>
                  3 6 21 3 -1.</_>
                <_>
                  10 6 7 3 3.</_></rects>
              <tilted>0</tilted></feature>
            <threshold>-1.1869600042700768e-002</threshold>
            <left_val>1.9888040423393250e-001</left_val>
            <right_val>-1.3864380121231079e-001</right_val></_></_></trees>
      <stage_threshold>-1.2867929935455322e+000</stage_threshold>
      <parent>15</parent>
      <next>-1</next></_>
    <_>
      <!-- stage 17 -->
      <trees>
        <_>
          <!-- tree 0 -->
          <_>
            <!-- root node -->
            <feature>
              <rects>
                <_>
                  9 7 12 7 -1.</_>
                <_>
                  13 7 4 7 3.</_></rects>
              <tilted>0</tilted></feature>
            <threshold>2.8328730259090662e-003</threshold>
            <left_val>-3.1008571386337280e-001</left_val>
            <right_val>1.8731389939785004e-001</right_val></_></_>
        <_>
          <!-- tree 1 -->
          <_>
            <!-- root node -->
            <feature>
              <rects>
                <_>
                  17 24 2 1 -1.</_>
                <_>
                  17 24 1 1 2.</_></rects>
              <tilted>0</tilted></feature>
            <threshold>-1.7220829613506794e-004</threshold>
            <left_val>-4.3844610452651978e-001</left_val>
            <right_val>4.0549870580434799e-002</right_val></_></_>
        <_>
          <!-- tree 2 -->
          <_>
            <!-- root node -->
            <feature>
              <rects>
                <_>
                  15 24 2 1 -1.</_>
                <_>
                  16 24 1 1 2.</_></rects>
              <tilted>0</tilted></feature>
            <threshold>-1.3043720173300244e-005</threshold>
            <left_val>1.8828469514846802e-001</left_val>
            <right_val>-2.4302659928798676e-001</right_val></_></_>
        <_>
          <!-- tree 3 -->
          <_>
            <!-- root node -->
            <feature>
              <rects>
                <_>
                  16 23 14 10 -1.</_>
                <_>
                  16 23 7 10 2.</_></rects>
              <tilted>0</tilted></feature>
            <threshold>-2.6003109291195869e-002</threshold>
            <left_val>1.4560629427433014e-001</left_val>
            <right_val>-1.4906999468803406e-001</right_val></_></_>
        <_>
          <!-- tree 4 -->
          <_>
            <!-- root node -->
            <feature>
              <rects>
                <_>
                  0 29 34 5 -1.</_>
                <_>
                  17 29 17 5 2.</_></rects>
              <tilted>0</tilted></feature>
            <threshold>2.0355949178338051e-002</threshold>
            <left_val>1.2110249698162079e-001</left_val>
            <right_val>-4.3687018752098083e-001</right_val></_></_>
        <_>
          <!-- tree 5 -->
          <_>
            <!-- root node -->
            <feature>
              <rects>
                <_>
                  18 4 2 1 -1.</_>
                <_>
                  18 4 1 1 2.</_></rects>
              <tilted>0</tilted></feature>
            <threshold>-2.1012720026192255e-005</threshold>
            <left_val>-4.0965580940246582e-001</left_val>
            <right_val>8.5211053490638733e-002</right_val></_></_>
        <_>
          <!-- tree 6 -->
          <_>
            <!-- root node -->
            <feature>
              <rects>
                <_>
                  14 4 6 28 -1.</_>
                <_>
                  17 4 3 28 2.</_></rects>
              <tilted>0</tilted></feature>
            <threshold>-2.4542760103940964e-002</threshold>
            <left_val>-4.9013820290565491e-001</left_val>
            <right_val>8.2226172089576721e-002</right_val></_></_>
        <_>
          <!-- tree 7 -->
          <_>
            <!-- root node -->
            <feature>
              <rects>
                <_>
                  12 0 15 9 -1.</_>
                <_>
                  12 3 15 3 3.</_></rects>
              <tilted>0</tilted></feature>
            <threshold>-1.3395690359175205e-002</threshold>
            <left_val>9.3278609216213226e-002</left_val>
            <right_val>-2.4337449669837952e-001</right_val></_></_>
        <_>
          <!-- tree 8 -->
          <_>
            <!-- root node -->
            <feature>
              <rects>
                <_>
                  6 28 1 6 -1.</_>
                <_>
                  6 31 1 3 2.</_></rects>
              <tilted>0</tilted></feature>
            <threshold>3.0171850812621415e-004</threshold>
            <left_val>9.9934563040733337e-002</left_val>
            <right_val>-2.9482120275497437e-001</right_val></_></_>
        <_>
          <!-- tree 9 -->
          <_>
            <!-- root node -->
            <feature>
              <rects>
                <_>
                  17 2 1 2 -1.</_>
                <_>
                  17 3 1 1 2.</_></rects>
              <tilted>0</tilted></feature>
            <threshold>-2.1006109818699770e-005</threshold>
            <left_val>-2.5053930282592773e-001</left_val>
            <right_val>8.4273360669612885e-002</right_val></_></_>
        <_>
          <!-- tree 10 -->
          <_>
            <!-- root node -->
            <feature>
              <rects>
                <_>
                  11 12 7 4 -1.</_>
                <_>
                  11 14 7 2 2.</_></rects>
              <tilted>0</tilted></feature>
            <threshold>4.3270387686789036e-003</threshold>
            <left_val>-1.1645770072937012e-001</left_val>
            <right_val>2.5963041186332703e-001</right_val></_></_>
        <_>
          <!-- tree 11 -->
          <_>
            <!-- root node -->
            <feature>
              <rects>
                <_>
                  15 10 9 6 -1.</_>
                <_>
                  15 12 9 2 3.</_></rects>
              <tilted>0</tilted></feature>
            <threshold>4.6375710517168045e-003</threshold>
            <left_val>-7.4834018945693970e-002</left_val>
            <right_val>1.8483939766883850e-001</right_val></_></_>
        <_>
          <!-- tree 12 -->
          <_>
            <!-- root node -->
            <feature>
              <rects>
                <_>
                  15 28 2 6 -1.</_>
                <_>
                  15 31 2 3 2.</_></rects>
              <tilted>0</tilted></feature>
            <threshold>1.4217740390449762e-003</threshold>
            <left_val>-2.1035450696945190e-001</left_val>
            <right_val>1.5527869760990143e-001</right_val></_></_>
        <_>
          <!-- tree 13 -->
          <_>
            <!-- root node -->
            <feature>
              <rects>
                <_>
                  18 3 14 1 -1.</_>
                <_>
                  18 3 7 1 2.</_></rects>
              <tilted>0</tilted></feature>
            <threshold>-4.8970041098073125e-004</threshold>
            <left_val>6.4391531050205231e-002</left_val>
            <right_val>-2.7611699700355530e-001</right_val></_></_>
        <_>
          <!-- tree 14 -->
          <_>
            <!-- root node -->
            <feature>
              <rects>
                <_>
                  15 26 1 2 -1.</_>
                <_>
                  15 27 1 1 2.</_></rects>
              <tilted>0</tilted></feature>
            <threshold>1.3609240340883844e-005</threshold>
            <left_val>-2.4245980381965637e-001</left_val>
            <right_val>1.2551060318946838e-001</right_val></_></_>
        <_>
          <!-- tree 15 -->
          <_>
            <!-- root node -->
            <feature>
              <rects>
                <_>
                  19 3 12 2 -1.</_>
                <_>
                  19 3 6 2 2.</_></rects>
              <tilted>0</tilted></feature>
            <threshold>-1.4785300008952618e-002</threshold>
            <left_val>4.4190801680088043e-002</left_val>
            <right_val>-3.1879220157861710e-002</right_val></_></_>
        <_>
          <!-- tree 16 -->
          <_>
            <!-- root node -->
            <feature>
              <rects>
                <_>
                  3 3 12 2 -1.</_>
                <_>
                  9 3 6 2 2.</_></rects>
              <tilted>0</tilted></feature>
            <threshold>-1.1234000558033586e-003</threshold>
            <left_val>8.6043670773506165e-002</left_val>
            <right_val>-3.5387960076332092e-001</right_val></_></_>
        <_>
          <!-- tree 17 -->
          <_>
            <!-- root node -->
            <feature>
              <rects>
                <_>
                  20 6 6 9 -1.</_>
                <_>
                  22 6 2 9 3.</_></rects>
              <tilted>0</tilted></feature>
            <threshold>-2.0692640915513039e-002</threshold>
            <left_val>3.4991490840911865e-001</left_val>
            <right_val>-3.8617640733718872e-002</right_val></_></_>
        <_>
          <!-- tree 18 -->
          <_>
            <!-- root node -->
            <feature>
              <rects>
                <_>
                  7 6 9 8 -1.</_>
                <_>
                  10 6 3 8 3.</_></rects>
              <tilted>0</tilted></feature>
            <threshold>7.7267508022487164e-003</threshold>
            <left_val>-9.0101718902587891e-002</left_val>
            <right_val>3.2307729125022888e-001</right_val></_></_>
        <_>
          <!-- tree 19 -->
          <_>
            <!-- root node -->
            <feature>
              <rects>
                <_>
                  13 2 11 12 -1.</_>
                <_>
                  13 6 11 4 3.</_></rects>
              <tilted>0</tilted></feature>
            <threshold>-6.9243470206856728e-003</threshold>
            <left_val>1.4741879701614380e-001</left_val>
            <right_val>-1.0584100335836411e-001</right_val></_></_>
        <_>
          <!-- tree 20 -->
          <_>
            <!-- root node -->
            <feature>
              <rects>
                <_>
                  2 22 10 6 -1.</_>
                <_>
                  2 22 5 3 2.</_>
                <_>
                  7 25 5 3 2.</_></rects>
              <tilted>0</tilted></feature>
            <threshold>-1.1525110341608524e-002</threshold>
            <left_val>4.4016438722610474e-001</left_val>
            <right_val>-6.5976217389106750e-002</right_val></_></_>
        <_>
          <!-- tree 21 -->
          <_>
            <!-- root node -->
            <feature>
              <rects>
                <_>
                  17 24 12 1 -1.</_>
                <_>
                  17 24 6 1 2.</_></rects>
              <tilted>0</tilted></feature>
            <threshold>1.0327709605917335e-003</threshold>
            <left_val>-6.4118340611457825e-002</left_val>
            <right_val>2.1165999770164490e-001</right_val></_></_>
        <_>
          <!-- tree 22 -->
          <_>
            <!-- root node -->
            <feature>
              <rects>
                <_>
                  2 24 3 2 -1.</_>
                <_>
                  2 25 3 1 2.</_></rects>
              <tilted>0</tilted></feature>
            <threshold>-1.3138729627826251e-005</threshold>
            <left_val>1.8449559807777405e-001</left_val>
            <right_val>-1.5374620258808136e-001</right_val></_></_>
        <_>
          <!-- tree 23 -->
          <_>
            <!-- root node -->
            <feature>
              <rects>
                <_>
                  12 11 13 6 -1.</_>
                <_>
                  12 13 13 2 3.</_></rects>
              <tilted>0</tilted></feature>
            <threshold>-8.2596261054277420e-003</threshold>
            <left_val>2.9343301057815552e-001</left_val>
            <right_val>-7.1185790002346039e-002</right_val></_></_>
        <_>
          <!-- tree 24 -->
          <_>
            <!-- root node -->
            <feature>
              <rects>
                <_>
                  14 15 4 10 -1.</_>
                <_>
                  14 20 4 5 2.</_></rects>
              <tilted>0</tilted></feature>
            <threshold>-1.1754630133509636e-002</threshold>
            <left_val>-5.5829298496246338e-001</left_val>
            <right_val>4.7949690371751785e-002</right_val></_></_>
        <_>
          <!-- tree 25 -->
          <_>
            <!-- root node -->
            <feature>
              <rects>
                <_>
                  17 21 15 6 -1.</_>
                <_>
                  17 23 15 2 3.</_></rects>
              <tilted>0</tilted></feature>
            <threshold>-2.8833549004048109e-003</threshold>
            <left_val>8.3613000810146332e-002</left_val>
            <right_val>-6.3271947205066681e-002</right_val></_></_>
        <_>
          <!-- tree 26 -->
          <_>
            <!-- root node -->
            <feature>
              <rects>
                <_>
                  14 23 2 4 -1.</_>
                <_>
                  14 25 2 2 2.</_></rects>
              <tilted>0</tilted></feature>
            <threshold>3.0268999398685992e-004</threshold>
            <left_val>-1.7744010686874390e-001</left_val>
            <right_val>1.5739829838275909e-001</right_val></_></_>
        <_>
          <!-- tree 27 -->
          <_>
            <!-- root node -->
            <feature>
              <rects>
                <_>
                  19 3 2 1 -1.</_>
                <_>
                  19 3 1 1 2.</_></rects>
              <tilted>0</tilted></feature>
            <threshold>-2.4524579202989116e-005</threshold>
            <left_val>-2.4273270368576050e-001</left_val>
            <right_val>1.0692840069532394e-001</right_val></_></_>
        <_>
          <!-- tree 28 -->
          <_>
            <!-- root node -->
            <feature>
              <rects>
                <_>
                  15 15 3 10 -1.</_>
                <_>
                  15 20 3 5 2.</_></rects>
              <tilted>0</tilted></feature>
            <threshold>2.4261770304292440e-003</threshold>
            <left_val>6.7920878529548645e-002</left_val>
            <right_val>-3.9723259210586548e-001</right_val></_></_>
        <_>
          <!-- tree 29 -->
          <_>
            <!-- root node -->
            <feature>
              <rects>
                <_>
                  19 0 10 8 -1.</_>
                <_>
                  24 0 5 4 2.</_>
                <_>
                  19 4 5 4 2.</_></rects>
              <tilted>0</tilted></feature>
            <threshold>-1.2614320032298565e-002</threshold>
            <left_val>2.0128040015697479e-001</left_val>
            <right_val>-7.1773067116737366e-002</right_val></_></_>
        <_>
          <!-- tree 30 -->
          <_>
            <!-- root node -->
            <feature>
              <rects>
                <_>
                  11 4 1 9 -1.</_>
                <_>
                  11 7 1 3 3.</_></rects>
              <tilted>0</tilted></feature>
            <threshold>-1.3828649571223650e-005</threshold>
            <left_val>1.3990350067615509e-001</left_val>
            <right_val>-1.9003359973430634e-001</right_val></_></_>
        <_>
          <!-- tree 31 -->
          <_>
            <!-- root node -->
            <feature>
              <rects>
                <_>
                  19 3 2 1 -1.</_>
                <_>
                  19 3 1 1 2.</_></rects>
              <tilted>0</tilted></feature>
            <threshold>2.1833260689163581e-005</threshold>
            <left_val>5.4065119475126266e-002</left_val>
            <right_val>-1.7926819622516632e-001</right_val></_></_>
        <_>
          <!-- tree 32 -->
          <_>
            <!-- root node -->
            <feature>
              <rects>
                <_>
                  13 6 4 6 -1.</_>
                <_>
                  13 9 4 3 2.</_></rects>
              <tilted>0</tilted></feature>
            <threshold>-4.4060638174414635e-003</threshold>
            <left_val>4.1691020131111145e-001</left_val>
            <right_val>-7.0125468075275421e-002</right_val></_></_>
        <_>
          <!-- tree 33 -->
          <_>
            <!-- root node -->
            <feature>
              <rects>
                <_>
                  22 7 1 2 -1.</_>
                <_>
                  22 8 1 1 2.</_></rects>
              <tilted>0</tilted></feature>
            <threshold>-2.4559090888942592e-005</threshold>
            <left_val>-2.6339539885520935e-001</left_val>
            <right_val>7.6247312128543854e-002</right_val></_></_>
        <_>
          <!-- tree 34 -->
          <_>
            <!-- root node -->
            <feature>
              <rects>
                <_>
                  1 4 2 12 -1.</_>
                <_>
                  2 4 1 12 2.</_></rects>
              <tilted>0</tilted></feature>
            <threshold>-7.6503958553075790e-004</threshold>
            <left_val>-2.5619339942932129e-001</left_val>
            <right_val>1.0536210238933563e-001</right_val></_></_>
        <_>
          <!-- tree 35 -->
          <_>
            <!-- root node -->
            <feature>
              <rects>
                <_>
                  6 10 22 8 -1.</_>
                <_>
                  17 10 11 4 2.</_>
                <_>
                  6 14 11 4 2.</_></rects>
              <tilted>0</tilted></feature>
            <threshold>3.2621469348669052e-002</threshold>
            <left_val>3.6912620067596436e-002</left_val>
            <right_val>-6.8576771020889282e-001</right_val></_></_>
        <_>
          <!-- tree 36 -->
          <_>
            <!-- root node -->
            <feature>
              <rects>
                <_>
                  15 22 3 4 -1.</_>
                <_>
                  16 22 1 4 3.</_></rects>
              <tilted>0</tilted></feature>
            <threshold>-1.0777979623526335e-003</threshold>
            <left_val>-6.4791709184646606e-001</left_val>
            <right_val>3.2957881689071655e-002</right_val></_></_>
        <_>
          <!-- tree 37 -->
          <_>
            <!-- root node -->
            <feature>
              <rects>
                <_>
                  23 21 2 4 -1.</_>
                <_>
                  24 21 1 2 2.</_>
                <_>
                  23 23 1 2 2.</_></rects>
              <tilted>0</tilted></feature>
            <threshold>-1.0153800249099731e-003</threshold>
            <left_val>3.0892819166183472e-001</left_val>
            <right_val>-4.9978539347648621e-002</right_val></_></_>
        <_>
          <!-- tree 38 -->
          <_>
            <!-- root node -->
            <feature>
              <rects>
                <_>
                  9 20 2 6 -1.</_>
                <_>
                  9 20 1 3 2.</_>
                <_>
                  10 23 1 3 2.</_></rects>
              <tilted>0</tilted></feature>
            <threshold>1.3531970325857401e-003</threshold>
            <left_val>-7.0376038551330566e-002</left_val>
            <right_val>3.6862608790397644e-001</right_val></_></_>
        <_>
          <!-- tree 39 -->
          <_>
            <!-- root node -->
            <feature>
              <rects>
                <_>
                  29 29 4 4 -1.</_>
                <_>
                  31 29 2 2 2.</_>
                <_>
                  29 31 2 2 2.</_></rects>
              <tilted>0</tilted></feature>
            <threshold>4.3650218867696822e-004</threshold>
            <left_val>-7.7884651720523834e-002</left_val>
            <right_val>1.5348219871520996e-001</right_val></_></_>
        <_>
          <!-- tree 40 -->
          <_>
            <!-- root node -->
            <feature>
              <rects>
                <_>
                  12 0 6 26 -1.</_>
                <_>
                  12 13 6 13 2.</_></rects>
              <tilted>0</tilted></feature>
            <threshold>-1.5045840293169022e-002</threshold>
            <left_val>-6.2936282157897949e-001</left_val>
            <right_val>3.8681801408529282e-002</right_val></_></_>
        <_>
          <!-- tree 41 -->
          <_>
            <!-- root node -->
            <feature>
              <rects>
                <_>
                  15 0 17 9 -1.</_>
                <_>
                  15 3 17 3 3.</_></rects>
              <tilted>0</tilted></feature>
            <threshold>-5.2482709288597107e-002</threshold>
            <left_val>-2.4670189619064331e-001</left_val>
            <right_val>1.5855809673666954e-002</right_val></_></_>
        <_>
          <!-- tree 42 -->
          <_>
            <!-- root node -->
            <feature>
              <rects>
                <_>
                  2 0 19 9 -1.</_>
                <_>
                  2 3 19 3 3.</_></rects>
              <tilted>0</tilted></feature>
            <threshold>-1.6448140144348145e-002</threshold>
            <left_val>1.3858470320701599e-001</left_val>
            <right_val>-2.1120609343051910e-001</right_val></_></_>
        <_>
          <!-- tree 43 -->
          <_>
            <!-- root node -->
            <feature>
              <rects>
                <_>
                  18 28 1 2 -1.</_>
                <_>
                  18 29 1 1 2.</_></rects>
              <tilted>0</tilted></feature>
            <threshold>1.4797699805058073e-005</threshold>
            <left_val>-2.3475649952888489e-001</left_val>
            <right_val>1.2508210539817810e-001</right_val></_></_>
        <_>
          <!-- tree 44 -->
          <_>
            <!-- root node -->
            <feature>
              <rects>
                <_>
                  9 21 2 6 -1.</_>
                <_>
                  9 21 1 3 2.</_>
                <_>
                  10 24 1 3 2.</_></rects>
              <tilted>0</tilted></feature>
            <threshold>-1.0539010399952531e-003</threshold>
            <left_val>3.0738490819931030e-001</left_val>
            <right_val>-9.3290187418460846e-002</right_val></_></_>
        <_>
          <!-- tree 45 -->
          <_>
            <!-- root node -->
            <feature>
              <rects>
                <_>
                  18 1 12 6 -1.</_>
                <_>
                  24 1 6 3 2.</_>
                <_>
                  18 4 6 3 2.</_></rects>
              <tilted>0</tilted></feature>
            <threshold>9.1077629476785660e-003</threshold>
            <left_val>-4.2919080704450607e-002</left_val>
            <right_val>1.5696099400520325e-001</right_val></_></_>
        <_>
          <!-- tree 46 -->
          <_>
            <!-- root node -->
            <feature>
              <rects>
                <_>
                  11 4 1 6 -1.</_>
                <_>
                  11 6 1 2 3.</_></rects>
              <tilted>0</tilted></feature>
            <threshold>9.0064517280552536e-005</threshold>
            <left_val>9.9515616893768311e-002</left_val>
            <right_val>-2.5132390856742859e-001</right_val></_></_>
        <_>
          <!-- tree 47 -->
          <_>
            <!-- root node -->
            <feature>
              <rects>
                <_>
                  17 19 3 5 -1.</_>
                <_>
                  18 19 1 5 3.</_></rects>
              <tilted>0</tilted></feature>
            <threshold>-1.7909270245581865e-003</threshold>
            <left_val>-4.3662899732589722e-001</left_val>
            <right_val>2.6196859776973724e-002</right_val></_></_>
        <_>
          <!-- tree 48 -->
          <_>
            <!-- root node -->
            <feature>
              <rects>
                <_>
                  9 17 16 12 -1.</_>
                <_>
                  9 21 16 4 3.</_></rects>
              <tilted>0</tilted></feature>
            <threshold>-5.1014430820941925e-002</threshold>
            <left_val>-5.2694320678710938e-001</left_val>
            <right_val>4.3878711760044098e-002</right_val></_></_>
        <_>
          <!-- tree 49 -->
          <_>
            <!-- root node -->
            <feature>
              <rects>
                <_>
                  21 18 1 2 -1.</_>
                <_>
                  21 19 1 1 2.</_></rects>
              <tilted>0</tilted></feature>
            <threshold>-1.3422550182440318e-005</threshold>
            <left_val>1.2836809456348419e-001</left_val>
            <right_val>-1.3563629984855652e-001</right_val></_></_>
        <_>
          <!-- tree 50 -->
          <_>
            <!-- root node -->
            <feature>
              <rects>
                <_>
                  1 13 2 3 -1.</_>
                <_>
                  2 13 1 3 2.</_></rects>
              <tilted>0</tilted></feature>
            <threshold>3.9682380156591535e-004</threshold>
            <left_val>7.6458178460597992e-002</left_val>
            <right_val>-3.1771761178970337e-001</right_val></_></_>
        <_>
          <!-- tree 51 -->
          <_>
            <!-- root node -->
            <feature>
              <rects>
                <_>
                  22 16 2 2 -1.</_>
                <_>
                  23 16 1 1 2.</_>
                <_>
                  22 17 1 1 2.</_></rects>
              <tilted>0</tilted></feature>
            <threshold>-8.9307257439941168e-005</threshold>
            <left_val>1.1299259960651398e-001</left_val>
            <right_val>-5.2446208894252777e-002</right_val></_></_>
        <_>
          <!-- tree 52 -->
          <_>
            <!-- root node -->
            <feature>
              <rects>
                <_>
                  9 16 3 6 -1.</_>
                <_>
                  9 19 3 3 2.</_></rects>
              <tilted>0</tilted></feature>
            <threshold>-8.7576289661228657e-004</threshold>
            <left_val>1.8137469887733459e-001</left_val>
            <right_val>-1.3873000442981720e-001</right_val></_></_>
        <_>
          <!-- tree 53 -->
          <_>
            <!-- root node -->
            <feature>
              <rects>
                <_>
                  7 5 21 10 -1.</_>
                <_>
                  7 10 21 5 2.</_></rects>
              <tilted>0</tilted></feature>
            <threshold>7.1143701672554016e-002</threshold>
            <left_val>3.9861410856246948e-002</left_val>
            <right_val>-4.7337308526039124e-001</right_val></_></_>
        <_>
          <!-- tree 54 -->
          <_>
            <!-- root node -->
            <feature>
              <rects>
                <_>
                  12 16 10 9 -1.</_>
                <_>
                  12 19 10 3 3.</_></rects>
              <tilted>0</tilted></feature>
            <threshold>-2.8278220444917679e-002</threshold>
            <left_val>-8.5985499620437622e-001</left_val>
            <right_val>2.3774290457367897e-002</right_val></_></_>
        <_>
          <!-- tree 55 -->
          <_>
            <!-- root node -->
            <feature>
              <rects>
                <_>
                  22 7 2 2 -1.</_>
                <_>
                  22 7 1 2 2.</_></rects>
              <tilted>0</tilted></feature>
            <threshold>-2.1558960725087672e-005</threshold>
            <left_val>-1.9351719319820404e-001</left_val>
            <right_val>1.0744450241327286e-001</right_val></_></_>
        <_>
          <!-- tree 56 -->
          <_>
            <!-- root node -->
            <feature>
              <rects>
                <_>
                  5 25 24 5 -1.</_>
                <_>
                  17 25 12 5 2.</_></rects>
              <tilted>0</tilted></feature>
            <threshold>-6.1038978397846222e-002</threshold>
            <left_val>-6.2463831901550293e-001</left_val>
            <right_val>3.8458708673715591e-002</right_val></_></_>
        <_>
          <!-- tree 57 -->
          <_>
            <!-- root node -->
            <feature>
              <rects>
                <_>
                  19 28 2 6 -1.</_>
                <_>
                  19 28 1 6 2.</_></rects>
              <tilted>0</tilted></feature>
            <threshold>-2.0804570522159338e-003</threshold>
            <left_val>-3.9757761359214783e-001</left_val>
            <right_val>1.7789280042052269e-002</right_val></_></_>
        <_>
          <!-- tree 58 -->
          <_>
            <!-- root node -->
            <feature>
              <rects>
                <_>
                  13 28 2 6 -1.</_>
                <_>
                  14 28 1 6 2.</_></rects>
              <tilted>0</tilted></feature>
            <threshold>-1.9779370632022619e-004</threshold>
            <left_val>1.7079609632492065e-001</left_val>
            <right_val>-1.5516009926795959e-001</right_val></_></_>
        <_>
          <!-- tree 59 -->
          <_>
            <!-- root node -->
            <feature>
              <rects>
                <_>
                  19 3 4 1 -1.</_>
                <_>
                  19 3 2 1 2.</_></rects>
              <tilted>0</tilted></feature>
            <threshold>-8.2631202531047165e-005</threshold>
            <left_val>-8.6482211947441101e-002</left_val>
            <right_val>6.0328729450702667e-002</right_val></_></_>
        <_>
          <!-- tree 60 -->
          <_>
            <!-- root node -->
            <feature>
              <rects>
                <_>
                  11 2 12 8 -1.</_>
                <_>
                  11 2 6 4 2.</_>
                <_>
                  17 6 6 4 2.</_></rects>
              <tilted>0</tilted></feature>
            <threshold>-9.5310444012284279e-003</threshold>
            <left_val>2.6037490367889404e-001</left_val>
            <right_val>-1.1046379804611206e-001</right_val></_></_>
        <_>
          <!-- tree 61 -->
          <_>
            <!-- root node -->
            <feature>
              <rects>
                <_>
                  19 4 4 6 -1.</_>
                <_>
                  19 7 4 3 2.</_></rects>
              <tilted>0</tilted></feature>
            <threshold>2.0954679697751999e-002</threshold>
            <left_val>5.1672291010618210e-003</left_val>
            <right_val>-6.1991328001022339e-001</right_val></_></_>
        <_>
          <!-- tree 62 -->
          <_>
            <!-- root node -->
            <feature>
              <rects>
                <_>
                  11 4 4 6 -1.</_>
                <_>
                  11 7 4 3 2.</_></rects>
              <tilted>0</tilted></feature>
            <threshold>1.0221989941783249e-004</threshold>
            <left_val>2.5408929586410522e-001</left_val>
            <right_val>-1.3511730730533600e-001</right_val></_></_>
        <_>
          <!-- tree 63 -->
          <_>
            <!-- root node -->
            <feature>
              <rects>
                <_>
                  21 6 2 2 -1.</_>
                <_>
                  21 7 2 1 2.</_></rects>
              <tilted>0</tilted></feature>
            <threshold>-4.6810699132038280e-005</threshold>
            <left_val>-1.2412430346012115e-001</left_val>
            <right_val>4.2705710977315903e-002</right_val></_></_>
        <_>
          <!-- tree 64 -->
          <_>
            <!-- root node -->
            <feature>
              <rects>
                <_>
                  11 6 2 2 -1.</_>
                <_>
                  11 7 2 1 2.</_></rects>
              <tilted>0</tilted></feature>
            <threshold>-6.4492553065065295e-005</threshold>
            <left_val>-3.4372380375862122e-001</left_val>
            <right_val>7.1324296295642853e-002</right_val></_></_>
        <_>
          <!-- tree 65 -->
          <_>
            <!-- root node -->
            <feature>
              <rects>
                <_>
                  19 1 8 6 -1.</_>
                <_>
                  23 1 4 3 2.</_>
                <_>
                  19 4 4 3 2.</_></rects>
              <tilted>0</tilted></feature>
            <threshold>-9.4232186675071716e-003</threshold>
            <left_val>2.3017689585685730e-001</left_val>
            <right_val>-3.3153790980577469e-002</right_val></_></_>
        <_>
          <!-- tree 66 -->
          <_>
            <!-- root node -->
            <feature>
              <rects>
                <_>
                  14 0 6 3 -1.</_>
                <_>
                  14 1 6 1 3.</_></rects>
              <tilted>0</tilted></feature>
            <threshold>-1.1834569704660680e-005</threshold>
            <left_val>1.1303690075874329e-001</left_val>
            <right_val>-2.2705839574337006e-001</right_val></_></_>
        <_>
          <!-- tree 67 -->
          <_>
            <!-- root node -->
            <feature>
              <rects>
                <_>
                  16 0 12 6 -1.</_>
                <_>
                  22 0 6 3 2.</_>
                <_>
                  16 3 6 3 2.</_></rects>
              <tilted>0</tilted></feature>
            <threshold>-2.3908570408821106e-002</threshold>
            <left_val>3.0543309450149536e-001</left_val>
            <right_val>-2.0486779510974884e-002</right_val></_></_>
        <_>
          <!-- tree 68 -->
          <_>
            <!-- root node -->
            <feature>
              <rects>
                <_>
                  7 1 8 6 -1.</_>
                <_>
                  7 1 4 3 2.</_>
                <_>
                  11 4 4 3 2.</_></rects>
              <tilted>0</tilted></feature>
            <threshold>-1.0277629829943180e-002</threshold>
            <left_val>5.5036431550979614e-001</left_val>
            <right_val>-4.8693768680095673e-002</right_val></_></_>
        <_>
          <!-- tree 69 -->
          <_>
            <!-- root node -->
            <feature>
              <rects>
                <_>
                  19 3 4 1 -1.</_>
                <_>
                  19 3 2 1 2.</_></rects>
              <tilted>0</tilted></feature>
            <threshold>-4.9896759446710348e-004</threshold>
            <left_val>-9.7573891282081604e-002</left_val>
            <right_val>4.0942009538412094e-002</right_val></_></_>
        <_>
          <!-- tree 70 -->
          <_>
            <!-- root node -->
            <feature>
              <rects>
                <_>
                  11 3 4 1 -1.</_>
                <_>
                  13 3 2 1 2.</_></rects>
              <tilted>0</tilted></feature>
            <threshold>-7.8123019193299115e-005</threshold>
            <left_val>-2.1632829308509827e-001</left_val>
            <right_val>1.4045590162277222e-001</right_val></_></_>
        <_>
          <!-- tree 71 -->
          <_>
            <!-- root node -->
            <feature>
              <rects>
                <_>
                  18 12 7 3 -1.</_>
                <_>
                  18 13 7 1 3.</_></rects>
              <tilted>0</tilted></feature>
            <threshold>7.7805679757148027e-004</threshold>
            <left_val>-4.5491680502891541e-002</left_val>
            <right_val>1.0482429713010788e-001</right_val></_></_>
        <_>
          <!-- tree 72 -->
          <_>
            <!-- root node -->
            <feature>
              <rects>
                <_>
                  14 20 6 2 -1.</_>
                <_>
                  14 21 6 1 2.</_></rects>
              <tilted>0</tilted></feature>
            <threshold>2.4636299349367619e-004</threshold>
            <left_val>-1.1306259781122208e-001</left_val>
            <right_val>2.1671329438686371e-001</right_val></_></_>
        <_>
          <!-- tree 73 -->
          <_>
            <!-- root node -->
            <feature>
              <rects>
                <_>
                  14 2 12 10 -1.</_>
                <_>
                  20 2 6 5 2.</_>
                <_>
                  14 7 6 5 2.</_></rects>
              <tilted>0</tilted></feature>
            <threshold>3.5186070017516613e-003</threshold>
            <left_val>-1.8350070714950562e-001</left_val>
            <right_val>8.3380550146102905e-002</right_val></_></_>
        <_>
          <!-- tree 74 -->
          <_>
            <!-- root node -->
            <feature>
              <rects>
                <_>
                  2 0 30 12 -1.</_>
                <_>
                  2 0 15 6 2.</_>
                <_>
                  17 6 15 6 2.</_></rects>
              <tilted>0</tilted></feature>
            <threshold>-6.8130470812320709e-002</threshold>
            <left_val>-4.5121249556541443e-001</left_val>
            <right_val>6.2161289155483246e-002</right_val></_></_>
        <_>
          <!-- tree 75 -->
          <_>
            <!-- root node -->
            <feature>
              <rects>
                <_>
                  13 0 13 12 -1.</_>
                <_>
                  13 4 13 4 3.</_></rects>
              <tilted>0</tilted></feature>
            <threshold>2.8929090127348900e-002</threshold>
            <left_val>-3.3301901072263718e-002</left_val>
            <right_val>2.9517841339111328e-001</right_val></_></_>
        <_>
          <!-- tree 76 -->
          <_>
            <!-- root node -->
            <feature>
              <rects>
                <_>
                  14 8 5 2 -1.</_>
                <_>
                  14 9 5 1 2.</_></rects>
              <tilted>0</tilted></feature>
            <threshold>-2.7462459911475889e-005</threshold>
            <left_val>-2.4299100041389465e-001</left_val>
            <right_val>1.0482989996671677e-001</right_val></_></_>
        <_>
          <!-- tree 77 -->
          <_>
            <!-- root node -->
            <feature>
              <rects>
                <_>
                  18 12 7 3 -1.</_>
                <_>
                  18 13 7 1 3.</_></rects>
              <tilted>0</tilted></feature>
            <threshold>-2.2904410798219033e-005</threshold>
            <left_val>7.7631853520870209e-002</left_val>
            <right_val>-7.1859046816825867e-002</right_val></_></_>
        <_>
          <!-- tree 78 -->
          <_>
            <!-- root node -->
            <feature>
              <rects>
                <_>
                  9 12 7 3 -1.</_>
                <_>
                  9 13 7 1 3.</_></rects>
              <tilted>0</tilted></feature>
            <threshold>8.1130082253366709e-004</threshold>
            <left_val>-1.1900279670953751e-001</left_val>
            <right_val>2.2283589839935303e-001</right_val></_></_>
        <_>
          <!-- tree 79 -->
          <_>
            <!-- root node -->
            <feature>
              <rects>
                <_>
                  11 19 14 3 -1.</_>
                <_>
                  11 20 14 1 3.</_></rects>
              <tilted>0</tilted></feature>
            <threshold>1.4161249855533242e-003</threshold>
            <left_val>-7.3771737515926361e-002</left_val>
            <right_val>2.2392149269580841e-001</right_val></_></_></trees>
      <stage_threshold>-1.2956019639968872e+000</stage_threshold>
      <parent>16</parent>
      <next>-1</next></_>
    <_>
      <!-- stage 18 -->
      <trees>
        <_>
          <!-- tree 0 -->
          <_>
            <!-- root node -->
            <feature>
              <rects>
                <_>
                  13 12 8 11 -1.</_>
                <_>
                  17 12 4 11 2.</_></rects>
              <tilted>0</tilted></feature>
            <threshold>-1.2941970489919186e-003</threshold>
            <left_val>1.2405019998550415e-001</left_val>
            <right_val>-4.2429518699645996e-001</right_val></_></_>
        <_>
          <!-- tree 1 -->
          <_>
            <!-- root node -->
            <feature>
              <rects>
                <_>
                  16 0 4 18 -1.</_>
                <_>
                  16 6 4 6 3.</_></rects>
              <tilted>0</tilted></feature>
            <threshold>1.3349370099604130e-002</threshold>
            <left_val>-1.4239160716533661e-001</left_val>
            <right_val>2.6509809494018555e-001</right_val></_></_>
        <_>
          <!-- tree 2 -->
          <_>
            <!-- root node -->
            <feature>
              <rects>
                <_>
                  0 20 15 12 -1.</_>
                <_>
                  5 20 5 12 3.</_></rects>
              <tilted>0</tilted></feature>
            <threshold>3.1813260167837143e-002</threshold>
            <left_val>-1.6441990435123444e-001</left_val>
            <right_val>2.4346449971199036e-001</right_val></_></_>
        <_>
          <!-- tree 3 -->
          <_>
            <!-- root node -->
            <feature>
              <rects>
                <_>
                  7 3 20 2 -1.</_>
                <_>
                  7 4 20 1 2.</_></rects>
              <tilted>0</tilted></feature>
            <threshold>-9.4199762679636478e-004</threshold>
            <left_val>2.6942780613899231e-001</left_val>
            <right_val>-1.7910160124301910e-001</right_val></_></_>
        <_>
          <!-- tree 4 -->
          <_>
            <!-- root node -->
            <feature>
              <rects>
                <_>
                  15 26 1 4 -1.</_>
                <_>
                  15 28 1 2 2.</_></rects>
              <tilted>0</tilted></feature>
            <threshold>1.5737909416202456e-004</threshold>
            <left_val>-2.8503531217575073e-001</left_val>
            <right_val>1.1071310192346573e-001</right_val></_></_>
        <_>
          <!-- tree 5 -->
          <_>
            <!-- root node -->
            <feature>
              <rects>
                <_>
                  16 14 2 4 -1.</_>
                <_>
                  16 14 1 4 2.</_></rects>
              <tilted>0</tilted></feature>
            <threshold>-9.3060560175217688e-005</threshold>
            <left_val>2.7491039037704468e-001</left_val>
            <right_val>-1.2189140170812607e-001</right_val></_></_>
        <_>
          <!-- tree 6 -->
          <_>
            <!-- root node -->
            <feature>
              <rects>
                <_>
                  13 3 2 1 -1.</_>
                <_>
                  14 3 1 1 2.</_></rects>
              <tilted>0</tilted></feature>
            <threshold>-3.5704830224858597e-005</threshold>
            <left_val>-3.4663578867912292e-001</left_val>
            <right_val>1.0461640357971191e-001</right_val></_></_>
        <_>
          <!-- tree 7 -->
          <_>
            <!-- root node -->
            <feature>
              <rects>
                <_>
                  18 0 2 6 -1.</_>
                <_>
                  18 2 2 2 3.</_></rects>
              <tilted>0</tilted></feature>
            <threshold>-1.4011940038471948e-005</threshold>
            <left_val>3.9040360599756241e-002</left_val>
            <right_val>-3.2852208614349365e-001</right_val></_></_>
        <_>
          <!-- tree 8 -->
          <_>
            <!-- root node -->
            <feature>
              <rects>
                <_>
                  6 6 6 8 -1.</_>
                <_>
                  8 6 2 8 3.</_></rects>
              <tilted>0</tilted></feature>
            <threshold>-1.0469240136444569e-002</threshold>
            <left_val>2.9931280016899109e-001</left_val>
            <right_val>-1.0743150115013123e-001</right_val></_></_>
        <_>
          <!-- tree 9 -->
          <_>
            <!-- root node -->
            <feature>
              <rects>
                <_>
                  10 8 14 12 -1.</_>
                <_>
                  10 14 14 6 2.</_></rects>
              <tilted>0</tilted></feature>
            <threshold>-1.6816360875964165e-002</threshold>
            <left_val>-5.1047831773757935e-001</left_val>
            <right_val>8.1603802740573883e-002</right_val></_></_>
        <_>
          <!-- tree 10 -->
          <_>
            <!-- root node -->
            <feature>
              <rects>
                <_>
                  0 30 1 4 -1.</_>
                <_>
                  0 32 1 2 2.</_></rects>
              <tilted>0</tilted></feature>
            <threshold>-3.1675950594944879e-005</threshold>
            <left_val>1.4674410223960876e-001</left_val>
            <right_val>-2.0878319442272186e-001</right_val></_></_>
        <_>
          <!-- tree 11 -->
          <_>
            <!-- root node -->
            <feature>
              <rects>
                <_>
                  18 4 1 2 -1.</_>
                <_>
                  18 5 1 1 2.</_></rects>
              <tilted>0</tilted></feature>
            <threshold>-2.1678270059055649e-005</threshold>
            <left_val>-3.0812668800354004e-001</left_val>
            <right_val>1.9609130918979645e-002</right_val></_></_>
        <_>
          <!-- tree 12 -->
          <_>
            <!-- root node -->
            <feature>
              <rects>
                <_>
                  0 27 1 6 -1.</_>
                <_>
                  0 29 1 2 3.</_></rects>
              <tilted>0</tilted></feature>
            <threshold>-1.0323469905415550e-004</threshold>
            <left_val>1.9269959628582001e-001</left_val>
            <right_val>-1.4604860544204712e-001</right_val></_></_>
        <_>
          <!-- tree 13 -->
          <_>
            <!-- root node -->
            <feature>
              <rects>
                <_>
                  17 21 3 6 -1.</_>
                <_>
                  18 21 1 6 3.</_></rects>
              <tilted>0</tilted></feature>
            <threshold>-1.3714319793507457e-003</threshold>
            <left_val>-4.6813639998435974e-001</left_val>
            <right_val>5.8703679591417313e-002</right_val></_></_>
        <_>
          <!-- tree 14 -->
          <_>
            <!-- root node -->
            <feature>
              <rects>
                <_>
                  9 16 10 3 -1.</_>
                <_>
                  9 17 10 1 3.</_></rects>
              <tilted>0</tilted></feature>
            <threshold>2.1560529712587595e-003</threshold>
            <left_val>-8.7354421615600586e-002</left_val>
            <right_val>3.2648730278015137e-001</right_val></_></_>
        <_>
          <!-- tree 15 -->
          <_>
            <!-- root node -->
            <feature>
              <rects>
                <_>
                  21 0 6 10 -1.</_>
                <_>
                  24 0 3 5 2.</_>
                <_>
                  21 5 3 5 2.</_></rects>
              <tilted>0</tilted></feature>
            <threshold>-1.2242159806191921e-002</threshold>
            <left_val>2.4729590117931366e-001</left_val>
            <right_val>-5.6645710021257401e-002</right_val></_></_>
        <_>
          <!-- tree 16 -->
          <_>
            <!-- root node -->
            <feature>
              <rects>
                <_>
                  7 2 10 1 -1.</_>
                <_>
                  12 2 5 1 2.</_></rects>
              <tilted>0</tilted></feature>
            <threshold>-1.2732890354527626e-005</threshold>
            <left_val>6.8477220833301544e-002</left_val>
            <right_val>-3.8721349835395813e-001</right_val></_></_>
        <_>
          <!-- tree 17 -->
          <_>
            <!-- root node -->
            <feature>
              <rects>
                <_>
                  1 18 33 12 -1.</_>
                <_>
                  1 24 33 6 2.</_></rects>
              <tilted>0</tilted></feature>
            <threshold>1.3306050002574921e-001</threshold>
            <left_val>-8.4388732910156250e-002</left_val>
            <right_val>3.3487001061439514e-001</right_val></_></_>
        <_>
          <!-- tree 18 -->
          <_>
            <!-- root node -->
            <feature>
              <rects>
                <_>
                  5 24 12 1 -1.</_>
                <_>
                  11 24 6 1 2.</_></rects>
              <tilted>0</tilted></feature>
            <threshold>1.5602729981765151e-003</threshold>
            <left_val>-1.0113240033388138e-001</left_val>
            <right_val>3.1087771058082581e-001</right_val></_></_>
        <_>
          <!-- tree 19 -->
          <_>
            <!-- root node -->
            <feature>
              <rects>
                <_>
                  1 15 33 19 -1.</_>
                <_>
                  12 15 11 19 3.</_></rects>
              <tilted>0</tilted></feature>
            <threshold>-1.3775849342346191e-001</threshold>
            <left_val>1.5864530205726624e-001</left_val>
            <right_val>-1.6656559705734253e-001</right_val></_></_>
        <_>
          <!-- tree 20 -->
          <_>
            <!-- root node -->
            <feature>
              <rects>
                <_>
                  6 24 3 6 -1.</_>
                <_>
                  6 27 3 3 2.</_></rects>
              <tilted>0</tilted></feature>
            <threshold>4.1839489131234586e-004</threshold>
            <left_val>1.4627429842948914e-001</left_val>
            <right_val>-2.0080170035362244e-001</right_val></_></_>
        <_>
          <!-- tree 21 -->
          <_>
            <!-- root node -->
            <feature>
              <rects>
                <_>
                  27 18 7 12 -1.</_>
                <_>
                  27 22 7 4 3.</_></rects>
              <tilted>0</tilted></feature>
            <threshold>-1.7956519499421120e-002</threshold>
            <left_val>2.5113120675086975e-001</left_val>
            <right_val>-6.3144437968730927e-002</right_val></_></_>
        <_>
          <!-- tree 22 -->
          <_>
            <!-- root node -->
            <feature>
              <rects>
                <_>
                  14 21 3 6 -1.</_>
                <_>
                  15 21 1 6 3.</_></rects>
              <tilted>0</tilted></feature>
            <threshold>-1.2057039421051741e-003</threshold>
            <left_val>-4.6081811189651489e-001</left_val>
            <right_val>5.7532560080289841e-002</right_val></_></_>
        <_>
          <!-- tree 23 -->
          <_>
            <!-- root node -->
            <feature>
              <rects>
                <_>
                  14 18 7 3 -1.</_>
                <_>
                  14 19 7 1 3.</_></rects>
              <tilted>0</tilted></feature>
            <threshold>1.5903889434412122e-003</threshold>
            <left_val>-7.9394936561584473e-002</left_val>
            <right_val>3.2388231158256531e-001</right_val></_></_>
        <_>
          <!-- tree 24 -->
          <_>
            <!-- root node -->
            <feature>
              <rects>
                <_>
                  1 0 30 6 -1.</_>
                <_>
                  1 0 15 3 2.</_>
                <_>
                  16 3 15 3 2.</_></rects>
              <tilted>0</tilted></feature>
            <threshold>3.0469190329313278e-002</threshold>
            <left_val>5.4486110806465149e-002</left_val>
            <right_val>-5.3281897306442261e-001</right_val></_></_>
        <_>
          <!-- tree 25 -->
          <_>
            <!-- root node -->
            <feature>
              <rects>
                <_>
                  15 13 14 3 -1.</_>
                <_>
                  15 14 14 1 3.</_></rects>
              <tilted>0</tilted></feature>
            <threshold>1.4956230297684669e-003</threshold>
            <left_val>-7.1551412343978882e-002</left_val>
            <right_val>1.1824770271778107e-001</right_val></_></_>
        <_>
          <!-- tree 26 -->
          <_>
            <!-- root node -->
            <feature>
              <rects>
                <_>
                  14 4 6 2 -1.</_>
                <_>
                  14 4 3 1 2.</_>
                <_>
                  17 5 3 1 2.</_></rects>
              <tilted>0</tilted></feature>
            <threshold>9.8922981123905629e-005</threshold>
            <left_val>9.2383496463298798e-002</left_val>
            <right_val>-2.8028300404548645e-001</right_val></_></_>
        <_>
          <!-- tree 27 -->
          <_>
            <!-- root node -->
            <feature>
              <rects>
                <_>
                  15 11 8 3 -1.</_>
                <_>
                  15 12 8 1 3.</_></rects>
              <tilted>0</tilted></feature>
            <threshold>1.8444550223648548e-003</threshold>
            <left_val>-5.8439578860998154e-002</left_val>
            <right_val>2.0647320151329041e-001</right_val></_></_>
        <_>
          <!-- tree 28 -->
          <_>
            <!-- root node -->
            <feature>
              <rects>
                <_>
                  10 15 3 4 -1.</_>
                <_>
                  10 17 3 2 2.</_></rects>
              <tilted>0</tilted></feature>
            <threshold>-2.7483850135467947e-004</threshold>
            <left_val>1.7143709957599640e-001</left_val>
            <right_val>-1.4645390212535858e-001</right_val></_></_>
        <_>
          <!-- tree 29 -->
          <_>
            <!-- root node -->
            <feature>
              <rects>
                <_>
                  16 13 8 2 -1.</_>
                <_>
                  16 13 4 2 2.</_></rects>
              <tilted>0</tilted></feature>
            <threshold>3.2091129105538130e-004</threshold>
            <left_val>-1.4927320182323456e-001</left_val>
            <right_val>8.9769922196865082e-002</right_val></_></_>
        <_>
          <!-- tree 30 -->
          <_>
            <!-- root node -->
            <feature>
              <rects>
                <_>
                  5 17 17 3 -1.</_>
                <_>
                  5 18 17 1 3.</_></rects>
              <tilted>0</tilted></feature>
            <threshold>1.9127320265397429e-003</threshold>
            <left_val>-1.0509180277585983e-001</left_val>
            <right_val>2.5446790456771851e-001</right_val></_></_>
        <_>
          <!-- tree 31 -->
          <_>
            <!-- root node -->
            <feature>
              <rects>
                <_>
                  16 12 5 16 -1.</_>
                <_>
                  16 20 5 8 2.</_></rects>
              <tilted>0</tilted></feature>
            <threshold>-3.7079479545354843e-002</threshold>
            <left_val>-8.3955907821655273e-001</left_val>
            <right_val>1.4257330447435379e-002</right_val></_></_>
        <_>
          <!-- tree 32 -->
          <_>
            <!-- root node -->
            <feature>
              <rects>
                <_>
                  10 13 8 2 -1.</_>
                <_>
                  14 13 4 2 2.</_></rects>
              <tilted>0</tilted></feature>
            <threshold>-6.5356558188796043e-003</threshold>
            <left_val>-6.5596371889114380e-001</left_val>
            <right_val>3.4923888742923737e-002</right_val></_></_>
        <_>
          <!-- tree 33 -->
          <_>
            <!-- root node -->
            <feature>
              <rects>
                <_>
                  21 7 6 6 -1.</_>
                <_>
                  23 7 2 6 3.</_></rects>
              <tilted>0</tilted></feature>
            <threshold>2.3199140559881926e-003</threshold>
            <left_val>-5.4394379258155823e-002</left_val>
            <right_val>1.6254350543022156e-001</right_val></_></_>
        <_>
          <!-- tree 34 -->
          <_>
            <!-- root node -->
            <feature>
              <rects>
                <_>
                  7 7 6 6 -1.</_>
                <_>
                  9 7 2 6 3.</_></rects>
              <tilted>0</tilted></feature>
            <threshold>2.5733129587024450e-003</threshold>
            <left_val>-9.3791097402572632e-002</left_val>
            <right_val>2.7457511425018311e-001</right_val></_></_>
        <_>
          <!-- tree 35 -->
          <_>
            <!-- root node -->
            <feature>
              <rects>
                <_>
                  25 1 4 3 -1.</_>
                <_>
                  25 1 2 3 2.</_></rects>
              <tilted>0</tilted></feature>
            <threshold>1.2425010027072858e-005</threshold>
            <left_val>-6.0290478169918060e-002</left_val>
            <right_val>9.7302138805389404e-002</right_val></_></_>
        <_>
          <!-- tree 36 -->
          <_>
            <!-- root node -->
            <feature>
              <rects>
                <_>
                  5 0 4 4 -1.</_>
                <_>
                  7 0 2 4 2.</_></rects>
              <tilted>0</tilted></feature>
            <threshold>1.6396959545090795e-003</threshold>
            <left_val>7.0840276777744293e-002</left_val>
            <right_val>-3.6522608995437622e-001</right_val></_></_>
        <_>
          <!-- tree 37 -->
          <_>
            <!-- root node -->
            <feature>
              <rects>
                <_>
                  13 1 12 2 -1.</_>
                <_>
                  19 1 6 1 2.</_>
                <_>
                  13 2 6 1 2.</_></rects>
              <tilted>0</tilted></feature>
            <threshold>-3.9652339182794094e-003</threshold>
            <left_val>1.5872690081596375e-001</left_val>
            <right_val>-1.7730480059981346e-002</right_val></_></_>
        <_>
          <!-- tree 38 -->
          <_>
            <!-- root node -->
            <feature>
              <rects>
                <_>
                  9 1 12 2 -1.</_>
                <_>
                  9 1 6 1 2.</_>
                <_>
                  15 2 6 1 2.</_></rects>
              <tilted>0</tilted></feature>
            <threshold>3.2118029776029289e-004</threshold>
            <left_val>-1.4256219565868378e-001</left_val>
            <right_val>1.8046049773693085e-001</right_val></_></_>
        <_>
          <!-- tree 39 -->
          <_>
            <!-- root node -->
            <feature>
              <rects>
                <_>
                  17 29 3 4 -1.</_>
                <_>
                  17 31 3 2 2.</_></rects>
              <tilted>0</tilted></feature>
            <threshold>4.6194568858481944e-004</threshold>
            <left_val>-1.7133900523185730e-001</left_val>
            <right_val>1.0723000019788742e-001</right_val></_></_>
        <_>
          <!-- tree 40 -->
          <_>
            <!-- root node -->
            <feature>
              <rects>
                <_>
                  14 22 3 9 -1.</_>
                <_>
                  14 25 3 3 3.</_></rects>
              <tilted>0</tilted></feature>
            <threshold>-8.2242311909794807e-003</threshold>
            <left_val>-4.6174231171607971e-001</left_val>
            <right_val>5.2652649581432343e-002</right_val></_></_>
        <_>
          <!-- tree 41 -->
          <_>
            <!-- root node -->
            <feature>
              <rects>
                <_>
                  20 1 8 8 -1.</_>
                <_>
                  24 1 4 4 2.</_>
                <_>
                  20 5 4 4 2.</_></rects>
              <tilted>0</tilted></feature>
            <threshold>1.2260429561138153e-002</threshold>
            <left_val>-4.8412598669528961e-002</left_val>
            <right_val>2.0703789591789246e-001</right_val></_></_>
        <_>
          <!-- tree 42 -->
          <_>
            <!-- root node -->
            <feature>
              <rects>
                <_>
                  13 5 5 3 -1.</_>
                <_>
                  13 6 5 1 3.</_></rects>
              <tilted>0</tilted></feature>
            <threshold>3.5744011256610975e-005</threshold>
            <left_val>1.1985810101032257e-001</left_val>
            <right_val>-2.1935150027275085e-001</right_val></_></_>
        <_>
          <!-- tree 43 -->
          <_>
            <!-- root node -->
            <feature>
              <rects>
                <_>
                  16 6 5 14 -1.</_>
                <_>
                  16 13 5 7 2.</_></rects>
              <tilted>0</tilted></feature>
            <threshold>4.5983549207448959e-002</threshold>
            <left_val>1.5448239631950855e-002</left_val>
            <right_val>-6.8102371692657471e-001</right_val></_></_>
        <_>
          <!-- tree 44 -->
          <_>
            <!-- root node -->
            <feature>
              <rects>
                <_>
                  13 12 2 2 -1.</_>
                <_>
                  14 12 1 2 2.</_></rects>
              <tilted>0</tilted></feature>
            <threshold>-2.1210999693721533e-004</threshold>
            <left_val>2.2803249955177307e-001</left_val>
            <right_val>-1.1365679651498795e-001</right_val></_></_>
        <_>
          <!-- tree 45 -->
          <_>
            <!-- root node -->
            <feature>
              <rects>
                <_>
                  11 18 12 9 -1.</_>
                <_>
                  11 21 12 3 3.</_></rects>
              <tilted>0</tilted></feature>
            <threshold>-2.8414569795131683e-002</threshold>
            <left_val>-7.0084398984909058e-001</left_val>
            <right_val>3.9086110889911652e-002</right_val></_></_>
        <_>
          <!-- tree 46 -->
          <_>
            <!-- root node -->
            <feature>
              <rects>
                <_>
                  4 22 14 6 -1.</_>
                <_>
                  4 22 7 3 2.</_>
                <_>
                  11 25 7 3 2.</_></rects>
              <tilted>0</tilted></feature>
            <threshold>1.0087589733302593e-002</threshold>
            <left_val>-9.5383547246456146e-002</left_val>
            <right_val>3.1187629699707031e-001</right_val></_></_>
        <_>
          <!-- tree 47 -->
          <_>
            <!-- root node -->
            <feature>
              <rects>
                <_>
                  23 19 9 9 -1.</_>
                <_>
                  23 22 9 3 3.</_></rects>
              <tilted>0</tilted></feature>
            <threshold>1.3453990221023560e-002</threshold>
            <left_val>-3.8906820118427277e-002</left_val>
            <right_val>2.0449979603290558e-001</right_val></_></_>
        <_>
          <!-- tree 48 -->
          <_>
            <!-- root node -->
            <feature>
              <rects>
                <_>
                  2 19 9 9 -1.</_>
                <_>
                  2 22 9 3 3.</_></rects>
              <tilted>0</tilted></feature>
            <threshold>-5.1203938201069832e-003</threshold>
            <left_val>2.1852789819240570e-001</left_val>
            <right_val>-1.5351529419422150e-001</right_val></_></_>
        <_>
          <!-- tree 49 -->
          <_>
            <!-- root node -->
            <feature>
              <rects>
                <_>
                  30 26 1 2 -1.</_>
                <_>
                  30 27 1 1 2.</_></rects>
              <tilted>0</tilted></feature>
            <threshold>-1.3067950021650176e-005</threshold>
            <left_val>1.2048289924860001e-001</left_val>
            <right_val>-1.0702689737081528e-001</right_val></_></_>
        <_>
          <!-- tree 50 -->
          <_>
            <!-- root node -->
            <feature>
              <rects>
                <_>
                  13 16 8 4 -1.</_>
                <_>
                  17 16 4 4 2.</_></rects>
              <tilted>0</tilted></feature>
            <threshold>-8.3250962197780609e-003</threshold>
            <left_val>-4.5528939366340637e-001</left_val>
            <right_val>5.0589341670274734e-002</right_val></_></_>
        <_>
          <!-- tree 51 -->
          <_>
            <!-- root node -->
            <feature>
              <rects>
                <_>
                  15 13 9 4 -1.</_>
                <_>
                  15 15 9 2 2.</_></rects>
              <tilted>0</tilted></feature>
            <threshold>2.7518109418451786e-003</threshold>
            <left_val>-9.9718123674392700e-002</left_val>
            <right_val>1.5765319764614105e-001</right_val></_></_>
        <_>
          <!-- tree 52 -->
          <_>
            <!-- root node -->
            <feature>
              <rects>
                <_>
                  3 26 1 2 -1.</_>
                <_>
                  3 27 1 1 2.</_></rects>
              <tilted>0</tilted></feature>
            <threshold>-1.2927460375067312e-005</threshold>
            <left_val>1.5421110391616821e-001</left_val>
            <right_val>-1.5257899463176727e-001</right_val></_></_>
        <_>
          <!-- tree 53 -->
          <_>
            <!-- root node -->
            <feature>
              <rects>
                <_>
                  22 27 12 4 -1.</_>
                <_>
                  28 27 6 2 2.</_>
                <_>
                  22 29 6 2 2.</_></rects>
              <tilted>0</tilted></feature>
            <threshold>2.7552889660000801e-003</threshold>
            <left_val>-7.9755298793315887e-002</left_val>
            <right_val>1.5585550665855408e-001</right_val></_></_>
        <_>
          <!-- tree 54 -->
          <_>
            <!-- root node -->
            <feature>
              <rects>
                <_>
                  0 27 12 4 -1.</_>
                <_>
                  0 27 6 2 2.</_>
                <_>
                  6 29 6 2 2.</_></rects>
              <tilted>0</tilted></feature>
            <threshold>-7.3532909154891968e-003</threshold>
            <left_val>4.2170628905296326e-001</left_val>
            <right_val>-5.8603640645742416e-002</right_val></_></_>
        <_>
          <!-- tree 55 -->
          <_>
            <!-- root node -->
            <feature>
              <rects>
                <_>
                  16 5 10 12 -1.</_>
                <_>
                  16 9 10 4 3.</_></rects>
              <tilted>0</tilted></feature>
            <threshold>-4.2050141841173172e-002</threshold>
            <left_val>-6.0753107070922852e-001</left_val>
            <right_val>2.1703740581870079e-002</right_val></_></_>
        <_>
          <!-- tree 56 -->
          <_>
            <!-- root node -->
            <feature>
              <rects>
                <_>
                  8 5 10 12 -1.</_>
                <_>
                  8 9 10 4 3.</_></rects>
              <tilted>0</tilted></feature>
            <threshold>-5.2807768806815147e-003</threshold>
            <left_val>1.9237349927425385e-001</left_val>
            <right_val>-1.4619140326976776e-001</right_val></_></_>
        <_>
          <!-- tree 57 -->
          <_>
            <!-- root node -->
            <feature>
              <rects>
                <_>
                  17 0 3 21 -1.</_>
                <_>
                  17 7 3 7 3.</_></rects>
              <tilted>0</tilted></feature>
            <threshold>2.8282259590923786e-003</threshold>
            <left_val>-1.2165729701519012e-001</left_val>
            <right_val>1.2170030176639557e-001</right_val></_></_>
        <_>
          <!-- tree 58 -->
          <_>
            <!-- root node -->
            <feature>
              <rects>
                <_>
                  14 28 1 4 -1.</_>
                <_>
                  14 30 1 2 2.</_></rects>
              <tilted>0</tilted></feature>
            <threshold>1.3965810649096966e-004</threshold>
            <left_val>-2.0667040348052979e-001</left_val>
            <right_val>1.3185399770736694e-001</right_val></_></_>
        <_>
          <!-- tree 59 -->
          <_>
            <!-- root node -->
            <feature>
              <rects>
                <_>
                  9 21 18 1 -1.</_>
                <_>
                  15 21 6 1 3.</_></rects>
              <tilted>0</tilted></feature>
            <threshold>9.7517267568036914e-004</threshold>
            <left_val>-7.4808292090892792e-002</left_val>
            <right_val>1.8801860511302948e-001</right_val></_></_>
        <_>
          <!-- tree 60 -->
          <_>
            <!-- root node -->
            <feature>
              <rects>
                <_>
                  0 28 28 6 -1.</_>
                <_>
                  0 28 14 3 2.</_>
                <_>
                  14 31 14 3 2.</_></rects>
              <tilted>0</tilted></feature>
            <threshold>3.3507760614156723e-002</threshold>
            <left_val>5.3941521793603897e-002</left_val>
            <right_val>-4.6027609705924988e-001</right_val></_></_>
        <_>
          <!-- tree 61 -->
          <_>
            <!-- root node -->
            <feature>
              <rects>
                <_>
                  31 30 3 2 -1.</_>
                <_>
                  31 31 3 1 2.</_></rects>
              <tilted>0</tilted></feature>
            <threshold>3.7618749774992466e-003</threshold>
            <left_val>-1.6283260658383369e-002</left_val>
            <right_val>6.1710858345031738e-001</right_val></_></_>
        <_>
          <!-- tree 62 -->
          <_>
            <!-- root node -->
            <feature>
              <rects>
                <_>
                  0 30 3 2 -1.</_>
                <_>
                  0 31 3 1 2.</_></rects>
              <tilted>0</tilted></feature>
            <threshold>-1.2616549611266237e-005</threshold>
            <left_val>1.4355570077896118e-001</left_val>
            <right_val>-1.9421750307083130e-001</right_val></_></_>
        <_>
          <!-- tree 63 -->
          <_>
            <!-- root node -->
            <feature>
              <rects>
                <_>
                  14 2 11 2 -1.</_>
                <_>
                  14 3 11 1 2.</_></rects>
              <tilted>0</tilted></feature>
            <threshold>4.2566971387714148e-005</threshold>
            <left_val>6.8489260971546173e-002</left_val>
            <right_val>-2.3152470588684082e-001</right_val></_></_>
        <_>
          <!-- tree 64 -->
          <_>
            <!-- root node -->
            <feature>
              <rects>
                <_>
                  7 8 3 9 -1.</_>
                <_>
                  8 8 1 9 3.</_></rects>
              <tilted>0</tilted></feature>
            <threshold>3.0143880285322666e-003</threshold>
            <left_val>-6.5052799880504608e-002</left_val>
            <right_val>3.7209498882293701e-001</right_val></_></_>
        <_>
          <!-- tree 65 -->
          <_>
            <!-- root node -->
            <feature>
              <rects>
                <_>
                  22 6 2 3 -1.</_>
                <_>
                  22 6 1 3 2.</_></rects>
              <tilted>0</tilted></feature>
            <threshold>-3.9366899727610871e-005</threshold>
            <left_val>-1.6861930489540100e-001</left_val>
            <right_val>9.3542888760566711e-002</right_val></_></_>
        <_>
          <!-- tree 66 -->
          <_>
            <!-- root node -->
            <feature>
              <rects>
                <_>
                  10 6 2 3 -1.</_>
                <_>
                  11 6 1 3 2.</_></rects>
              <tilted>0</tilted></feature>
            <threshold>-7.5249801739118993e-005</threshold>
            <left_val>-2.4741120636463165e-001</left_val>
            <right_val>1.0161630064249039e-001</right_val></_></_>
        <_>
          <!-- tree 67 -->
          <_>
            <!-- root node -->
            <feature>
              <rects>
                <_>
                  11 4 13 4 -1.</_>
                <_>
                  11 6 13 2 2.</_></rects>
              <tilted>0</tilted></feature>
            <threshold>-4.6744919382035732e-004</threshold>
            <left_val>2.4561700224876404e-001</left_val>
            <right_val>-7.0522077381610870e-002</right_val></_></_>
        <_>
          <!-- tree 68 -->
          <_>
            <!-- root node -->
            <feature>
              <rects>
                <_>
                  8 10 18 6 -1.</_>
                <_>
                  8 10 9 3 2.</_>
                <_>
                  17 13 9 3 2.</_></rects>
              <tilted>0</tilted></feature>
            <threshold>-1.5808930620551109e-002</threshold>
            <left_val>-5.4316490888595581e-001</left_val>
            <right_val>4.8970889300107956e-002</right_val></_></_>
        <_>
          <!-- tree 69 -->
          <_>
            <!-- root node -->
            <feature>
              <rects>
                <_>
                  23 5 3 28 -1.</_>
                <_>
                  24 5 1 28 3.</_></rects>
              <tilted>0</tilted></feature>
            <threshold>-4.2992047965526581e-003</threshold>
            <left_val>1.9331890344619751e-001</left_val>
            <right_val>-6.1883978545665741e-002</right_val></_></_>
        <_>
          <!-- tree 70 -->
          <_>
            <!-- root node -->
            <feature>
              <rects>
                <_>
                  14 28 2 1 -1.</_>
                <_>
                  15 28 1 1 2.</_></rects>
              <tilted>0</tilted></feature>
            <threshold>-1.3034409676038194e-005</threshold>
            <left_val>1.2901639938354492e-001</left_val>
            <right_val>-1.7783249914646149e-001</right_val></_></_>
        <_>
          <!-- tree 71 -->
          <_>
            <!-- root node -->
            <feature>
              <rects>
                <_>
                  16 6 2 26 -1.</_>
                <_>
                  17 6 1 13 2.</_>
                <_>
                  16 19 1 13 2.</_></rects>
              <tilted>0</tilted></feature>
            <threshold>-5.6481978390365839e-004</threshold>
            <left_val>1.8076199293136597e-001</left_val>
            <right_val>-1.2623469531536102e-001</right_val></_></_>
        <_>
          <!-- tree 72 -->
          <_>
            <!-- root node -->
            <feature>
              <rects>
                <_>
                  15 18 3 8 -1.</_>
                <_>
                  16 18 1 8 3.</_></rects>
              <tilted>0</tilted></feature>
            <threshold>-1.4619400026276708e-003</threshold>
            <left_val>-5.0047230720520020e-001</left_val>
            <right_val>4.9289319664239883e-002</right_val></_></_>
        <_>
          <!-- tree 73 -->
          <_>
            <!-- root node -->
            <feature>
              <rects>
                <_>
                  13 20 8 3 -1.</_>
                <_>
                  13 20 4 3 2.</_></rects>
              <tilted>0</tilted></feature>
            <threshold>1.6974459867924452e-003</threshold>
            <left_val>-1.5178300440311432e-001</left_val>
            <right_val>1.5372429788112640e-001</right_val></_></_>
        <_>
          <!-- tree 74 -->
          <_>
            <!-- root node -->
            <feature>
              <rects>
                <_>
                  5 3 24 24 -1.</_>
                <_>
                  17 3 12 24 2.</_></rects>
              <tilted>0</tilted></feature>
            <threshold>5.8550339192152023e-002</threshold>
            <left_val>-8.6888812482357025e-002</left_val>
            <right_val>3.0363819003105164e-001</right_val></_></_>
        <_>
          <!-- tree 75 -->
          <_>
            <!-- root node -->
            <feature>
              <rects>
                <_>
                  23 5 3 28 -1.</_>
                <_>
                  24 5 1 28 3.</_></rects>
              <tilted>0</tilted></feature>
            <threshold>-1.7825609073042870e-002</threshold>
            <left_val>-5.1841372251510620e-001</left_val>
            <right_val>1.7543999478220940e-002</right_val></_></_>
        <_>
          <!-- tree 76 -->
          <_>
            <!-- root node -->
            <feature>
              <rects>
                <_>
                  8 5 3 28 -1.</_>
                <_>
                  9 5 1 28 3.</_></rects>
              <tilted>0</tilted></feature>
            <threshold>2.8372379019856453e-003</threshold>
            <left_val>-1.0195960104465485e-001</left_val>
            <right_val>2.5254589319229126e-001</right_val></_></_></trees>
      <stage_threshold>-1.2544020414352417e+000</stage_threshold>
      <parent>17</parent>
      <next>-1</next></_>
    <_>
      <!-- stage 19 -->
      <trees>
        <_>
          <!-- tree 0 -->
          <_>
            <!-- root node -->
            <feature>
              <rects>
                <_>
                  11 13 10 6 -1.</_>
                <_>
                  16 13 5 6 2.</_></rects>
              <tilted>0</tilted></feature>
            <threshold>-1.2780049291905016e-004</threshold>
            <left_val>1.2115760147571564e-001</left_val>
            <right_val>-4.2722320556640625e-001</right_val></_></_>
        <_>
          <!-- tree 1 -->
          <_>
            <!-- root node -->
            <feature>
              <rects>
                <_>
                  4 23 27 11 -1.</_>
                <_>
                  13 23 9 11 3.</_></rects>
              <tilted>0</tilted></feature>
            <threshold>-1.1843640357255936e-001</threshold>
            <left_val>2.7480980753898621e-001</left_val>
            <right_val>-1.6058109700679779e-001</right_val></_></_>
        <_>
          <!-- tree 2 -->
          <_>
            <!-- root node -->
            <feature>
              <rects>
                <_>
                  10 5 12 13 -1.</_>
                <_>
                  14 5 4 13 3.</_></rects>
              <tilted>0</tilted></feature>
            <threshold>9.8748703021556139e-004</threshold>
            <left_val>-3.0615821480751038e-001</left_val>
            <right_val>1.3089789450168610e-001</right_val></_></_>
        <_>
          <!-- tree 3 -->
          <_>
            <!-- root node -->
            <feature>
              <rects>
                <_>
                  14 3 6 1 -1.</_>
                <_>
                  14 3 3 1 2.</_></rects>
              <tilted>0</tilted></feature>
            <threshold>8.0354562669526786e-005</threshold>
            <left_val>1.3650630414485931e-001</left_val>
            <right_val>-3.0638128519058228e-001</right_val></_></_>
        <_>
          <!-- tree 4 -->
          <_>
            <!-- root node -->
            <feature>
              <rects>
                <_>
                  15 3 4 1 -1.</_>
                <_>
                  17 3 2 1 2.</_></rects>
              <tilted>0</tilted></feature>
            <threshold>2.1624740838888101e-005</threshold>
            <left_val>1.3618020713329315e-001</left_val>
            <right_val>-2.6820179820060730e-001</right_val></_></_>
        <_>
          <!-- tree 5 -->
          <_>
            <!-- root node -->
            <feature>
              <rects>
                <_>
                  16 0 9 6 -1.</_>
                <_>
                  16 2 9 2 3.</_></rects>
              <tilted>0</tilted></feature>
            <threshold>-3.8625649176537991e-003</threshold>
            <left_val>1.0763979703187943e-001</left_val>
            <right_val>-1.8714900314807892e-001</right_val></_></_>
        <_>
          <!-- tree 6 -->
          <_>
            <!-- root node -->
            <feature>
              <rects>
                <_>
                  14 22 4 4 -1.</_>
                <_>
                  16 22 2 4 2.</_></rects>
              <tilted>0</tilted></feature>
            <threshold>-5.7504861615598202e-004</threshold>
            <left_val>1.5507569909095764e-001</left_val>
            <right_val>-2.0753830671310425e-001</right_val></_></_>
        <_>
          <!-- tree 7 -->
          <_>
            <!-- root node -->
            <feature>
              <rects>
                <_>
                  8 5 18 1 -1.</_>
                <_>
                  14 5 6 1 3.</_></rects>
              <tilted>0</tilted></feature>
            <threshold>-1.1038279626518488e-003</threshold>
            <left_val>1.4578479528427124e-001</left_val>
            <right_val>-2.3001830279827118e-001</right_val></_></_>
        <_>
          <!-- tree 8 -->
          <_>
            <!-- root node -->
            <feature>
              <rects>
                <_>
                  13 15 2 15 -1.</_>
                <_>
                  13 20 2 5 3.</_></rects>
              <tilted>0</tilted></feature>
            <threshold>3.8034799508750439e-003</threshold>
            <left_val>9.6769176423549652e-002</left_val>
            <right_val>-4.6851721405982971e-001</right_val></_></_>
        <_>
          <!-- tree 9 -->
          <_>
            <!-- root node -->
            <feature>
              <rects>
                <_>
                  17 7 3 6 -1.</_>
                <_>
                  17 10 3 3 2.</_></rects>
              <tilted>0</tilted></feature>
            <threshold>-3.9313961751759052e-003</threshold>
            <left_val>2.8706431388854980e-001</left_val>
            <right_val>-6.7511841654777527e-002</right_val></_></_>
        <_>
          <!-- tree 10 -->
          <_>
            <!-- root node -->
            <feature>
              <rects>
                <_>
                  13 14 8 5 -1.</_>
                <_>
                  17 14 4 5 2.</_></rects>
              <tilted>0</tilted></feature>
            <threshold>-6.3051069155335426e-003</threshold>
            <left_val>-3.1497129797935486e-001</left_val>
            <right_val>8.5884898900985718e-002</right_val></_></_>
        <_>
          <!-- tree 11 -->
          <_>
            <!-- root node -->
            <feature>
              <rects>
                <_>
                  13 15 10 3 -1.</_>
                <_>
                  13 16 10 1 3.</_></rects>
              <tilted>0</tilted></feature>
            <threshold>2.0419750362634659e-003</threshold>
            <left_val>-7.5088910758495331e-002</left_val>
            <right_val>2.4324780702590942e-001</right_val></_></_>
        <_>
          <!-- tree 12 -->
          <_>
            <!-- root node -->
            <feature>
              <rects>
                <_>
                  7 8 12 5 -1.</_>
                <_>
                  11 8 4 5 3.</_></rects>
              <tilted>0</tilted></feature>
            <threshold>4.0963129140436649e-003</threshold>
            <left_val>-1.4929719269275665e-001</left_val>
            <right_val>1.7212380468845367e-001</right_val></_></_>
        <_>
          <!-- tree 13 -->
          <_>
            <!-- root node -->
            <feature>
              <rects>
                <_>
                  20 1 12 8 -1.</_>
                <_>
                  26 1 6 4 2.</_>
                <_>
                  20 5 6 4 2.</_></rects>
              <tilted>0</tilted></feature>
            <threshold>-3.6815360654145479e-003</threshold>
            <left_val>1.6754969954490662e-001</left_val>
            <right_val>-1.2880580127239227e-001</right_val></_></_>
        <_>
          <!-- tree 14 -->
          <_>
            <!-- root node -->
            <feature>
              <rects>
                <_>
                  13 5 1 4 -1.</_>
                <_>
                  13 7 1 2 2.</_></rects>
              <tilted>0</tilted></feature>
            <threshold>3.5316399589646608e-005</threshold>
            <left_val>1.9122299551963806e-001</left_val>
            <right_val>-1.5678340196609497e-001</right_val></_></_>
        <_>
          <!-- tree 15 -->
          <_>
            <!-- root node -->
            <feature>
              <rects>
                <_>
                  20 5 1 2 -1.</_>
                <_>
                  20 6 1 1 2.</_></rects>
              <tilted>0</tilted></feature>
            <threshold>-1.9978770069428720e-005</threshold>
            <left_val>-3.3570331335067749e-001</left_val>
            <right_val>9.7584396600723267e-002</right_val></_></_>
        <_>
          <!-- tree 16 -->
          <_>
            <!-- root node -->
            <feature>
              <rects>
                <_>
                  5 14 16 3 -1.</_>
                <_>
                  5 15 16 1 3.</_></rects>
              <tilted>0</tilted></feature>
            <threshold>2.1620630286633968e-003</threshold>
            <left_val>-1.2366410344839096e-001</left_val>
            <right_val>2.3238129913806915e-001</right_val></_></_>
        <_>
          <!-- tree 17 -->
          <_>
            <!-- root node -->
            <feature>
              <rects>
                <_>
                  18 1 7 6 -1.</_>
                <_>
                  18 3 7 2 3.</_></rects>
              <tilted>0</tilted></feature>
            <threshold>-1.6816450282931328e-002</threshold>
            <left_val>-4.2068558931350708e-001</left_val>
            <right_val>2.2128019481897354e-002</right_val></_></_>
        <_>
          <!-- tree 18 -->
          <_>
            <!-- root node -->
            <feature>
              <rects>
                <_>
                  9 1 7 6 -1.</_>
                <_>
                  9 3 7 2 3.</_></rects>
              <tilted>0</tilted></feature>
            <threshold>-1.4921110414434224e-004</threshold>
            <left_val>7.6986536383628845e-002</left_val>
            <right_val>-3.4214949607849121e-001</right_val></_></_>
        <_>
          <!-- tree 19 -->
          <_>
            <!-- root node -->
            <feature>
              <rects>
                <_>
                  12 13 13 6 -1.</_>
                <_>
                  12 15 13 2 3.</_></rects>
              <tilted>0</tilted></feature>
            <threshold>-3.9388281293213367e-003</threshold>
            <left_val>2.3494890332221985e-001</left_val>
            <right_val>-8.5993647575378418e-002</right_val></_></_>
        <_>
          <!-- tree 20 -->
          <_>
            <!-- root node -->
            <feature>
              <rects>
                <_>
                  0 18 34 14 -1.</_>
                <_>
                  0 25 34 7 2.</_></rects>
              <tilted>0</tilted></feature>
            <threshold>1.7708669602870941e-001</threshold>
            <left_val>-8.9164309203624725e-002</left_val>
            <right_val>2.9473420977592468e-001</right_val></_></_>
        <_>
          <!-- tree 21 -->
          <_>
            <!-- root node -->
            <feature>
              <rects>
                <_>
                  18 7 14 15 -1.</_>
                <_>
                  18 7 7 15 2.</_></rects>
              <tilted>0</tilted></feature>
            <threshold>-3.8419879972934723e-002</threshold>
            <left_val>1.3369399309158325e-001</left_val>
            <right_val>-1.3553559780120850e-001</right_val></_></_>
        <_>
          <!-- tree 22 -->
          <_>
            <!-- root node -->
            <feature>
              <rects>
                <_>
                  4 22 3 2 -1.</_>
                <_>
                  4 23 3 1 2.</_></rects>
              <tilted>0</tilted></feature>
            <threshold>-1.2601939670275897e-004</threshold>
            <left_val>2.1164770424365997e-001</left_val>
            <right_val>-1.2099629640579224e-001</right_val></_></_>
        <_>
          <!-- tree 23 -->
          <_>
            <!-- root node -->
            <feature>
              <rects>
                <_>
                  16 1 2 2 -1.</_>
                <_>
                  16 2 2 1 2.</_></rects>
              <tilted>0</tilted></feature>
            <threshold>-1.2961520405951887e-004</threshold>
            <left_val>-1.9868649542331696e-001</left_val>
            <right_val>1.3286189734935760e-001</right_val></_></_>
        <_>
          <!-- tree 24 -->
          <_>
            <!-- root node -->
            <feature>
              <rects>
                <_>
                  2 1 12 8 -1.</_>
                <_>
                  2 1 6 4 2.</_>
                <_>
                  8 5 6 4 2.</_></rects>
              <tilted>0</tilted></feature>
            <threshold>-8.4418598562479019e-003</threshold>
            <left_val>2.6535481214523315e-001</left_val>
            <right_val>-1.2734930217266083e-001</right_val></_></_>
        <_>
          <!-- tree 25 -->
          <_>
            <!-- root node -->
            <feature>
              <rects>
                <_>
                  16 1 9 3 -1.</_>
                <_>
                  16 2 9 1 3.</_></rects>
              <tilted>0</tilted></feature>
            <threshold>-1.3908669643569738e-005</threshold>
            <left_val>6.2458489090204239e-002</left_val>
            <right_val>-1.1444389820098877e-001</right_val></_></_>
        <_>
          <!-- tree 26 -->
          <_>
            <!-- root node -->
            <feature>
              <rects>
                <_>
                  9 1 12 10 -1.</_>
                <_>
                  9 1 6 5 2.</_>
                <_>
                  15 6 6 5 2.</_></rects>
              <tilted>0</tilted></feature>
            <threshold>-1.0622659698128700e-002</threshold>
            <left_val>3.5974359512329102e-001</left_val>
            <right_val>-7.1708276867866516e-002</right_val></_></_>
        <_>
          <!-- tree 27 -->
          <_>
            <!-- root node -->
            <feature>
              <rects>
                <_>
                  17 10 4 15 -1.</_>
                <_>
                  17 15 4 5 3.</_></rects>
              <tilted>0</tilted></feature>
            <threshold>-8.3196023479104042e-003</threshold>
            <left_val>-2.8309369087219238e-001</left_val>
            <right_val>3.5469468683004379e-002</right_val></_></_>
        <_>
          <!-- tree 28 -->
          <_>
            <!-- root node -->
            <feature>
              <rects>
                <_>
                  10 11 2 16 -1.</_>
                <_>
                  10 11 1 8 2.</_>
                <_>
                  11 19 1 8 2.</_></rects>
              <tilted>0</tilted></feature>
            <threshold>-4.6004429459571838e-003</threshold>
            <left_val>4.3405449390411377e-001</left_val>
            <right_val>-5.8598160743713379e-002</right_val></_></_>
        <_>
          <!-- tree 29 -->
          <_>
            <!-- root node -->
            <feature>
              <rects>
                <_>
                  11 27 12 5 -1.</_>
                <_>
                  15 27 4 5 3.</_></rects>
              <tilted>0</tilted></feature>
            <threshold>-2.2462250664830208e-002</threshold>
            <left_val>-5.3987592458724976e-001</left_val>
            <right_val>4.6069551259279251e-002</right_val></_></_>
        <_>
          <!-- tree 30 -->
          <_>
            <!-- root node -->
            <feature>
              <rects>
                <_>
                  4 29 3 2 -1.</_>
                <_>
                  4 30 3 1 2.</_></rects>
              <tilted>0</tilted></feature>
            <threshold>1.7203310562763363e-004</threshold>
            <left_val>8.4988616406917572e-002</left_val>
            <right_val>-2.7218970656394958e-001</right_val></_></_>
        <_>
          <!-- tree 31 -->
          <_>
            <!-- root node -->
            <feature>
              <rects>
                <_>
                  32 23 1 9 -1.</_>
                <_>
                  32 26 1 3 3.</_></rects>
              <tilted>0</tilted></feature>
            <threshold>5.2023818716406822e-003</threshold>
            <left_val>-3.7299491465091705e-002</left_val>
            <right_val>3.7507489323616028e-001</right_val></_></_>
        <_>
          <!-- tree 32 -->
          <_>
            <!-- root node -->
            <feature>
              <rects>
                <_>
                  1 23 1 9 -1.</_>
                <_>
                  1 26 1 3 3.</_></rects>
              <tilted>0</tilted></feature>
            <threshold>-3.1447180081158876e-003</threshold>
            <left_val>3.7378111481666565e-001</left_val>
            <right_val>-6.5882302820682526e-002</right_val></_></_>
        <_>
          <!-- tree 33 -->
          <_>
            <!-- root node -->
            <feature>
              <rects>
                <_>
                  28 26 2 6 -1.</_>
                <_>
                  28 28 2 2 3.</_></rects>
              <tilted>0</tilted></feature>
            <threshold>6.6344500519335270e-003</threshold>
            <left_val>-1.8362490460276604e-002</left_val>
            <right_val>4.3186441063880920e-001</right_val></_></_>
        <_>
          <!-- tree 34 -->
          <_>
            <!-- root node -->
            <feature>
              <rects>
                <_>
                  4 26 2 6 -1.</_>
                <_>
                  4 28 2 2 3.</_></rects>
              <tilted>0</tilted></feature>
            <threshold>-1.3425070392258931e-005</threshold>
            <left_val>1.6893309354782104e-001</left_val>
            <right_val>-1.6604119539260864e-001</right_val></_></_>
        <_>
          <!-- tree 35 -->
          <_>
            <!-- root node -->
            <feature>
              <rects>
                <_>
                  17 11 5 12 -1.</_>
                <_>
                  17 17 5 6 2.</_></rects>
              <tilted>0</tilted></feature>
            <threshold>2.8339590877294540e-002</threshold>
            <left_val>1.1069989763200283e-002</left_val>
            <right_val>-7.8903770446777344e-001</right_val></_></_>
        <_>
          <!-- tree 36 -->
          <_>
            <!-- root node -->
            <feature>
              <rects>
                <_>
                  12 11 5 12 -1.</_>
                <_>
                  12 17 5 6 2.</_></rects>
              <tilted>0</tilted></feature>
            <threshold>-1.5084389597177505e-002</threshold>
            <left_val>-5.3988617658615112e-001</left_val>
            <right_val>4.7363579273223877e-002</right_val></_></_>
        <_>
          <!-- tree 37 -->
          <_>
            <!-- root node -->
            <feature>
              <rects>
                <_>
                  20 5 1 2 -1.</_>
                <_>
                  20 6 1 1 2.</_></rects>
              <tilted>0</tilted></feature>
            <threshold>2.0872370441793464e-005</threshold>
            <left_val>6.2766656279563904e-002</left_val>
            <right_val>-1.1178439855575562e-001</right_val></_></_>
        <_>
          <!-- tree 38 -->
          <_>
            <!-- root node -->
            <feature>
              <rects>
                <_>
                  13 5 1 2 -1.</_>
                <_>
                  13 6 1 1 2.</_></rects>
              <tilted>0</tilted></feature>
            <threshold>-5.5969561799429357e-005</threshold>
            <left_val>-4.3580389022827148e-001</left_val>
            <right_val>6.0657039284706116e-002</right_val></_></_>
        <_>
          <!-- tree 39 -->
          <_>
            <!-- root node -->
            <feature>
              <rects>
                <_>
                  11 3 12 5 -1.</_>
                <_>
                  15 3 4 5 3.</_></rects>
              <tilted>0</tilted></feature>
            <threshold>8.2270698621869087e-003</threshold>
            <left_val>-8.6687326431274414e-002</left_val>
            <right_val>3.2024571299552917e-001</right_val></_></_>
        <_>
          <!-- tree 40 -->
          <_>
            <!-- root node -->
            <feature>
              <rects>
                <_>
                  3 4 11 2 -1.</_>
                <_>
                  3 5 11 1 2.</_></rects>
              <tilted>0</tilted></feature>
            <threshold>-1.2176080417702906e-005</threshold>
            <left_val>1.4508689939975739e-001</left_val>
            <right_val>-1.8099230527877808e-001</right_val></_></_>
        <_>
          <!-- tree 41 -->
          <_>
            <!-- root node -->
            <feature>
              <rects>
                <_>
                  20 0 1 12 -1.</_>
                <_>
                  20 4 1 4 3.</_></rects>
              <tilted>0</tilted></feature>
            <threshold>-4.5678840251639485e-004</threshold>
            <left_val>5.2975580096244812e-002</left_val>
            <right_val>-1.1960019916296005e-001</right_val></_></_>
        <_>
          <!-- tree 42 -->
          <_>
            <!-- root node -->
            <feature>
              <rects>
                <_>
                  13 0 1 12 -1.</_>
                <_>
                  13 4 1 4 3.</_></rects>
              <tilted>0</tilted></feature>
            <threshold>7.6512647792696953e-003</threshold>
            <left_val>-4.0336698293685913e-002</left_val>
            <right_val>7.1473467350006104e-001</right_val></_></_>
        <_>
          <!-- tree 43 -->
          <_>
            <!-- root node -->
            <feature>
              <rects>
                <_>
                  1 33 32 1 -1.</_>
                <_>
                  1 33 16 1 2.</_></rects>
              <tilted>0</tilted></feature>
            <threshold>4.1176139347953722e-005</threshold>
            <left_val>-2.1135890483856201e-001</left_val>
            <right_val>1.2310100346803665e-001</right_val></_></_>
        <_>
          <!-- tree 44 -->
          <_>
            <!-- root node -->
            <feature>
              <rects>
                <_>
                  12 1 10 10 -1.</_>
                <_>
                  12 1 5 5 2.</_>
                <_>
                  17 6 5 5 2.</_></rects>
              <tilted>0</tilted></feature>
            <threshold>1.2580400332808495e-002</threshold>
            <left_val>-5.4886259138584137e-002</left_val>
            <right_val>4.5444789528846741e-001</right_val></_></_>
        <_>
          <!-- tree 45 -->
          <_>
            <!-- root node -->
            <feature>
              <rects>
                <_>
                  17 1 3 11 -1.</_>
                <_>
                  18 1 1 11 3.</_></rects>
              <tilted>0</tilted></feature>
            <threshold>-2.9757670126855373e-003</threshold>
            <left_val>-6.1446052789688110e-001</left_val>
            <right_val>3.3316288143396378e-002</right_val></_></_>
        <_>
          <!-- tree 46 -->
          <_>
            <!-- root node -->
            <feature>
              <rects>
                <_>
                  5 3 7 4 -1.</_>
                <_>
                  5 5 7 2 2.</_></rects>
              <tilted>0</tilted></feature>
            <threshold>-1.1395510286092758e-002</threshold>
            <left_val>-5.9334462881088257e-001</left_val>
            <right_val>3.7112619727849960e-002</right_val></_></_>
        <_>
          <!-- tree 47 -->
          <_>
            <!-- root node -->
            <feature>
              <rects>
                <_>
                  17 9 14 19 -1.</_>
                <_>
                  17 9 7 19 2.</_></rects>
              <tilted>0</tilted></feature>
            <threshold>1.3640369474887848e-001</threshold>
            <left_val>4.2686439119279385e-003</left_val>
            <right_val>-8.7040227651596069e-001</right_val></_></_>
        <_>
          <!-- tree 48 -->
          <_>
            <!-- root node -->
            <feature>
              <rects>
                <_>
                  3 9 14 19 -1.</_>
                <_>
                  10 9 7 19 2.</_></rects>
              <tilted>0</tilted></feature>
            <threshold>-1.8259680271148682e-001</threshold>
            <left_val>-8.4967291355133057e-001</left_val>
            <right_val>2.6770420372486115e-002</right_val></_></_>
        <_>
          <!-- tree 49 -->
          <_>
            <!-- root node -->
            <feature>
              <rects>
                <_>
                  28 0 6 7 -1.</_>
                <_>
                  28 0 3 7 2.</_></rects>
              <tilted>0</tilted></feature>
            <threshold>4.5222630724310875e-003</threshold>
            <left_val>4.2651701718568802e-002</left_val>
            <right_val>-1.9667810201644897e-001</right_val></_></_>
        <_>
          <!-- tree 50 -->
          <_>
            <!-- root node -->
            <feature>
              <rects>
                <_>
                  0 0 6 7 -1.</_>
                <_>
                  3 0 3 7 2.</_></rects>
              <tilted>0</tilted></feature>
            <threshold>-4.4539747759699821e-003</threshold>
            <left_val>-2.7150571346282959e-001</left_val>
            <right_val>9.1211207211017609e-002</right_val></_></_>
        <_>
          <!-- tree 51 -->
          <_>
            <!-- root node -->
            <feature>
              <rects>
                <_>
                  30 3 4 2 -1.</_>
                <_>
                  30 3 2 2 2.</_></rects>
              <tilted>0</tilted></feature>
            <threshold>-6.5152859315276146e-004</threshold>
            <left_val>-1.6312320530414581e-001</left_val>
            <right_val>4.6561721712350845e-002</right_val></_></_>
        <_>
          <!-- tree 52 -->
          <_>
            <!-- root node -->
            <feature>
              <rects>
                <_>
                  9 17 15 9 -1.</_>
                <_>
                  9 20 15 3 3.</_></rects>
              <tilted>0</tilted></feature>
            <threshold>-3.7810821086168289e-002</threshold>
            <left_val>-7.4129468202590942e-001</left_val>
            <right_val>3.1848568469285965e-002</right_val></_></_>
        <_>
          <!-- tree 53 -->
          <_>
            <!-- root node -->
            <feature>
              <rects>
                <_>
                  20 13 2 8 -1.</_>
                <_>
                  21 13 1 4 2.</_>
                <_>
                  20 17 1 4 2.</_></rects>
              <tilted>0</tilted></feature>
            <threshold>4.6562869101762772e-004</threshold>
            <left_val>-4.6959809958934784e-002</left_val>
            <right_val>9.8567649722099304e-002</right_val></_></_>
        <_>
          <!-- tree 54 -->
          <_>
            <!-- root node -->
            <feature>
              <rects>
                <_>
                  12 13 2 8 -1.</_>
                <_>
                  12 13 1 4 2.</_>
                <_>
                  13 17 1 4 2.</_></rects>
              <tilted>0</tilted></feature>
            <threshold>2.0800399943254888e-004</threshold>
            <left_val>-1.2507280707359314e-001</left_val>
            <right_val>1.8764820694923401e-001</right_val></_></_>
        <_>
          <!-- tree 55 -->
          <_>
            <!-- root node -->
            <feature>
              <rects>
                <_>
                  7 18 21 6 -1.</_>
                <_>
                  14 18 7 6 3.</_></rects>
              <tilted>0</tilted></feature>
            <threshold>-5.1695659756660461e-002</threshold>
            <left_val>2.4717700481414795e-001</left_val>
            <right_val>-7.5303763151168823e-002</right_val></_></_>
        <_>
          <!-- tree 56 -->
          <_>
            <!-- root node -->
            <feature>
              <rects>
                <_>
                  12 30 9 4 -1.</_>
                <_>
                  15 30 3 4 3.</_></rects>
              <tilted>0</tilted></feature>
            <threshold>-1.0080670472234488e-003</threshold>
            <left_val>1.7946800589561462e-001</left_val>
            <right_val>-1.3259640336036682e-001</right_val></_></_>
        <_>
          <!-- tree 57 -->
          <_>
            <!-- root node -->
            <feature>
              <rects>
                <_>
                  18 0 3 11 -1.</_>
                <_>
                  19 0 1 11 3.</_></rects>
              <tilted>0</tilted></feature>
            <threshold>-3.2532229088246822e-003</threshold>
            <left_val>-4.4244250655174255e-001</left_val>
            <right_val>2.2713899612426758e-002</right_val></_></_>
        <_>
          <!-- tree 58 -->
          <_>
            <!-- root node -->
            <feature>
              <rects>
                <_>
                  7 31 2 2 -1.</_>
                <_>
                  8 31 1 2 2.</_></rects>
              <tilted>0</tilted></feature>
            <threshold>2.3519909882452339e-004</threshold>
            <left_val>8.0280572175979614e-002</left_val>
            <right_val>-2.8240421414375305e-001</right_val></_></_>
        <_>
          <!-- tree 59 -->
          <_>
            <!-- root node -->
            <feature>
              <rects>
                <_>
                  32 25 2 2 -1.</_>
                <_>
                  33 25 1 1 2.</_>
                <_>
                  32 26 1 1 2.</_></rects>
              <tilted>0</tilted></feature>
            <threshold>-6.1270600417628884e-004</threshold>
            <left_val>2.8968819975852966e-001</left_val>
            <right_val>-3.2795939594507217e-002</right_val></_></_>
        <_>
          <!-- tree 60 -->
          <_>
            <!-- root node -->
            <feature>
              <rects>
                <_>
                  14 21 3 3 -1.</_>
                <_>
                  15 21 1 3 3.</_></rects>
              <tilted>0</tilted></feature>
            <threshold>-1.3143649557605386e-003</threshold>
            <left_val>-6.5156447887420654e-001</left_val>
            <right_val>3.8420621305704117e-002</right_val></_></_>
        <_>
          <!-- tree 61 -->
          <_>
            <!-- root node -->
            <feature>
              <rects>
                <_>
                  16 8 2 18 -1.</_>
                <_>
                  17 8 1 9 2.</_>
                <_>
                  16 17 1 9 2.</_></rects>
              <tilted>0</tilted></feature>
            <threshold>-6.0079328250139952e-004</threshold>
            <left_val>2.0468559861183167e-001</left_val>
            <right_val>-1.1806009709835052e-001</right_val></_></_>
        <_>
          <!-- tree 62 -->
          <_>
            <!-- root node -->
            <feature>
              <rects>
                <_>
                  16 0 1 28 -1.</_>
                <_>
                  16 14 1 14 2.</_></rects>
              <tilted>0</tilted></feature>
            <threshold>-4.2487210594117641e-003</threshold>
            <left_val>-6.2014561891555786e-001</left_val>
            <right_val>4.2196970432996750e-002</right_val></_></_>
        <_>
          <!-- tree 63 -->
          <_>
            <!-- root node -->
            <feature>
              <rects>
                <_>
                  16 17 2 4 -1.</_>
                <_>
                  17 17 1 2 2.</_>
                <_>
                  16 19 1 2 2.</_></rects>
              <tilted>0</tilted></feature>
            <threshold>-2.2057880414649844e-004</threshold>
            <left_val>2.3625390231609344e-001</left_val>
            <right_val>-1.0353089869022369e-001</right_val></_></_>
        <_>
          <!-- tree 64 -->
          <_>
            <!-- root node -->
            <feature>
              <rects>
                <_>
                  15 9 3 10 -1.</_>
                <_>
                  16 9 1 10 3.</_></rects>
              <tilted>0</tilted></feature>
            <threshold>-3.8417210453189909e-004</threshold>
            <left_val>2.0528340339660645e-001</left_val>
            <right_val>-1.2412019819021225e-001</right_val></_></_>
        <_>
          <!-- tree 65 -->
          <_>
            <!-- root node -->
            <feature>
              <rects>
                <_>
                  16 20 3 3 -1.</_>
                <_>
                  17 20 1 3 3.</_></rects>
              <tilted>0</tilted></feature>
            <threshold>-1.1357240146026015e-003</threshold>
            <left_val>-7.2873687744140625e-001</left_val>
            <right_val>4.1726328432559967e-002</right_val></_></_>
        <_>
          <!-- tree 66 -->
          <_>
            <!-- root node -->
            <feature>
              <rects>
                <_>
                  15 20 3 3 -1.</_>
                <_>
                  16 20 1 3 3.</_></rects>
              <tilted>0</tilted></feature>
            <threshold>-1.6213620547205210e-003</threshold>
            <left_val>-8.7768888473510742e-001</left_val>
            <right_val>2.0397009328007698e-002</right_val></_></_>
        <_>
          <!-- tree 67 -->
          <_>
            <!-- root node -->
            <feature>
              <rects>
                <_>
                  19 19 6 2 -1.</_>
                <_>
                  22 19 3 1 2.</_>
                <_>
                  19 20 3 1 2.</_></rects>
              <tilted>0</tilted></feature>
            <threshold>-2.8891098918393254e-004</threshold>
            <left_val>1.0749629884958267e-001</left_val>
            <right_val>-7.3355138301849365e-002</right_val></_></_>
        <_>
          <!-- tree 68 -->
          <_>
            <!-- root node -->
            <feature>
              <rects>
                <_>
                  9 19 6 2 -1.</_>
                <_>
                  9 19 3 1 2.</_>
                <_>
                  12 20 3 1 2.</_></rects>
              <tilted>0</tilted></feature>
            <threshold>1.9734169472940266e-004</threshold>
            <left_val>-1.2135159969329834e-001</left_val>
            <right_val>1.9878670573234558e-001</right_val></_></_>
        <_>
          <!-- tree 69 -->
          <_>
            <!-- root node -->
            <feature>
              <rects>
                <_>
                  16 11 8 4 -1.</_>
                <_>
                  20 11 4 2 2.</_>
                <_>
                  16 13 4 2 2.</_></rects>
              <tilted>0</tilted></feature>
            <threshold>7.5721638277173042e-003</threshold>
            <left_val>1.8327390775084496e-002</left_val>
            <right_val>-6.0056781768798828e-001</right_val></_></_>
        <_>
          <!-- tree 70 -->
          <_>
            <!-- root node -->
            <feature>
              <rects>
                <_>
                  4 32 1 2 -1.</_>
                <_>
                  4 33 1 1 2.</_></rects>
              <tilted>0</tilted></feature>
            <threshold>4.8035970394266769e-005</threshold>
            <left_val>9.6563071012496948e-002</left_val>
            <right_val>-2.5206810235977173e-001</right_val></_></_>
        <_>
          <!-- tree 71 -->
          <_>
            <!-- root node -->
            <feature>
              <rects>
                <_>
                  24 10 3 24 -1.</_>
                <_>
                  25 10 1 24 3.</_></rects>
              <tilted>0</tilted></feature>
            <threshold>-2.9086219146847725e-003</threshold>
            <left_val>1.5551540255546570e-001</left_val>
            <right_val>-5.5308688431978226e-002</right_val></_></_>
        <_>
          <!-- tree 72 -->
          <_>
            <!-- root node -->
            <feature>
              <rects>
                <_>
                  7 10 3 24 -1.</_>
                <_>
                  8 10 1 24 3.</_></rects>
              <tilted>0</tilted></feature>
            <threshold>4.6138628385961056e-003</threshold>
            <left_val>-7.2824686765670776e-002</left_val>
            <right_val>3.3981990814208984e-001</right_val></_></_>
        <_>
          <!-- tree 73 -->
          <_>
            <!-- root node -->
            <feature>
              <rects>
                <_>
                  6 33 24 1 -1.</_>
                <_>
                  14 33 8 1 3.</_></rects>
              <tilted>0</tilted></feature>
            <threshold>3.0443089082837105e-002</threshold>
            <left_val>-1.8512379378080368e-002</left_val>
            <right_val>7.8733170032501221e-001</right_val></_></_>
        <_>
          <!-- tree 74 -->
          <_>
            <!-- root node -->
            <feature>
              <rects>
                <_>
                  12 3 2 1 -1.</_>
                <_>
                  13 3 1 1 2.</_></rects>
              <tilted>0</tilted></feature>
            <threshold>-2.1757639842689969e-005</threshold>
            <left_val>-1.9853389263153076e-001</left_val>
            <right_val>1.2002500146627426e-001</right_val></_></_>
        <_>
          <!-- tree 75 -->
          <_>
            <!-- root node -->
            <feature>
              <rects>
                <_>
                  16 1 10 4 -1.</_>
                <_>
                  21 1 5 2 2.</_>
                <_>
                  16 3 5 2 2.</_></rects>
              <tilted>0</tilted></feature>
            <threshold>6.6442401148378849e-003</threshold>
            <left_val>-4.5696701854467392e-002</left_val>
            <right_val>1.8078419566154480e-001</right_val></_></_></trees>
      <stage_threshold>-1.2447259426116943e+000</stage_threshold>
      <parent>18</parent>
      <next>-1</next></_></stages></_2human_square_detect_34>
</opencv_storage>
