<?xml version="1.0"?>
<opencv_storage>
<__1_kane-facial type_id="opencv-haar-classifier">
  <size>
    24 24</size>
  <stages>
    <_>
      <!-- stage 0 -->
      <trees>
        <_>
          <!-- tree 0 -->
          <_>
            <!-- root node -->
            <feature>
              <rects>
                <_>
                  3 7 18 14 -1.</_>
                <_>
                  3 14 18 7 2.</_></rects>
              <tilted>0</tilted></feature>
            <threshold>-1.7146989703178406e-001</threshold>
            <left_val>7.3712259531021118e-001</left_val>
            <right_val>-6.5149110555648804e-001</right_val></_></_>
        <_>
          <!-- tree 1 -->
          <_>
            <!-- root node -->
            <feature>
              <rects>
                <_>
                  10 0 14 7 -1.</_>
                <_>
                  10 0 7 7 2.</_></rects>
              <tilted>0</tilted></feature>
            <threshold>3.8105160929262638e-003</threshold>
            <left_val>-2.7314791083335876e-001</left_val>
            <right_val>2.4964819848537445e-001</right_val></_></_>
        <_>
          <!-- tree 2 -->
          <_>
            <!-- root node -->
            <feature>
              <rects>
                <_>
                  0 0 18 9 -1.</_>
                <_>
                  9 0 9 9 2.</_></rects>
              <tilted>0</tilted></feature>
            <threshold>1.6243910416960716e-002</threshold>
            <left_val>-8.8166171312332153e-001</left_val>
            <right_val>4.9771469831466675e-001</right_val></_></_>
        <_>
          <!-- tree 3 -->
          <_>
            <!-- root node -->
            <feature>
              <rects>
                <_>
                  7 8 10 6 -1.</_>
                <_>
                  7 10 10 2 3.</_></rects>
              <tilted>0</tilted></feature>
            <threshold>2.8142929077148438e-002</threshold>
            <left_val>-3.3123919367790222e-001</left_val>
            <right_val>9.0727132558822632e-001</right_val></_></_>
        <_>
          <!-- tree 4 -->
          <_>
            <!-- root node -->
            <feature>
              <rects>
                <_>
                  5 9 14 15 -1.</_>
                <_>
                  12 9 7 15 2.</_></rects>
              <tilted>0</tilted></feature>
            <threshold>-2.3695740848779678e-002</threshold>
            <left_val>-9.0598362684249878e-001</left_val>
            <right_val>3.3040559291839600e-001</right_val></_></_></trees>
      <stage_threshold>-1.2843379974365234e+000</stage_threshold>
      <parent>-1</parent>
      <next>-1</next></_>
    <_>
      <!-- stage 1 -->
      <trees>
        <_>
          <!-- tree 0 -->
          <_>
            <!-- root node -->
            <feature>
              <rects>
                <_>
                  0 9 20 10 -1.</_>
                <_>
                  0 14 20 5 2.</_></rects>
              <tilted>0</tilted></feature>
            <threshold>-1.1580509692430496e-001</threshold>
            <left_val>6.6725671291351318e-001</left_val>
            <right_val>-5.9370070695877075e-001</right_val></_></_>
        <_>
          <!-- tree 1 -->
          <_>
            <!-- root node -->
            <feature>
              <rects>
                <_>
                  14 0 10 7 -1.</_>
                <_>
                  14 0 5 7 2.</_></rects>
              <tilted>0</tilted></feature>
            <threshold>1.2149990070611238e-003</threshold>
            <left_val>-3.2116571068763733e-001</left_val>
            <right_val>2.1554750204086304e-001</right_val></_></_>
        <_>
          <!-- tree 2 -->
          <_>
            <!-- root node -->
            <feature>
              <rects>
                <_>
                  0 0 20 12 -1.</_>
                <_>
                  10 0 10 12 2.</_></rects>
              <tilted>0</tilted></feature>
            <threshold>2.4809990078210831e-002</threshold>
            <left_val>-8.0522412061691284e-001</left_val>
            <right_val>3.6581328511238098e-001</right_val></_></_>
        <_>
          <!-- tree 3 -->
          <_>
            <!-- root node -->
            <feature>
              <rects>
                <_>
                  0 19 24 5 -1.</_>
                <_>
                  0 19 12 5 2.</_></rects>
              <tilted>0</tilted></feature>
            <threshold>-3.9608441293239594e-002</threshold>
            <left_val>-9.4650661945343018e-001</left_val>
            <right_val>2.6822060346603394e-001</right_val></_></_>
        <_>
          <!-- tree 4 -->
          <_>
            <!-- root node -->
            <feature>
              <rects>
                <_>
                  5 18 13 6 -1.</_>
                <_>
                  5 20 13 2 3.</_></rects>
              <tilted>0</tilted></feature>
            <threshold>-3.5595979541540146e-002</threshold>
            <left_val>9.0501791238784790e-001</left_val>
            <right_val>-3.8589560985565186e-001</right_val></_></_>
        <_>
          <!-- tree 5 -->
          <_>
            <!-- root node -->
            <feature>
              <rects>
                <_>
                  4 9 16 3 -1.</_>
                <_>
                  4 10 16 1 3.</_></rects>
              <tilted>0</tilted></feature>
            <threshold>6.0636061243712902e-003</threshold>
            <left_val>-3.0611088871955872e-001</left_val>
            <right_val>7.8427678346633911e-001</right_val></_></_></trees>
      <stage_threshold>-9.7283887863159180e-001</stage_threshold>
      <parent>0</parent>
      <next>-1</next></_>
    <_>
      <!-- stage 2 -->
      <trees>
        <_>
          <!-- tree 0 -->
          <_>
            <!-- root node -->
            <feature>
              <rects>
                <_>
                  0 2 20 8 -1.</_>
                <_>
                  10 2 10 8 2.</_></rects>
              <tilted>0</tilted></feature>
            <threshold>1.5178249450400472e-003</threshold>
            <left_val>-9.5918357372283936e-001</left_val>
            <right_val>5.5731242895126343e-001</right_val></_></_>
        <_>
          <!-- tree 1 -->
          <_>
            <!-- root node -->
            <feature>
              <rects>
                <_>
                  10 8 5 10 -1.</_>
                <_>
                  10 13 5 5 2.</_></rects>
              <tilted>0</tilted></feature>
            <threshold>-1.7316929996013641e-002</threshold>
            <left_val>5.5305492877960205e-001</left_val>
            <right_val>-9.0752309560775757e-001</right_val></_></_>
        <_>
          <!-- tree 2 -->
          <_>
            <!-- root node -->
            <feature>
              <rects>
                <_>
                  0 3 18 9 -1.</_>
                <_>
                  0 6 18 3 3.</_></rects>
              <tilted>0</tilted></feature>
            <threshold>-3.0031949281692505e-002</threshold>
            <left_val>7.8395038843154907e-001</left_val>
            <right_val>-6.0519087314605713e-001</right_val></_></_>
        <_>
          <!-- tree 3 -->
          <_>
            <!-- root node -->
            <feature>
              <rects>
                <_>
                  6 0 18 9 -1.</_>
                <_>
                  12 0 6 9 3.</_></rects>
              <tilted>0</tilted></feature>
            <threshold>1.5977110015228391e-003</threshold>
            <left_val>-5.4589331150054932e-001</left_val>
            <right_val>2.9305508732795715e-001</right_val></_></_>
        <_>
          <!-- tree 4 -->
          <_>
            <!-- root node -->
            <feature>
              <rects>
                <_>
                  0 0 18 9 -1.</_>
                <_>
                  6 0 6 9 3.</_></rects>
              <tilted>0</tilted></feature>
            <threshold>1.8287109211087227e-002</threshold>
            <left_val>-7.9297327995300293e-001</left_val>
            <right_val>5.4296821355819702e-001</right_val></_></_>
        <_>
          <!-- tree 5 -->
          <_>
            <!-- root node -->
            <feature>
              <rects>
                <_>
                  7 14 10 6 -1.</_>
                <_>
                  7 16 10 2 3.</_></rects>
              <tilted>0</tilted></feature>
            <threshold>-1.1114220134913921e-002</threshold>
            <left_val>8.2892888784408569e-001</left_val>
            <right_val>-7.3330897092819214e-001</right_val></_></_>
        <_>
          <!-- tree 6 -->
          <_>
            <!-- root node -->
            <feature>
              <rects>
                <_>
                  2 12 2 10 -1.</_>
                <_>
                  2 17 2 5 2.</_></rects>
              <tilted>0</tilted></feature>
            <threshold>-6.1265798285603523e-003</threshold>
            <left_val>6.9733667373657227e-001</left_val>
            <right_val>-7.1209281682968140e-001</right_val></_></_></trees>
      <stage_threshold>-8.6966252326965332e-001</stage_threshold>
      <parent>1</parent>
      <next>-1</next></_>
    <_>
      <!-- stage 3 -->
      <trees>
        <_>
          <!-- tree 0 -->
          <_>
            <!-- root node -->
            <feature>
              <rects>
                <_>
                  0 0 6 11 -1.</_>
                <_>
                  3 0 3 11 2.</_></rects>
              <tilted>0</tilted></feature>
            <threshold>2.3636799305677414e-002</threshold>
            <left_val>-4.3560060858726501e-001</left_val>
            <right_val>5.9135597944259644e-001</right_val></_></_>
        <_>
          <!-- tree 1 -->
          <_>
            <!-- root node -->
            <feature>
              <rects>
                <_>
                  2 0 21 21 -1.</_>
                <_>
                  2 7 21 7 3.</_></rects>
              <tilted>0</tilted></feature>
            <threshold>2.9135778546333313e-001</threshold>
            <left_val>-3.2434108853340149e-001</left_val>
            <right_val>6.2607502937316895e-001</right_val></_></_>
        <_>
          <!-- tree 2 -->
          <_>
            <!-- root node -->
            <feature>
              <rects>
                <_>
                  3 9 18 11 -1.</_>
                <_>
                  12 9 9 11 2.</_></rects>
              <tilted>0</tilted></feature>
            <threshold>-8.4602702409029007e-003</threshold>
            <left_val>-8.4201651811599731e-001</left_val>
            <right_val>2.9527258872985840e-001</right_val></_></_>
        <_>
          <!-- tree 3 -->
          <_>
            <!-- root node -->
            <feature>
              <rects>
                <_>
                  1 14 22 7 -1.</_>
                <_>
                  1 14 11 7 2.</_></rects>
              <tilted>0</tilted></feature>
            <threshold>-3.6419391632080078e-002</threshold>
            <left_val>-6.5429532527923584e-001</left_val>
            <right_val>3.0577239394187927e-001</right_val></_></_>
        <_>
          <!-- tree 4 -->
          <_>
            <!-- root node -->
            <feature>
              <rects>
                <_>
                  0 0 18 5 -1.</_>
                <_>
                  9 0 9 5 2.</_></rects>
              <tilted>0</tilted></feature>
            <threshold>4.0065251290798187e-002</threshold>
            <left_val>-6.0763281583786011e-001</left_val>
            <right_val>3.0277431011199951e-001</right_val></_></_>
        <_>
          <!-- tree 5 -->
          <_>
            <!-- root node -->
            <feature>
              <rects>
                <_>
                  6 20 18 4 -1.</_>
                <_>
                  6 22 18 2 2.</_></rects>
              <tilted>0</tilted></feature>
            <threshold>2.8392640873789787e-002</threshold>
            <left_val>-1.5866619348526001e-001</left_val>
            <right_val>7.0550709962844849e-001</right_val></_></_>
        <_>
          <!-- tree 6 -->
          <_>
            <!-- root node -->
            <feature>
              <rects>
                <_>
                  9 16 6 6 -1.</_>
                <_>
                  9 18 6 2 3.</_></rects>
              <tilted>0</tilted></feature>
            <threshold>-1.6712360084056854e-002</threshold>
            <left_val>7.6718002557754517e-001</left_val>
            <right_val>-2.2244210541248322e-001</right_val></_></_>
        <_>
          <!-- tree 7 -->
          <_>
            <!-- root node -->
            <feature>
              <rects>
                <_>
                  14 13 2 1 -1.</_>
                <_>
                  14 13 1 1 2.</_></rects>
              <tilted>0</tilted></feature>
            <threshold>-3.8595969090238214e-004</threshold>
            <left_val>-6.7042607069015503e-001</left_val>
            <right_val>2.0714579522609711e-001</right_val></_></_>
        <_>
          <!-- tree 8 -->
          <_>
            <!-- root node -->
            <feature>
              <rects>
                <_>
                  5 19 13 2 -1.</_>
                <_>
                  5 20 13 1 2.</_></rects>
              <tilted>0</tilted></feature>
            <threshold>-9.2119034379720688e-003</threshold>
            <left_val>6.5658009052276611e-001</left_val>
            <right_val>-2.7969101071357727e-001</right_val></_></_></trees>
      <stage_threshold>-1.1177849769592285e+000</stage_threshold>
      <parent>2</parent>
      <next>-1</next></_>
    <_>
      <!-- stage 4 -->
      <trees>
        <_>
          <!-- tree 0 -->
          <_>
            <!-- root node -->
            <feature>
              <rects>
                <_>
                  0 12 24 12 -1.</_>
                <_>
                  12 12 12 12 2.</_></rects>
              <tilted>0</tilted></feature>
            <threshold>-3.3933050930500031e-002</threshold>
            <left_val>-8.8505738973617554e-001</left_val>
            <right_val>2.4600639939308167e-001</right_val></_></_>
        <_>
          <!-- tree 1 -->
          <_>
            <!-- root node -->
            <feature>
              <rects>
                <_>
                  7 2 10 22 -1.</_>
                <_>
                  7 13 10 11 2.</_></rects>
              <tilted>0</tilted></feature>
            <threshold>-1.2837429344654083e-001</threshold>
            <left_val>1.9716989994049072e-001</left_val>
            <right_val>-7.2228890657424927e-001</right_val></_></_>
        <_>
          <!-- tree 2 -->
          <_>
            <!-- root node -->
            <feature>
              <rects>
                <_>
                  8 18 8 3 -1.</_>
                <_>
                  8 19 8 1 3.</_></rects>
              <tilted>0</tilted></feature>
            <threshold>-8.3788102492690086e-003</threshold>
            <left_val>7.0226591825485229e-001</left_val>
            <right_val>-2.5814500451087952e-001</right_val></_></_>
        <_>
          <!-- tree 3 -->
          <_>
            <!-- root node -->
            <feature>
              <rects>
                <_>
                  0 19 24 2 -1.</_>
                <_>
                  0 19 12 2 2.</_></rects>
              <tilted>0</tilted></feature>
            <threshold>-2.0092019811272621e-002</threshold>
            <left_val>-8.6308091878890991e-001</left_val>
            <right_val>2.3939499258995056e-001</right_val></_></_>
        <_>
          <!-- tree 4 -->
          <_>
            <!-- root node -->
            <feature>
              <rects>
                <_>
                  9 19 4 4 -1.</_>
                <_>
                  11 19 2 4 2.</_></rects>
              <tilted>0</tilted></feature>
            <threshold>-3.0130969826132059e-003</threshold>
            <left_val>-7.8636032342910767e-001</left_val>
            <right_val>2.1260930597782135e-001</right_val></_></_>
        <_>
          <!-- tree 5 -->
          <_>
            <!-- root node -->
            <feature>
              <rects>
                <_>
                  0 17 24 3 -1.</_>
                <_>
                  0 18 24 1 3.</_></rects>
              <tilted>0</tilted></feature>
            <threshold>-2.7676660567522049e-002</threshold>
            <left_val>8.9700871706008911e-001</left_val>
            <right_val>-2.6298961043357849e-001</right_val></_></_>
        <_>
          <!-- tree 6 -->
          <_>
            <!-- root node -->
            <feature>
              <rects>
                <_>
                  9 8 4 5 -1.</_>
                <_>
                  11 8 2 5 2.</_></rects>
              <tilted>0</tilted></feature>
            <threshold>-2.2297271061688662e-003</threshold>
            <left_val>-9.1291940212249756e-001</left_val>
            <right_val>2.5638788938522339e-001</right_val></_></_>
        <_>
          <!-- tree 7 -->
          <_>
            <!-- root node -->
            <feature>
              <rects>
                <_>
                  22 6 2 12 -1.</_>
                <_>
                  23 6 1 6 2.</_>
                <_>
                  22 12 1 6 2.</_></rects>
              <tilted>0</tilted></feature>
            <threshold>-2.8739660046994686e-003</threshold>
            <left_val>3.6694419384002686e-001</left_val>
            <right_val>-2.3635509610176086e-001</right_val></_></_></trees>
      <stage_threshold>-1.0531450510025024e+000</stage_threshold>
      <parent>3</parent>
      <next>-1</next></_>
    <_>
      <!-- stage 5 -->
      <trees>
        <_>
          <!-- tree 0 -->
          <_>
            <!-- root node -->
            <feature>
              <rects>
                <_>
                  3 8 15 3 -1.</_>
                <_>
                  3 9 15 1 3.</_></rects>
              <tilted>0</tilted></feature>
            <threshold>1.3764919713139534e-002</threshold>
            <left_val>-2.8476810455322266e-001</left_val>
            <right_val>8.7755131721496582e-001</right_val></_></_>
        <_>
          <!-- tree 1 -->
          <_>
            <!-- root node -->
            <feature>
              <rects>
                <_>
                  4 9 16 3 -1.</_>
                <_>
                  4 10 16 1 3.</_></rects>
              <tilted>0</tilted></feature>
            <threshold>1.5073619782924652e-002</threshold>
            <left_val>-2.2704149782657623e-001</left_val>
            <right_val>7.3530441522598267e-001</right_val></_></_>
        <_>
          <!-- tree 2 -->
          <_>
            <!-- root node -->
            <feature>
              <rects>
                <_>
                  0 21 22 3 -1.</_>
                <_>
                  0 22 22 1 3.</_></rects>
              <tilted>0</tilted></feature>
            <threshold>1.7791079357266426e-002</threshold>
            <left_val>-2.2395749390125275e-001</left_val>
            <right_val>8.8452088832855225e-001</right_val></_></_>
        <_>
          <!-- tree 3 -->
          <_>
            <!-- root node -->
            <feature>
              <rects>
                <_>
                  8 22 8 2 -1.</_>
                <_>
                  8 22 4 2 2.</_></rects>
              <tilted>0</tilted></feature>
            <threshold>-3.1216009519994259e-003</threshold>
            <left_val>-8.6654269695281982e-001</left_val>
            <right_val>3.1061229109764099e-001</right_val></_></_>
        <_>
          <!-- tree 4 -->
          <_>
            <!-- root node -->
            <feature>
              <rects>
                <_>
                  2 18 18 6 -1.</_>
                <_>
                  11 18 9 6 2.</_></rects>
              <tilted>0</tilted></feature>
            <threshold>-5.5108340457081795e-003</threshold>
            <left_val>-7.2875708341598511e-001</left_val>
            <right_val>3.1845799088478088e-001</right_val></_></_>
        <_>
          <!-- tree 5 -->
          <_>
            <!-- root node -->
            <feature>
              <rects>
                <_>
                  6 21 15 3 -1.</_>
                <_>
                  6 22 15 1 3.</_></rects>
              <tilted>0</tilted></feature>
            <threshold>-1.7687240615487099e-002</threshold>
            <left_val>8.0384200811386108e-001</left_val>
            <right_val>-3.0031189322471619e-001</right_val></_></_></trees>
      <stage_threshold>-4.9187800288200378e-001</stage_threshold>
      <parent>4</parent>
      <next>-1</next></_>
    <_>
      <!-- stage 6 -->
      <trees>
        <_>
          <!-- tree 0 -->
          <_>
            <!-- root node -->
            <feature>
              <rects>
                <_>
                  0 6 4 18 -1.</_>
                <_>
                  0 6 2 9 2.</_>
                <_>
                  2 15 2 9 2.</_></rects>
              <tilted>0</tilted></feature>
            <threshold>-1.8809240311384201e-002</threshold>
            <left_val>8.1758958101272583e-001</left_val>
            <right_val>-2.8107509016990662e-001</right_val></_></_>
        <_>
          <!-- tree 1 -->
          <_>
            <!-- root node -->
            <feature>
              <rects>
                <_>
                  9 0 15 10 -1.</_>
                <_>
                  14 0 5 10 3.</_></rects>
              <tilted>0</tilted></feature>
            <threshold>2.0429380238056183e-002</threshold>
            <left_val>-1.0162889957427979e-001</left_val>
            <right_val>2.1789319813251495e-001</right_val></_></_>
        <_>
          <!-- tree 2 -->
          <_>
            <!-- root node -->
            <feature>
              <rects>
                <_>
                  0 9 3 6 -1.</_>
                <_>
                  1 9 1 6 3.</_></rects>
              <tilted>0</tilted></feature>
            <threshold>2.4328860454261303e-003</threshold>
            <left_val>-2.6761838793754578e-001</left_val>
            <right_val>6.0820609331130981e-001</right_val></_></_>
        <_>
          <!-- tree 3 -->
          <_>
            <!-- root node -->
            <feature>
              <rects>
                <_>
                  10 17 5 3 -1.</_>
                <_>
                  10 18 5 1 3.</_></rects>
              <tilted>0</tilted></feature>
            <threshold>-4.0560988709330559e-003</threshold>
            <left_val>5.1138222217559814e-001</left_val>
            <right_val>-2.8797540068626404e-001</right_val></_></_>
        <_>
          <!-- tree 4 -->
          <_>
            <!-- root node -->
            <feature>
              <rects>
                <_>
                  7 23 9 1 -1.</_>
                <_>
                  10 23 3 1 3.</_></rects>
              <tilted>0</tilted></feature>
            <threshold>7.1038719033822417e-004</threshold>
            <left_val>2.7712950110435486e-001</left_val>
            <right_val>-5.8879297971725464e-001</right_val></_></_>
        <_>
          <!-- tree 5 -->
          <_>
            <!-- root node -->
            <feature>
              <rects>
                <_>
                  11 14 9 4 -1.</_>
                <_>
                  14 14 3 4 3.</_></rects>
              <tilted>0</tilted></feature>
            <threshold>-8.4810974076390266e-003</threshold>
            <left_val>5.0673592090606689e-001</left_val>
            <right_val>-1.7873409390449524e-001</right_val></_></_>
        <_>
          <!-- tree 6 -->
          <_>
            <!-- root node -->
            <feature>
              <rects>
                <_>
                  2 0 20 3 -1.</_>
                <_>
                  2 1 20 1 3.</_></rects>
              <tilted>0</tilted></feature>
            <threshold>1.8799969926476479e-002</threshold>
            <left_val>-1.8514169752597809e-001</left_val>
            <right_val>7.7574270963668823e-001</right_val></_></_>
        <_>
          <!-- tree 7 -->
          <_>
            <!-- root node -->
            <feature>
              <rects>
                <_>
                  21 2 3 19 -1.</_>
                <_>
                  22 2 1 19 3.</_></rects>
              <tilted>0</tilted></feature>
            <threshold>-1.1547639966011047e-002</threshold>
            <left_val>7.4378108978271484e-001</left_val>
            <right_val>-1.0138969868421555e-001</right_val></_></_>
        <_>
          <!-- tree 8 -->
          <_>
            <!-- root node -->
            <feature>
              <rects>
                <_>
                  0 3 3 18 -1.</_>
                <_>
                  1 3 1 18 3.</_></rects>
              <tilted>0</tilted></feature>
            <threshold>-7.2838021442294121e-003</threshold>
            <left_val>7.3990190029144287e-001</left_val>
            <right_val>-2.2008599340915680e-001</right_val></_></_>
        <_>
          <!-- tree 9 -->
          <_>
            <!-- root node -->
            <feature>
              <rects>
                <_>
                  16 3 2 2 -1.</_>
                <_>
                  16 3 1 2 2.</_></rects>
              <tilted>0</tilted></feature>
            <threshold>1.0192940244451165e-003</threshold>
            <left_val>1.3822759687900543e-001</left_val>
            <right_val>-6.4934301376342773e-001</right_val></_></_>
        <_>
          <!-- tree 10 -->
          <_>
            <!-- root node -->
            <feature>
              <rects>
                <_>
                  3 13 6 4 -1.</_>
                <_>
                  6 13 3 4 2.</_></rects>
              <tilted>0</tilted></feature>
            <threshold>-6.6646002233028412e-003</threshold>
            <left_val>6.1712771654129028e-001</left_val>
            <right_val>-2.6491451263427734e-001</right_val></_></_></trees>
      <stage_threshold>-1.1437820196151733e+000</stage_threshold>
      <parent>5</parent>
      <next>-1</next></_>
    <_>
      <!-- stage 7 -->
      <trees>
        <_>
          <!-- tree 0 -->
          <_>
            <!-- root node -->
            <feature>
              <rects>
                <_>
                  3 8 16 3 -1.</_>
                <_>
                  3 9 16 1 3.</_></rects>
              <tilted>0</tilted></feature>
            <threshold>2.2883329540491104e-002</threshold>
            <left_val>-2.0851050317287445e-001</left_val>
            <right_val>7.5384640693664551e-001</right_val></_></_>
        <_>
          <!-- tree 1 -->
          <_>
            <!-- root node -->
            <feature>
              <rects>
                <_>
                  16 0 8 9 -1.</_>
                <_>
                  16 0 4 9 2.</_></rects>
              <tilted>0</tilted></feature>
            <threshold>4.3268259614706039e-003</threshold>
            <left_val>-3.6941540241241455e-001</left_val>
            <right_val>3.0980721116065979e-001</right_val></_></_>
        <_>
          <!-- tree 2 -->
          <_>
            <!-- root node -->
            <feature>
              <rects>
                <_>
                  0 7 24 3 -1.</_>
                <_>
                  0 8 24 1 3.</_></rects>
              <tilted>0</tilted></feature>
            <threshold>2.0351789891719818e-002</threshold>
            <left_val>-2.2775509953498840e-001</left_val>
            <right_val>7.1130198240280151e-001</right_val></_></_>
        <_>
          <!-- tree 3 -->
          <_>
            <!-- root node -->
            <feature>
              <rects>
                <_>
                  12 0 12 16 -1.</_>
                <_>
                  16 0 4 16 3.</_></rects>
              <tilted>0</tilted></feature>
            <threshold>-6.5962962806224823e-002</threshold>
            <left_val>-9.3315988779067993e-001</left_val>
            <right_val>6.4351156353950500e-002</right_val></_></_>
        <_>
          <!-- tree 4 -->
          <_>
            <!-- root node -->
            <feature>
              <rects>
                <_>
                  7 9 9 3 -1.</_>
                <_>
                  7 10 9 1 3.</_></rects>
              <tilted>0</tilted></feature>
            <threshold>8.6524272337555885e-003</threshold>
            <left_val>-2.9019510746002197e-001</left_val>
            <right_val>6.0403758287429810e-001</right_val></_></_>
        <_>
          <!-- tree 5 -->
          <_>
            <!-- root node -->
            <feature>
              <rects>
                <_>
                  9 0 15 8 -1.</_>
                <_>
                  14 0 5 8 3.</_></rects>
              <tilted>0</tilted></feature>
            <threshold>9.3250192701816559e-002</threshold>
            <left_val>5.7514511048793793e-002</left_val>
            <right_val>-9.4660222530364990e-001</right_val></_></_>
        <_>
          <!-- tree 6 -->
          <_>
            <!-- root node -->
            <feature>
              <rects>
                <_>
                  0 0 12 5 -1.</_>
                <_>
                  6 0 6 5 2.</_></rects>
              <tilted>0</tilted></feature>
            <threshold>1.5179130248725414e-002</threshold>
            <left_val>-6.4860659837722778e-001</left_val>
            <right_val>2.8383359313011169e-001</right_val></_></_>
        <_>
          <!-- tree 7 -->
          <_>
            <!-- root node -->
            <feature>
              <rects>
                <_>
                  5 1 18 3 -1.</_>
                <_>
                  5 2 18 1 3.</_></rects>
              <tilted>0</tilted></feature>
            <threshold>2.6272550225257874e-002</threshold>
            <left_val>-1.4372619986534119e-001</left_val>
            <right_val>8.1210958957672119e-001</right_val></_></_>
        <_>
          <!-- tree 8 -->
          <_>
            <!-- root node -->
            <feature>
              <rects>
                <_>
                  2 9 9 10 -1.</_>
                <_>
                  2 14 9 5 2.</_></rects>
              <tilted>0</tilted></feature>
            <threshold>-7.5594067573547363e-002</threshold>
            <left_val>4.8452219367027283e-001</left_val>
            <right_val>-3.2789918780326843e-001</right_val></_></_></trees>
      <stage_threshold>-1.1551849842071533e+000</stage_threshold>
      <parent>6</parent>
      <next>-1</next></_>
    <_>
      <!-- stage 8 -->
      <trees>
        <_>
          <!-- tree 0 -->
          <_>
            <!-- root node -->
            <feature>
              <rects>
                <_>
                  7 18 9 3 -1.</_>
                <_>
                  7 19 9 1 3.</_></rects>
              <tilted>0</tilted></feature>
            <threshold>-7.0059308782219887e-003</threshold>
            <left_val>5.9183692932128906e-001</left_val>
            <right_val>-2.3687280714511871e-001</right_val></_></_>
        <_>
          <!-- tree 1 -->
          <_>
            <!-- root node -->
            <feature>
              <rects>
                <_>
                  13 19 3 3 -1.</_>
                <_>
                  13 20 3 1 3.</_></rects>
              <tilted>0</tilted></feature>
            <threshold>-2.2696950472891331e-003</threshold>
            <left_val>4.1922131180763245e-001</left_val>
            <right_val>-2.0284819602966309e-001</right_val></_></_>
        <_>
          <!-- tree 2 -->
          <_>
            <!-- root node -->
            <feature>
              <rects>
                <_>
                  1 2 21 22 -1.</_>
                <_>
                  1 13 21 11 2.</_></rects>
              <tilted>0</tilted></feature>
            <threshold>-2.2509899735450745e-001</threshold>
            <left_val>1.9983400404453278e-001</left_val>
            <right_val>-7.2289252281188965e-001</right_val></_></_>
        <_>
          <!-- tree 3 -->
          <_>
            <!-- root node -->
            <feature>
              <rects>
                <_>
                  0 12 24 12 -1.</_>
                <_>
                  12 12 12 6 2.</_>
                <_>
                  0 18 12 6 2.</_></rects>
              <tilted>0</tilted></feature>
            <threshold>-3.8353700190782547e-002</threshold>
            <left_val>-9.2418342828750610e-001</left_val>
            <right_val>2.1642640233039856e-001</right_val></_></_>
        <_>
          <!-- tree 4 -->
          <_>
            <!-- root node -->
            <feature>
              <rects>
                <_>
                  0 10 1 2 -1.</_>
                <_>
                  0 11 1 1 2.</_></rects>
              <tilted>0</tilted></feature>
            <threshold>2.5501058553345501e-004</threshold>
            <left_val>-3.6542728543281555e-001</left_val>
            <right_val>4.2971009016036987e-001</right_val></_></_>
        <_>
          <!-- tree 5 -->
          <_>
            <!-- root node -->
            <feature>
              <rects>
                <_>
                  8 0 16 20 -1.</_>
                <_>
                  16 0 8 10 2.</_>
                <_>
                  8 10 8 10 2.</_></rects>
              <tilted>0</tilted></feature>
            <threshold>-8.9361844584345818e-003</threshold>
            <left_val>2.1170470118522644e-001</left_val>
            <right_val>-2.9854410886764526e-001</right_val></_></_>
        <_>
          <!-- tree 6 -->
          <_>
            <!-- root node -->
            <feature>
              <rects>
                <_>
                  0 7 12 13 -1.</_>
                <_>
                  6 7 6 13 2.</_></rects>
              <tilted>0</tilted></feature>
            <threshold>6.6010497510433197e-002</threshold>
            <left_val>1.7958630621433258e-001</left_val>
            <right_val>-7.7785229682922363e-001</right_val></_></_>
        <_>
          <!-- tree 7 -->
          <_>
            <!-- root node -->
            <feature>
              <rects>
                <_>
                  8 9 8 6 -1.</_>
                <_>
                  8 11 8 2 3.</_></rects>
              <tilted>0</tilted></feature>
            <threshold>4.2434461414813995e-002</threshold>
            <left_val>-2.0878340303897858e-001</left_val>
            <right_val>7.4199688434600830e-001</right_val></_></_>
        <_>
          <!-- tree 8 -->
          <_>
            <!-- root node -->
            <feature>
              <rects>
                <_>
                  3 22 18 1 -1.</_>
                <_>
                  12 22 9 1 2.</_></rects>
              <tilted>0</tilted></feature>
            <threshold>-3.4650010056793690e-003</threshold>
            <left_val>-7.6401352882385254e-001</left_val>
            <right_val>2.1102720499038696e-001</right_val></_></_>
        <_>
          <!-- tree 9 -->
          <_>
            <!-- root node -->
            <feature>
              <rects>
                <_>
                  5 7 16 6 -1.</_>
                <_>
                  5 9 16 2 3.</_></rects>
              <tilted>0</tilted></feature>
            <threshold>4.4535499066114426e-002</threshold>
            <left_val>-3.0211660265922546e-001</left_val>
            <right_val>5.0984632968902588e-001</right_val></_></_></trees>
      <stage_threshold>-8.0771839618682861e-001</stage_threshold>
      <parent>7</parent>
      <next>-1</next></_>
    <_>
      <!-- stage 9 -->
      <trees>
        <_>
          <!-- tree 0 -->
          <_>
            <!-- root node -->
            <feature>
              <rects>
                <_>
                  0 0 10 13 -1.</_>
                <_>
                  5 0 5 13 2.</_></rects>
              <tilted>0</tilted></feature>
            <threshold>3.2251399010419846e-002</threshold>
            <left_val>-5.4929572343826294e-001</left_val>
            <right_val>3.0232560634613037e-001</right_val></_></_>
        <_>
          <!-- tree 1 -->
          <_>
            <!-- root node -->
            <feature>
              <rects>
                <_>
                  22 2 2 22 -1.</_>
                <_>
                  23 2 1 11 2.</_>
                <_>
                  22 13 1 11 2.</_></rects>
              <tilted>0</tilted></feature>
            <threshold>-8.2174036651849747e-003</threshold>
            <left_val>4.6116781234741211e-001</left_val>
            <right_val>-1.4645269513130188e-001</right_val></_></_>
        <_>
          <!-- tree 2 -->
          <_>
            <!-- root node -->
            <feature>
              <rects>
                <_>
                  0 2 2 22 -1.</_>
                <_>
                  0 2 1 11 2.</_>
                <_>
                  1 13 1 11 2.</_></rects>
              <tilted>0</tilted></feature>
            <threshold>-5.2940938621759415e-003</threshold>
            <left_val>4.9218681454658508e-001</left_val>
            <right_val>-3.0437481403350830e-001</right_val></_></_>
        <_>
          <!-- tree 3 -->
          <_>
            <!-- root node -->
            <feature>
              <rects>
                <_>
                  10 0 10 2 -1.</_>
                <_>
                  10 1 10 1 2.</_></rects>
              <tilted>0</tilted></feature>
            <threshold>7.0881531573832035e-003</threshold>
            <left_val>-2.2342410683631897e-001</left_val>
            <right_val>4.9582138657569885e-001</right_val></_></_>
        <_>
          <!-- tree 4 -->
          <_>
            <!-- root node -->
            <feature>
              <rects>
                <_>
                  3 12 9 6 -1.</_>
                <_>
                  6 12 3 6 3.</_></rects>
              <tilted>0</tilted></feature>
            <threshold>-4.9053640104830265e-003</threshold>
            <left_val>4.2211210727691650e-001</left_val>
            <right_val>-3.5918870568275452e-001</right_val></_></_>
        <_>
          <!-- tree 5 -->
          <_>
            <!-- root node -->
            <feature>
              <rects>
                <_>
                  2 20 20 3 -1.</_>
                <_>
                  2 21 20 1 3.</_></rects>
              <tilted>0</tilted></feature>
            <threshold>-1.9291389733552933e-002</threshold>
            <left_val>7.1809130907058716e-001</left_val>
            <right_val>-1.8103599548339844e-001</right_val></_></_>
        <_>
          <!-- tree 6 -->
          <_>
            <!-- root node -->
            <feature>
              <rects>
                <_>
                  7 17 10 3 -1.</_>
                <_>
                  7 18 10 1 3.</_></rects>
              <tilted>0</tilted></feature>
            <threshold>-1.9672460854053497e-002</threshold>
            <left_val>7.8534328937530518e-001</left_val>
            <right_val>-1.3965970277786255e-001</right_val></_></_>
        <_>
          <!-- tree 7 -->
          <_>
            <!-- root node -->
            <feature>
              <rects>
                <_>
                  9 18 6 2 -1.</_>
                <_>
                  9 18 3 2 2.</_></rects>
              <tilted>0</tilted></feature>
            <threshold>-3.3512080553919077e-003</threshold>
            <left_val>-8.5212552547454834e-001</left_val>
            <right_val>1.8532019853591919e-001</right_val></_></_>
        <_>
          <!-- tree 8 -->
          <_>
            <!-- root node -->
            <feature>
              <rects>
                <_>
                  7 0 9 3 -1.</_>
                <_>
                  7 1 9 1 3.</_></rects>
              <tilted>0</tilted></feature>
            <threshold>-8.9000221341848373e-003</threshold>
            <left_val>5.6079727411270142e-001</left_val>
            <right_val>-2.5154331326484680e-001</right_val></_></_>
        <_>
          <!-- tree 9 -->
          <_>
            <!-- root node -->
            <feature>
              <rects>
                <_>
                  9 0 8 3 -1.</_>
                <_>
                  9 1 8 1 3.</_></rects>
              <tilted>0</tilted></feature>
            <threshold>4.0265391580760479e-003</threshold>
            <left_val>-3.0545449256896973e-001</left_val>
            <right_val>4.7494199872016907e-001</right_val></_></_>
        <_>
          <!-- tree 10 -->
          <_>
            <!-- root node -->
            <feature>
              <rects>
                <_>
                  9 5 6 2 -1.</_>
                <_>
                  9 6 6 1 2.</_></rects>
              <tilted>0</tilted></feature>
            <threshold>-5.2879720897180960e-005</threshold>
            <left_val>3.6147540807723999e-001</left_val>
            <right_val>-4.0188670158386230e-001</right_val></_></_>
        <_>
          <!-- tree 11 -->
          <_>
            <!-- root node -->
            <feature>
              <rects>
                <_>
                  13 9 10 8 -1.</_>
                <_>
                  18 9 5 4 2.</_>
                <_>
                  13 13 5 4 2.</_></rects>
              <tilted>0</tilted></feature>
            <threshold>-9.4304922968149185e-003</threshold>
            <left_val>2.3470470309257507e-001</left_val>
            <right_val>-1.9201450049877167e-001</right_val></_></_>
        <_>
          <!-- tree 12 -->
          <_>
            <!-- root node -->
            <feature>
              <rects>
                <_>
                  0 6 1 10 -1.</_>
                <_>
                  0 11 1 5 2.</_></rects>
              <tilted>0</tilted></feature>
            <threshold>2.4553521070629358e-003</threshold>
            <left_val>-3.4382298588752747e-001</left_val>
            <right_val>3.8968381285667419e-001</right_val></_></_></trees>
      <stage_threshold>-9.7888761758804321e-001</stage_threshold>
      <parent>8</parent>
      <next>-1</next></_></stages></__1_kane-facial>
</opencv_storage>
